{
  "version": "1.0",
  "truncation": null,
  "padding": {
    "strategy": "BatchLongest",
    "direction": "Right",
    "pad_to_multiple_of": null,
    "pad_id": 0,
    "pad_type_id": 0,
    "pad_token": "[PAD]"
  },
  "added_tokens": [
    {
      "id": 0,
      "content": "[PAD]",
      "single_word": false,
      "lstrip": false,
      "rstrip": false,
      "normalized": false,
      "special": true
    },
    {
      "id": 1,
      "content": "[UNK]",
      "single_word": false,
      "lstrip": false,
      "rstrip": false,
      "normalized": false,
      "special": true
    },
    {
      "id": 2,
      "content": "[CLS]",
      "single_word": false,
      "lstrip": false,
      "rstrip": false,
      "normalized": false,
      "special": true
    },
    {
      "id": 3,
      "content": "[SEP]",
      "single_word": false,
      "lstrip": false,
      "rstrip": false,
      "normalized": false,
      "special": true
    },
    {
      "id": 4,
      "content": "[MASK]",
      "single_word": false,
      "lstrip": false,
      "rstrip": false,
      "normalized": false,
      "special": true
    }
  ],
  "normalizer": {
    "type": "BertNormalizer",
    "clean_text": true,
    "handle_chinese_chars": true,
    "strip_accents": null,
    "lowercase": true
  },
  "pre_tokenizer": {
    "type": "BertPreTokenizer"
  },
  "post_processor": {
    "type": "TemplateProcessing",
    "single": [
      {
        "SpecialToken": {
          "id": "[CLS]",
          "type_id": 0
        }
      },
      {
        "Sequence": {
          "id": "A",
          "type_id": 0
        }
      },
      {
        "SpecialToken": {
          "id": "[SEP]",
          "type_id": 0
        }
      }
    ],
    "pair": [
      {
        "SpecialToken": {
          "id": "[CLS]",
          "type_id": 0
        }
      },
      {
        "Sequence": {
          "id": "A",
          "type_id": 0
        }
      },
      {
        "SpecialToken": {
          "id": "[SEP]",
          "type_id": 0
        }
      },
      {
        "Sequence": {
          "id": "B",
          "type_id": 1
        }
      },
      {
        "SpecialToken": {
          "id": "[SEP]",
          "type_id": 1
        }
      }
    ],
    "special_tokens": {
      "[CLS]": {
        "id": "[CLS]",
        "ids": [
          2
        ],
        "tokens": [
          "[CLS]"
        ]
      },
      "[SEP]": {
        "id": "[SEP]",
        "ids": [
          3
        ],
        "tokens": [
          "[SEP]"
        ]
      }
    }
  },
  "decoder": {
    "type": "WordPiece",
    "prefix": "##",
    "cleanup": true
  },
  "model": {
    "type": "WordPiece",
    "unk_token": "[UNK]",
    "continuing_subword_prefix": "##",
    "max_input_chars_per_word": 100,
    "vocab": {
      "[PAD]": 0,
      "[UNK]": 1,
      "[CLS]": 2,
      "[SEP]": 3,
      "[MASK]": 4,
      "!": 5,
      "\"": 6,
      "#": 7,
      "$": 8,
      "%": 9,
      "&": 10,
      "'": 11,
      "(": 12,
      ")": 13,
      "*": 14,
      "+": 15,
      ",": 16,
      "-": 17,
      ".": 18,
      "/": 19,
      "0": 20,
      "1": 21,
      "2": 22,
      "3": 23,
      "4": 24,
      "5": 25,
      "6": 26,
      "7": 27,
      "8": 28,
      "9": 29,
      ":": 30,
      ";": 31,
      "<": 32,
      "=": 33,
      ">": 34,
      "?": 35,
      "@": 36,
      "[": 37,
      "\\": 38,
      "]": 39,
      "^": 40,
      "_": 41,
      "`": 42,
      "a": 43,
      "b": 44,
      "c": 45,
      "d": 46,
      "e": 47,
      "f": 48,
      "g": 49,
      "h": 50,
      "i": 51,
      "j": 52,
      "k": 53,
      "l": 54,
      "m": 55,
      "n": 56,
      "o": 57,
      "p": 58,
      "q": 59,
      "r": 60,
      "s": 61,
      "t": 62,
      "u": 63,
      "v": 64,
      "w": 65,
      "x": 66,
      "y": 67,
      "z": 68,
      "{": 69,
      "|": 70,
      "}": 71,
      "~": 72,
      "¡": 73,
      "£": 74,
      "¤": 75,
      "¥": 76,
      "¦": 77,
      "§": 78,
      "¨": 79,
      "©": 80,
      "«": 81,
      "¬": 82,
      "®": 83,
      "°": 84,
      "±": 85,
      "²": 86,
      "³": 87,
      "´": 88,
      "µ": 89,
      "¶": 90,
      "·": 91,
      "¸": 92,
      "¹": 93,
      "º": 94,
      "»": 95,
      "¼": 96,
      "½": 97,
      "¾": 98,
      "×": 99,
      "ß": 100,
      "æ": 101,
      "ð": 102,
      "÷": 103,
      "ø": 104,
      "þ": 105,
      "đ": 106,
      "ħ": 107,
      "ı": 108,
      "ł": 109,
      "œ": 110,
      "ƒ": 111,
      "ʺ": 112,
      "ʼ": 113,
      "ʾ": 114,
      "ˑ": 115,
      "˙": 116,
      "˚": 117,
      "˝": 118,
      "ͺ": 119,
      "΄": 120,
      "α": 121,
      "β": 122,
      "γ": 123,
      "δ": 124,
      "ε": 125,
      "ζ": 126,
      "η": 127,
      "θ": 128,
      "ι": 129,
      "κ": 130,
      "λ": 131,
      "μ": 132,
      "ν": 133,
      "ξ": 134,
      "ο": 135,
      "π": 136,
      "ρ": 137,
      "ς": 138,
      "σ": 139,
      "τ": 140,
      "υ": 141,
      "φ": 142,
      "χ": 143,
      "ψ": 144,
      "ω": 145,
      "ϟ": 146,
      "ϡ": 147,
      "а": 148,
      "б": 149,
      "в": 150,
      "г": 151,
      "д": 152,
      "е": 153,
      "ж": 154,
      "з": 155,
      "и": 156,
      "к": 157,
      "л": 158,
      "м": 159,
      "н": 160,
      "о": 161,
      "п": 162,
      "р": 163,
      "с": 164,
      "т": 165,
      "у": 166,
      "ф": 167,
      "х": 168,
      "ц": 169,
      "ч": 170,
      "ш": 171,
      "щ": 172,
      "ъ": 173,
      "ы": 174,
      "ь": 175,
      "э": 176,
      "ю": 177,
      "я": 178,
      "є": 179,
      "і": 180,
      "љ": 181,
      "њ": 182,
      "؉": 183,
      "᾽": 184,
      "᾿": 185,
      "‐": 186,
      "‒": 187,
      "–": 188,
      "—": 189,
      "―": 190,
      "‘": 191,
      "’": 192,
      "‚": 193,
      "“": 194,
      "”": 195,
      "„": 196,
      "†": 197,
      "•": 198,
      "…": 199,
      "‰": 200,
      "′": 201,
      "″": 202,
      "‹": 203,
      "›": 204,
      "⁄": 205,
      "⁐": 206,
      "ₒ": 207,
      "₤": 208,
      "₪": 209,
      "₫": 210,
      "€": 211,
      "₯": 212,
      "₰": 213,
      "₻": 214,
      "℆": 215,
      "№": 216,
      "℠": 217,
      "™": 218,
      "→": 219,
      "∂": 220,
      "−": 221,
      "∕": 222,
      "∙": 223,
      "√": 224,
      "∼": 225,
      "≈": 226,
      "≤": 227,
      "≥": 228,
      "─": 229,
      "│": 230,
      "■": 231,
      "►": 232,
      "●": 233,
      "◦": 234,
      "☒": 235,
      "♀": 236,
      "❛": 237,
      "❜": 238,
      "〈": 239,
      "脘": 240,
      "舃": 241,
      "ꞏ": 242,
      "##o": 243,
      "##l": 244,
      "##i": 245,
      "##d": 246,
      "##a": 247,
      "##r": 248,
      "##t": 249,
      "##y": 250,
      "##n": 251,
      "##w": 252,
      "##9": 253,
      "##5": 254,
      "##8": 255,
      "##2": 256,
      "##1": 257,
      "##4": 258,
      "##7": 259,
      "##α": 260,
      "##λ": 261,
      "##ι": 262,
      "##ν": 263,
      "##ο": 264,
      "##υ": 265,
      "##σ": 266,
      "##τ": 267,
      "##ρ": 268,
      "##ω": 269,
      "##0": 270,
      "##6": 271,
      "##3": 272,
      "##κ": 273,
      "##ς": 274,
      "##π": 275,
      "##ε": 276,
      "##ζ": 277,
      "##γ": 278,
      "##η": 279,
      "##µ": 280,
      "##φ": 281,
      "##μ": 282,
      "##δ": 283,
      "##v": 284,
      "##χ": 285,
      "##θ": 286,
      "##β": 287,
      "##e": 288,
      "##ξ": 289,
      "##m": 290,
      "##u": 291,
      "##g": 292,
      "##s": 293,
      "##p": 294,
      "##c": 295,
      "##΄": 296,
      "##h": 297,
      "##z": 298,
      "##k": 299,
      "##f": 300,
      "##ψ": 301,
      "##j": 302,
      "##b": 303,
      "##x": 304,
      "##q": 305,
      "##÷": 306,
      "##ß": 307,
      "##°": 308,
      "##∙": 309,
      "##€": 310,
      "##²": 311,
      "##ħ": 312,
      "##с": 313,
      "##о": 314,
      "##ц": 315,
      "##и": 316,
      "##а": 317,
      "##я": 318,
      "##∕": 319,
      "##е": 320,
      "##н": 321,
      "##д": 322,
      "##ϟ": 323,
      "##ˑ": 324,
      "##©": 325,
      "##¬": 326,
      "##ж": 327,
      "##в": 328,
      "##ꞏ": 329,
      "##®": 330,
      "##±": 331,
      "##м": 332,
      "##т": 333,
      "##р": 334,
      "##ы": 335,
      "##ł": 336,
      "##ш": 337,
      "##к": 338,
      "##¨": 339,
      "##˙": 340,
      "##з": 341,
      "##х": 342,
      "##б": 343,
      "##ъ": 344,
      "##´": 345,
      "##г": 346,
      "##ь": 347,
      "##ч": 348,
      "##þ": 349,
      "##¦": 350,
      "##і": 351,
      "##л": 352,
      "##у": 353,
      "##ð": 354,
      "##п": 355,
      "##─": 356,
      "##ø": 357,
      "##¥": 358,
      "##™": 359,
      "##º": 360,
      "##˝": 361,
      "##æ": 362,
      "##э": 363,
      "##³": 364,
      "##њ": 365,
      "##щ": 366,
      "##ю": 367,
      "##ı": 368,
      "##£": 369,
      "##×": 370,
      "##½": 371,
      "##ϡ": 372,
      "##−": 373,
      "##ф": 374,
      "##˚": 375,
      "##≥": 376,
      "##¹": 377,
      "##᾽": 378,
      "##œ": 379,
      "##᾿": 380,
      "##■": 381,
      "##ƒ": 382,
      "##≤": 383,
      "##¾": 384,
      "##є": 385,
      "##љ": 386,
      "##¸": 387,
      "##¼": 388,
      "##∼": 389,
      "##₻": 390,
      "##⁄": 391,
      "##│": 392,
      "##→": 393,
      "##đ": 394,
      "##◦": 395,
      "##❜": 396,
      "##ʺ": 397,
      "##ͺ": 398,
      "##₯": 399,
      "##ου": 400,
      "##ια": 401,
      "##ων": 402,
      "##ικ": 403,
      "##αι": 404,
      "##ης": 405,
      "##ει": 406,
      "##πο": 407,
      "##τα": 408,
      "##ρο": 409,
      "##ρι": 410,
      "##ρα": 411,
      "του": 412,
      "##τη": 413,
      "και": 414,
      "##το": 415,
      "##ση": 416,
      "##εν": 417,
      "με": 418,
      "##μα": 419,
      "##τε": 420,
      "τη": 421,
      "απο": 422,
      "##ον": 423,
      "κα": 424,
      "##τικ": 425,
      "της": 426,
      "##να": 427,
      "συ": 428,
      "##μο": 429,
      "προ": 430,
      "##ισ": 431,
      "το": 432,
      "##ργ": 433,
      "την": 434,
      "##ες": 435,
      "##ιας": 436,
      "##ιο": 437,
      "πα": 438,
      "##ιν": 439,
      "##ρε": 440,
      "##λη": 441,
      "##ται": 442,
      "##λο": 443,
      "επ": 444,
      "υπ": 445,
      "##αν": 446,
      "##με": 447,
      "##τι": 448,
      "##σης": 449,
      "να": 450,
      "των": 451,
      "δια": 452,
      "για": 453,
      "##λα": 454,
      "##λε": 455,
      "##μεν": 456,
      "20": 457,
      "που": 458,
      "##εις": 459,
      "##ρω": 460,
      "αρ": 461,
      "αυ": 462,
      "##ασ": 463,
      "πε": 464,
      "##ουν": 465,
      "##ως": 466,
      "δη": 467,
      "##ος": 468,
      "εκ": 469,
      "##ρη": 470,
      "τι": 471,
      "τα": 472,
      "αν": 473,
      "##ους": 474,
      "ανα": 475,
      "στο": 476,
      "##ομ": 477,
      "επι": 478,
      "##θε": 479,
      "##ολ": 480,
      "##αλ": 481,
      "##των": 482,
      "##ικη": 483,
      "περι": 484,
      "##ευ": 485,
      "στη": 486,
      "##θη": 487,
      "##ουργ": 488,
      "σε": 489,
      "##ρου": 490,
      "##σε": 491,
      "συμ": 492,
      "##ας": 493,
      "κατα": 494,
      "τις": 495,
      "εν": 496,
      "συν": 497,
      "##σι": 498,
      "##ικο": 499,
      "##τος": 500,
      "θε": 501,
      "##φο": 502,
      "##λογ": 503,
      "##χει": 504,
      "##χε": 505,
      "##φα": 506,
      "αρθ": 507,
      "παρα": 508,
      "κυ": 509,
      "##γρα": 510,
      "##εκ": 511,
      "##ικης": 512,
      "##μη": 513,
      "υπο": 514,
      "δημο": 515,
      "200": 516,
      "##ποι": 517,
      "19": 518,
      "θα": 519,
      "προσ": 520,
      "##ιναι": 521,
      "ειναι": 522,
      "##ρισ": 523,
      "##ταξ": 524,
      "στην": 525,
      "##μου": 526,
      "##δο": 527,
      "##ικου": 528,
      "##ριθ": 529,
      "##εται": 530,
      "##γκ": 531,
      "ει": 532,
      "δεν": 533,
      "αριθ": 534,
      "οι": 535,
      "##ικων": 536,
      "κο": 537,
      "##αρ": 538,
      "αλ": 539,
      "##σεις": 540,
      "εξ": 541,
      "##ερ": 542,
      "##θηκ": 543,
      "201": 544,
      "##νη": 545,
      "##ιου": 546,
      "τον": 547,
      "οτι": 548,
      "υπουργ": 549,
      "##ουμε": 550,
      "πολ": 551,
      "##τω": 552,
      "ευ": 553,
      "τους": 554,
      "##πα": 555,
      "τε": 556,
      "οπο": 557,
      "##εδ": 558,
      "διο": 559,
      "αυτο": 560,
      "διαταξ": 561,
      "##τρο": 562,
      "##ρων": 563,
      "αποφα": 564,
      "εργ": 565,
      "##στα": 566,
      "##ρια": 567,
      "##τητα": 568,
      "##θει": 569,
      "##τες": 570,
      "##σο": 571,
      "δι": 572,
      "απ": 573,
      "##υν": 574,
      "##σια": 575,
      "κοιν": 576,
      "##τικα": 577,
      "##φων": 578,
      "ελ": 579,
      "##δα": 580,
      "##φε": 581,
      "##τικης": 582,
      "##ποιη": 583,
      "##οι": 584,
      "##δη": 585,
      "##μμα": 586,
      "##ρον": 587,
      "νο": 588,
      "πο": 589,
      "##τυ": 590,
      "διαταξεις": 591,
      "σχε": 592,
      "##τικη": 593,
      "μη": 594,
      "##διο": 595,
      "##της": 596,
      "μετα": 597,
      "##σα": 598,
      "##ονται": 599,
      "##ηρε": 600,
      "οικ": 601,
      "αποφαση": 602,
      "##τικο": 603,
      "##ουλ": 604,
      "##ικα": 605,
      "##ματα": 606,
      "##ελ": 607,
      "10": 608,
      "##γη": 609,
      "##βα": 610,
      "##σεων": 611,
      "##κο": 612,
      "##θηκε": 613,
      "##τικων": 614,
      "δυ": 615,
      "##γο": 616,
      "δικ": 617,
      "##ονομ": 618,
      "καθ": 619,
      "##γω": 620,
      "οπ": 621,
      "καν": 622,
      "##γραφ": 623,
      "##τικου": 624,
      "γεν": 625,
      "υπηρε": 626,
      "##λει": 627,
      "εχ": 628,
      "##λευ": 629,
      "κυρι": 630,
      "στα": 631,
      "##κα": 632,
      "##του": 633,
      "πρα": 634,
      "διοικη": 635,
      "αριθμ": 636,
      "##ρυ": 637,
      "##στη": 638,
      "φεκ": 639,
      "συμφων": 640,
      "χω": 641,
      "##τηση": 642,
      "##ψη": 643,
      "αρθρο": 644,
      "##00": 645,
      "##ματος": 646,
      "γρα": 647,
      "199": 648,
      "πολι": 649,
      "##ξη": 650,
      "συμβ": 651,
      "αρθρου": 652,
      "##δια": 653,
      "τρο": 654,
      "ασ": 655,
      "##νο": 656,
      "λο": 657,
      "παρ": 658,
      "12": 659,
      "ενα": 660,
      "##ωση": 661,
      "οικονομ": 662,
      "##ριζ": 663,
      "προεδ": 664,
      "##ιζ": 665,
      "##τει": 666,
      "εχει": 667,
      "ως": 668,
      "##πει": 669,
      "##ιων": 670,
      "##μος": 671,
      "11": 672,
      "δημοσι": 673,
      "##σιας": 674,
      "αι": 675,
      "οπως": 676,
      "##ισμου": 677,
      "##χη": 678,
      "##χυ": 679,
      "##ειας": 680,
      "γε": 681,
      "νομ": 682,
      "βα": 683,
      "ση": 684,
      "##ματων": 685,
      "αυτη": 686,
      "##ειου": 687,
      "οποια": 688,
      "οργ": 689,
      "##ειο": 690,
      "πρω": 691,
      "##νω": 692,
      "##που": 693,
      "προσω": 694,
      "##βερ": 695,
      "##χο": 696,
      "##σω": 697,
      "##τους": 698,
      "##λην": 699,
      "##λος": 700,
      "##εργ": 701,
      "##τροπ": 702,
      "τροπο": 703,
      "ειδ": 704,
      "##λων": 705,
      "στι": 706,
      "ακ": 707,
      "##βερνη": 708,
      "ισ": 709,
      "##μι": 710,
      "εμ": 711,
      "μον": 712,
      "δικαι": 713,
      "##σεως": 714,
      "##πε": 715,
      "##ληρω": 716,
      "δε": 717,
      "##θυν": 718,
      "εγκ": 719,
      "##σει": 720,
      "##υπ": 721,
      "μια": 722,
      "##ριου": 723,
      "συμφωνα": 724,
      "χρη": 725,
      "επιτροπ": 726,
      "μα": 727,
      "οργαν": 728,
      "##ρος": 729,
      "κυβερνη": 730,
      "ευρω": 731,
      "##κη": 732,
      "##γγ": 733,
      "ελλην": 734,
      "##τητας": 735,
      "##τρα": 736,
      "##ρει": 737,
      "προβ": 738,
      "##στε": 739,
      "κοινο": 740,
      "ιδ": 741,
      "##μενων": 742,
      "##ιω": 743,
      "στις": 744,
      "##δικ": 745,
      "##μβ": 746,
      "##τισ": 747,
      "αντι": 748,
      "αναπ": 749,
      "πρε": 750,
      "##ταν": 751,
      "##φερε": 752,
      "μπο": 753,
      "φο": 754,
      "15": 755,
      "αλλα": 756,
      "##λι": 757,
      "##εων": 758,
      "##ρας": 759,
      "γεω": 760,
      "##μων": 761,
      "##οντα": 762,
      "##μενο": 763,
      "##φαλ": 764,
      "##ιος": 765,
      "##τερ": 766,
      "μας": 767,
      "πρεπει": 768,
      "συμβουλ": 769,
      "##εια": 770,
      "εργασ": 771,
      "αποφ": 772,
      "##ευθυν": 773,
      "##γραμμα": 774,
      "##λυ": 775,
      "##φη": 776,
      "α΄": 777,
      "αρμο": 778,
      "στον": 779,
      "ισχυ": 780,
      "##αιδ": 781,
      "##τουργ": 782,
      "##λαδ": 783,
      "λει": 784,
      "κανον": 785,
      "14": 786,
      "καθε": 787,
      "##ριο": 788,
      "τμη": 789,
      "##ρευ": 790,
      "εκπ": 791,
      "λειτουργ": 792,
      "##γμα": 793,
      "##αλλη": 794,
      "##ξης": 795,
      "εγ": 796,
      "λα": 797,
      "περιο": 798,
      "##παν": 799,
      "υπαλλη": 800,
      "νε": 801,
      "##τελε": 802,
      "χρον": 803,
      "επισ": 804,
      "σας": 805,
      "##κης": 806,
      "ελε": 807,
      "##εντ": 808,
      "##τικες": 809,
      "##μενα": 810,
      "γεωργ": 811,
      "##λες": 812,
      "##χα": 813,
      "αγ": 814,
      "αποκ": 815,
      "##επ": 816,
      "##λου": 817,
      "γραμμα": 818,
      "##ιστα": 819,
      "##βαλ": 820,
      "##ρες": 821,
      "αποφασ": 822,
      "##ανα": 823,
      "##ινη": 824,
      "##ικες": 825,
      "κρα": 826,
      "##ρχ": 827,
      "##λω": 828,
      "##ριν": 829,
      "υπαρ": 830,
      "13": 831,
      "##φορα": 832,
      "##θν": 833,
      "νομο": 834,
      "εισ": 835,
      "εχουν": 836,
      "γιν": 837,
      "##ρμο": 838,
      "##χαν": 839,
      "##ιες": 840,
      "##μενη": 841,
      "προς": 842,
      "οποιο": 843,
      "συνα": 844,
      "διευθυν": 845,
      "προσωπ": 846,
      "##ειται": 847,
      "προγραμμα": 848,
      "δημου": 849,
      "αρχ": 850,
      "ημε": 851,
      "##εβ": 852,
      "εφα": 853,
      "δυνα": 854,
      "##στο": 855,
      "περιφερε": 856,
      "##μενου": 857,
      "κυριε": 858,
      "##πτω": 859,
      "συγκ": 860,
      "##τον": 861,
      "##ολου": 862,
      "##τευ": 863,
      "ελεγ": 864,
      "##ζη": 865,
      "##σκ": 866,
      "εφαρμο": 867,
      "γραμματε": 868,
      "##γωγ": 869,
      "16": 870,
      "πλη": 871,
      "εκδο": 872,
      "προκ": 873,
      "στοι": 874,
      "##ποιηση": 875,
      "επιχει": 876,
      "##χν": 877,
      "βαθ": 878,
      "επιχειρη": 879,
      "γνω": 880,
      "υπηρεσι": 881,
      "##δων": 882,
      "##δε": 883,
      "##σιο": 884,
      "κοινων": 885,
      "18": 886,
      "##γεν": 887,
      "##τησης": 888,
      "περιπτω": 889,
      "##ισμο": 890,
      "##τια": 891,
      "βου": 892,
      "καθο": 893,
      "αξ": 894,
      "000": 895,
      "πισ": 896,
      "##κρα": 897,
      "##ρουπο": 898,
      "αναπτυ": 899,
      "ανω": 900,
      "17": 901,
      "χα": 902,
      "εθν": 903,
      "πολυ": 904,
      "φυ": 905,
      "##μβαν": 906,
      "30": 907,
      "21": 908,
      "δημοσιευ": 909,
      "25": 910,
      "##ωσης": 911,
      "δεκ": 912,
      "##ουνται": 913,
      "##λογη": 914,
      "##δυ": 915,
      "##μενης": 916,
      "23": 917,
      "προυπο": 918,
      "##πον": 919,
      "αναγκ": 920,
      "##ριων": 921,
      "##οδ": 922,
      "##τοι": 923,
      "αρμοδιο": 924,
      "λογ": 925,
      "ζη": 926,
      "δα": 927,
      "ευρωπα": 928,
      "##μια": 929,
      "198": 930,
      "24": 931,
      "##γα": 932,
      "υγ": 933,
      "##κτη": 934,
      "λε": 935,
      "##ριας": 936,
      "υποψη": 937,
      "##ειων": 938,
      "##σσ": 939,
      "οποι": 940,
      "συμβουλιου": 941,
      "παν": 942,
      "βασ": 943,
      "22": 944,
      "##χολ": 945,
      "##θουν": 946,
      "##γων": 947,
      "##σκευ": 948,
      "##χεια": 949,
      "2007": 950,
      "κλαδ": 951,
      "ολο": 952,
      "##χω": 953,
      "##λια": 954,
      "δασ": 955,
      "##ριση": 956,
      "##υπουργ": 957,
      "##αιν": 958,
      "##οντας": 959,
      "##δικασ": 960,
      "##μενες": 961,
      "υφ": 962,
      "##θεση": 963,
      "##τερο": 964,
      "##μερι": 965,
      "θεση": 966,
      "##τρε": 967,
      "##μαν": 968,
      "ποσο": 969,
      "δρα": 970,
      "ου": 971,
      "οικονομικων": 972,
      "##αιδευ": 973,
      "##αιο": 974,
      "βεβ": 975,
      "##θμ": 976,
      "##ρηση": 977,
      "εδ": 978,
      "πρωτο": 979,
      "31": 980,
      "##γου": 981,
      "αδ": 982,
      "εκπαιδευ": 983,
      "αθη": 984,
      "##πισ": 985,
      "στους": 986,
      "διαδικασ": 987,
      "μπορει": 988,
      "##ταστα": 989,
      "πραγμα": 990,
      "υπηρεσια": 991,
      "##κων": 992,
      "##θα": 993,
      "επιτροπη": 994,
      "υπουργειου": 995,
      "28": 996,
      "παρου": 997,
      "αυτα": 998,
      "##κου": 999,
      "##τητων": 1000,
      "προβλε": 1001,
      "ρυ": 1002,
      "κω": 1003,
      "μην": 1004,
      "##ιδ": 1005,
      "δαπαν": 1006,
      "##λον": 1007,
      "##ταση": 1008,
      "συνε": 1009,
      "καθως": 1010,
      "δυο": 1011,
      "επιτροπης": 1012,
      "σχολ": 1013,
      "##εντρω": 1014,
      "##χρε": 1015,
      "26": 1016,
      "##λους": 1017,
      "##τερα": 1018,
      "αμ": 1019,
      "γιατι": 1020,
      "εργασιας": 1021,
      "ιω": 1022,
      "εργα": 1023,
      "##γγελ": 1024,
      "##τητες": 1025,
      "##ρους": 1026,
      "##ομη": 1027,
      "##er": 1028,
      "λοι": 1029,
      "παρε": 1030,
      "δημοκρα": 1031,
      "σω": 1032,
      "υποχρε": 1033,
      "μονο": 1034,
      "##on": 1035,
      "ιωαν": 1036,
      "2010": 1037,
      "μηχαν": 1038,
      "##ικος": 1039,
      "29": 1040,
      "27": 1041,
      "εφη": 1042,
      "##ιβ": 1043,
      "00": 1044,
      "##ετε": 1045,
      "##λαμβαν": 1046,
      "τροποποιη": 1047,
      "αλλο": 1048,
      "##χρι": 1049,
      "##τημα": 1050,
      "##μον": 1051,
      "δευ": 1052,
      "μεχρι": 1053,
      "##κε": 1054,
      "##θρω": 1055,
      "##γραφο": 1056,
      "βαθμο": 1057,
      "κων": 1058,
      "##δελ": 1059,
      "κατο": 1060,
      "##ρουν": 1061,
      "βουλευ": 1062,
      "##θο": 1063,
      "περιπτωση": 1064,
      "αποφασης": 1065,
      "ελεγχ": 1066,
      "##τιν": 1067,
      "##ισμος": 1068,
      "εφημερι": 1069,
      "μου": 1070,
      "διοικησης": 1071,
      "συστη": 1072,
      "ορισ": 1073,
      "σημε": 1074,
      "##μαρχ": 1075,
      "συναδελ": 1076,
      "35": 1077,
      "##θυ": 1078,
      "σα": 1079,
      "αντισ": 1080,
      "αθ": 1081,
      "υπουργου": 1082,
      "τεχν": 1083,
      "##τρι": 1084,
      "β΄": 1085,
      "στοιχεια": 1086,
      "##φαλισ": 1087,
      "##ti": 1088,
      "λογω": 1089,
      "##σον": 1090,
      "##χι": 1091,
      "λυ": 1092,
      "##λης": 1093,
      "2011": 1094,
      "γινεται": 1095,
      "προυπολογ": 1096,
      "ειδικο": 1097,
      "αφορα": 1098,
      "εται": 1099,
      "λι": 1100,
      "##μως": 1101,
      "περιφερειας": 1102,
      "επο": 1103,
      "βο": 1104,
      "##τουν": 1105,
      "νομου": 1106,
      "προσωπικου": 1107,
      "προιστα": 1108,
      "##θηκαν": 1109,
      "υπηρεσιων": 1110,
      "##μην": 1111,
      "##τιας": 1112,
      "κατη": 1113,
      "εσω": 1114,
      "υπαρχει": 1115,
      "##χουν": 1116,
      "κε": 1117,
      "##ρεια": 1118,
      "##ινων": 1119,
      "προστα": 1120,
      "##πι": 1121,
      "##νης": 1122,
      "οριζ": 1123,
      "##τελεσ": 1124,
      "εσωτερ": 1125,
      "ομο": 1126,
      "γραφ": 1127,
      "##εκρι": 1128,
      "32": 1129,
      "2012": 1130,
      "υφυπουργ": 1131,
      "##τερω": 1132,
      "##προ": 1133,
      "θεμα": 1134,
      "##λαι": 1135,
      "##πη": 1136,
      "κατηγο": 1137,
      "##χης": 1138,
      "τμημα": 1139,
      "παρακ": 1140,
      "δικαιω": 1141,
      "οδη": 1142,
      "αποκεντρω": 1143,
      "##σουμε": 1144,
      "##ιστη": 1145,
      "##ντα": 1146,
      "παραγραφ": 1147,
      "##φυ": 1148,
      "##λεκ": 1149,
      "##ρικης": 1150,
      "##εξ": 1151,
      "##νας": 1152,
      "2013": 1153,
      "υπουργος": 1154,
      "διαχει": 1155,
      "κυβερνησεως": 1156,
      "##σταν": 1157,
      "σχετικα": 1158,
      "εφημεριδα": 1159,
      "κλαδου": 1160,
      "ενεργ": 1161,
      "χαρα": 1162,
      "ερω": 1163,
      "δικαιο": 1164,
      "##φαν": 1165,
      "συμπ": 1166,
      "σημ": 1167,
      "ομως": 1168,
      "##λογια": 1169,
      "χο": 1170,
      "καθορισ": 1171,
      "κυβερνηση": 1172,
      "##χων": 1173,
      "τρι": 1174,
      "ιδρυ": 1175,
      "αγο": 1176,
      "δημη": 1177,
      "##λαβ": 1178,
      "πει": 1179,
      "##θεν": 1180,
      "προεδρευ": 1181,
      "##σαν": 1182,
      "##πων": 1183,
      "εκδοθηκε": 1184,
      "σημερα": 1185,
      "δημοσιου": 1186,
      "ισχυει": 1187,
      "μι": 1188,
      "πι": 1189,
      "ιδιο": 1190,
      "οχι": 1191,
      "γενικου": 1192,
      "ανθρω": 1193,
      "οταν": 1194,
      "##βο": 1195,
      "##en": 1196,
      "συζη": 1197,
      "προεδρε": 1198,
      "επικ": 1199,
      "38": 1200,
      "##βαση": 1201,
      "ελληνικης": 1202,
      "##es": 1203,
      "##ζο": 1204,
      "αυτες": 1205,
      "αντιστοι": 1206,
      "εξης": 1207,
      "αυτης": 1208,
      "2014": 1209,
      "συνεργ": 1210,
      "προβλη": 1211,
      "νομοθε": 1212,
      "##ρηγη": 1213,
      "##σου": 1214,
      "αξιο": 1215,
      "απαι": 1216,
      "##νων": 1217,
      "##σας": 1218,
      "2004": 1219,
      "##τομ": 1220,
      "υγειας": 1221,
      "##συ": 1222,
      "νικο": 1223,
      "περιβαλ": 1224,
      "πληρο": 1225,
      "τυ": 1226,
      "##γραφη": 1227,
      "μεσα": 1228,
      "##σταση": 1229,
      "εμπο": 1230,
      "προι": 1231,
      "αλλες": 1232,
      "δικαιου": 1233,
      "παιδ": 1234,
      "##an": 1235,
      "κωνσταν": 1236,
      "οικο": 1237,
      "ολα": 1238,
      "##κομ": 1239,
      "σκο": 1240,
      "λογο": 1241,
      "λη": 1242,
      "##για": 1243,
      "##φερ": 1244,
      "περιφερεια": 1245,
      "περιβαλλον": 1246,
      "πεν": 1247,
      "αγρο": 1248,
      "ψη": 1249,
      "ημερο": 1250,
      "##ρις": 1251,
      "θεω": 1252,
      "##σχε": 1253,
      "αναπτυξης": 1254,
      "ηταν": 1255,
      "ιδια": 1256,
      "εκτα": 1257,
      "μισ": 1258,
      "κατ": 1259,
      "καλ": 1260,
      "##10": 1261,
      "τομε": 1262,
      "##τρων": 1263,
      "##ματο": 1264,
      "##δου": 1265,
      "εδω": 1266,
      "εργων": 1267,
      "παρο": 1268,
      "##ρκ": 1269,
      "παρον": 1270,
      "ασφαλισ": 1271,
      "##πουλος": 1272,
      "##ημε": 1273,
      "##αγγελ": 1274,
      "αιτηση": 1275,
      "πληροφο": 1276,
      "##δες": 1277,
      "υπηρεσιας": 1278,
      "πλαι": 1279,
      "ιδιω": 1280,
      "νικολα": 1281,
      "αλλη": 1282,
      "μαρ": 1283,
      "##λοι": 1284,
      "τοπο": 1285,
      "##ποτε": 1286,
      "##γον": 1287,
      "##δρο": 1288,
      "εχουμε": 1289,
      "μεγ": 1290,
      "ατ": 1291,
      "ηλεκ": 1292,
      "##φερον": 1293,
      "ακολου": 1294,
      "##σουν": 1295,
      "γραμματεα": 1296,
      "συμπληρω": 1297,
      "##γης": 1298,
      "##πρα": 1299,
      "2008": 1300,
      "##οκ": 1301,
      "##μης": 1302,
      "2001": 1303,
      "διοικητικου": 1304,
      "συγκεκρι": 1305,
      "αποτε": 1306,
      "δω": 1307,
      "καλυ": 1308,
      "##δας": 1309,
      "σχεση": 1310,
      "λειτουργιας": 1311,
      "εχοντας": 1312,
      "προεδρευων": 1313,
      "##ρισης": 1314,
      "επισης": 1315,
      "##φοι": 1316,
      "##τοποιη": 1317,
      "##μιουργ": 1318,
      "##δικα": 1319,
      "τμηματος": 1320,
      "2006": 1321,
      "197": 1322,
      "αριθμο": 1323,
      "##μες": 1324,
      "εξο": 1325,
      "##μους": 1326,
      "ειση": 1327,
      "κατε": 1328,
      "##τισμου": 1329,
      "##βολ": 1330,
      "40": 1331,
      "##τυχ": 1332,
      "εκει": 1333,
      "2009": 1334,
      "##ωρα": 1335,
      "##δει": 1336,
      "εγκα": 1337,
      "ημερομην": 1338,
      "αυτου": 1339,
      "##τερη": 1340,
      "κωνσταντιν": 1341,
      "εξα": 1342,
      "##χισ": 1343,
      "μονα": 1344,
      "##μενος": 1345,
      "δημιουργ": 1346,
      "κεν": 1347,
      "βεβαι": 1348,
      "##σιμο": 1349,
      "##τας": 1350,
      "##κλη": 1351,
      "##γωγης": 1352,
      "2005": 1353,
      "##ιζει": 1354,
      "κου": 1355,
      "εε": 1356,
      "συνταξ": 1357,
      "##σιου": 1358,
      "εφο": 1359,
      "th": 1360,
      "##λιας": 1361,
      "αυτων": 1362,
      "##γωγη": 1363,
      "εκα": 1364,
      "εφαρμογη": 1365,
      "τρα": 1366,
      "ναυ": 1367,
      "##διου": 1368,
      "##σσαλ": 1369,
      "##ιζουμε": 1370,
      "##ωσεις": 1371,
      "αρθρων": 1372,
      "υπε": 1373,
      "πρακ": 1374,
      "υπερ": 1375,
      "##28": 1376,
      "κεντ": 1377,
      "θεσσαλ": 1378,
      "συνο": 1379,
      "γεωργιος": 1380,
      "οποιες": 1381,
      "πανα": 1382,
      "##in": 1383,
      "ανωτερω": 1384,
      "μελε": 1385,
      "αντα": 1386,
      "απαν": 1387,
      "##χολη": 1388,
      "αποτελεσ": 1389,
      "διε": 1390,
      "κυριοι": 1391,
      "##θμισ": 1392,
      "##τικος": 1393,
      "εισα": 1394,
      "στρα": 1395,
      "ενημε": 1396,
      "##καν": 1397,
      "νομαρχ": 1398,
      "ημερομηνια": 1399,
      "θεσεις": 1400,
      "##εως": 1401,
      "εντο": 1402,
      "2003": 1403,
      "πληρω": 1404,
      "##ζεται": 1405,
      "##δης": 1406,
      "σο": 1407,
      "##νομα": 1408,
      "βασι": 1409,
      "αποφασεις": 1410,
      "##μπ": 1411,
      "##ζει": 1412,
      "προη": 1413,
      "##αιου": 1414,
      "ελλαδ": 1415,
      "νεα": 1416,
      "##11": 1417,
      "##δηποτε": 1418,
      "##ar": 1419,
      "##ενδυ": 1420,
      "2015": 1421,
      "απασ": 1422,
      "2000": 1423,
      "πραξη": 1424,
      "αε": 1425,
      "επενδυ": 1426,
      "##τρω": 1427,
      "αμε": 1428,
      "τομεα": 1429,
      "εξω": 1430,
      "υπηρεσιες": 1431,
      "πω": 1432,
      "συναδελφοι": 1433,
      "υπουργειο": 1434,
      "##δασ": 1435,
      "μακ": 1436,
      "χαρακτη": 1437,
      "συνεδ": 1438,
      "##τρ": 1439,
      "θεματα": 1440,
      "οικονομιας": 1441,
      "δημοσιευθει": 1442,
      "##οντων": 1443,
      "αττικης": 1444,
      "##φορων": 1445,
      "χωρις": 1446,
      "##γιω": 1447,
      "χι": 1448,
      "κανονισμου": 1449,
      "##ισχυ": 1450,
      "νη": 1451,
      "πυ": 1452,
      "##τως": 1453,
      "μελη": 1454,
      "ηλεκτρο": 1455,
      "κομ": 1456,
      "λειτουργια": 1457,
      "##κυ": 1458,
      "αναπληρω": 1459,
      "##φια": 1460,
      "κινη": 1461,
      "ενισχυ": 1462,
      "συμβουλιο": 1463,
      "κυρια": 1464,
      "##μνα": 1465,
      "##τησεις": 1466,
      "αυτην": 1467,
      "τοπ": 1468,
      "μεταξ": 1469,
      "τροποποιηθηκε": 1470,
      "##φι": 1471,
      "εθνικης": 1472,
      "παναγιω": 1473,
      "ετος": 1474,
      "χωρο": 1475,
      "##λλα": 1476,
      "φυσ": 1477,
      "βιο": 1478,
      "##γει": 1479,
      "##ρεις": 1480,
      "κοινοβ": 1481,
      "επει": 1482,
      "##πιν": 1483,
      "##μενους": 1484,
      "δικασ": 1485,
      "##λαδη": 1486,
      "λοιπον": 1487,
      "δηλαδη": 1488,
      "συμμε": 1489,
      "50": 1490,
      "παρακολου": 1491,
      "θεσ": 1492,
      "δεκα": 1493,
      "νοσο": 1494,
      "πλο": 1495,
      "##χαρισ": 1496,
      "δημοκρατιας": 1497,
      "νομοσχε": 1498,
      "μεταξυ": 1499,
      "ευχαρισ": 1500,
      "συντα": 1501,
      "ενο": 1502,
      "##38": 1503,
      "##επιστη": 1504,
      "τρια": 1505,
      "##ηλ": 1506,
      "ζω": 1507,
      "##ριζεται": 1508,
      "##ρφ": 1509,
      "τωρα": 1510,
      "εγκαταστα": 1511,
      "μετρα": 1512,
      "εξε": 1513,
      "εργο": 1514,
      "##μαστε": 1515,
      "##ρωση": 1516,
      "χορηγη": 1517,
      "##αιρε": 1518,
      "2002": 1519,
      "2016": 1520,
      "ξε": 1521,
      "προεδρος": 1522,
      "δαπανη": 1523,
      "συνολ": 1524,
      "πριν": 1525,
      "στε": 1526,
      "##or": 1527,
      "εσωτερικων": 1528,
      "##δεκ": 1529,
      "πανεπιστη": 1530,
      "##λιο": 1531,
      "##λεια": 1532,
      "προηγου": 1533,
      "μονι": 1534,
      "αντικα": 1535,
      "πολε": 1536,
      "ια": 1537,
      "##σσε": 1538,
      "μει": 1539,
      "κοσ": 1540,
      "##φει": 1541,
      "κη": 1542,
      "##ουσα": 1543,
      "##ωνυ": 1544,
      "αντικ": 1545,
      "ελληνικου": 1546,
      "##νε": 1547,
      "##ρισμου": 1548,
      "εκτελε": 1549,
      "##μενοι": 1550,
      "μερι": 1551,
      "στοιχει": 1552,
      "διαδικασια": 1553,
      "παι": 1554,
      "προυπολογισμου": 1555,
      "δυναμ": 1556,
      "κυκ": 1557,
      "the": 1558,
      "αφο": 1559,
      "##τηρη": 1560,
      "αρχη": 1561,
      "##μυ": 1562,
      "βρισ": 1563,
      "αφ": 1564,
      "μεγα": 1565,
      "τροποποιηση": 1566,
      "##γνω": 1567,
      "διευθυνσης": 1568,
      "επιτρε": 1569,
      "πολιτικη": 1570,
      "##al": 1571,
      "##12": 1572,
      "εως": 1573,
      "αποφασιζουμε": 1574,
      "##κες": 1575,
      "##τηματα": 1576,
      "απαλ": 1577,
      "παραι": 1578,
      "##λεον": 1579,
      "διαπισ": 1580,
      "εκτος": 1581,
      "##λουν": 1582,
      "##πεται": 1583,
      "##φερο": 1584,
      "##θω": 1585,
      "φορο": 1586,
      "##σσο": 1587,
      "##πεζ": 1588,
      "1997": 1589,
      "αντιμε": 1590,
      "γεγον": 1591,
      "##ελτι": 1592,
      "εαν": 1593,
      "μαθη": 1594,
      "χει": 1595,
      "πινα": 1596,
      "αντιμετω": 1597,
      "##χος": 1598,
      "##λαχισ": 1599,
      "ελλα": 1600,
      "##διοικη": 1601,
      "κρι": 1602,
      "##σιων": 1603,
      "34": 1604,
      "##γραφης": 1605,
      "##λειας": 1606,
      "##χεται": 1607,
      "##ζονται": 1608,
      "μητρω": 1609,
      "δυνατο": 1610,
      "07": 1611,
      "μο": 1612,
      "υπαρχουν": 1613,
      "χωρα": 1614,
      "δημοσιας": 1615,
      "ιθα": 1616,
      "αθηνων": 1617,
      "κεφαλ": 1618,
      "01": 1619,
      "εκπρο": 1620,
      "μικ": 1621,
      "εισηγη": 1622,
      "δο": 1623,
      "συνεδρια": 1624,
      "ευρωπαικης": 1625,
      "παρακα": 1626,
      "σημαν": 1627,
      "##μιση": 1628,
      "##σων": 1629,
      "ιωαννης": 1630,
      "##πος": 1631,
      "##τσι": 1632,
      "##χες": 1633,
      "##99": 1634,
      "##ουλου": 1635,
      "##ειμενου": 1636,
      "χρονια": 1637,
      "##ασια": 1638,
      "ελλαδα": 1639,
      "υπαλληλων": 1640,
      "επιστη": 1641,
      "ονομα": 1642,
      "επαγγελ": 1643,
      "##λειο": 1644,
      "##γγυ": 1645,
      "κοινωνικης": 1646,
      "ιθαγεν": 1647,
      "##αινει": 1648,
      "χρονο": 1649,
      "##μβριου": 1650,
      "υπουργε": 1651,
      "θεσσαλον": 1652,
      "τραπεζ": 1653,
      "##φισ": 1654,
      "εγγραφο": 1655,
      "##βλη": 1656,
      "νομι": 1657,
      "##δομ": 1658,
      "στ": 1659,
      "περα": 1660,
      "##σιος": 1661,
      "εις": 1662,
      "κατασκευ": 1663,
      "αθανα": 1664,
      "##βολη": 1665,
      "##ρουμε": 1666,
      "33": 1667,
      "90": 1668,
      "αυτοδιοικη": 1669,
      "##ξεις": 1670,
      "εμεις": 1671,
      "απασχολη": 1672,
      "ωστε": 1673,
      "εκπροσω": 1674,
      "60": 1675,
      "τελευ": 1676,
      "##στηριο": 1677,
      "διαταξεων": 1678,
      "εκπαιδευσης": 1679,
      "##χου": 1680,
      "ενδια": 1681,
      "βρισκ": 1682,
      "αθηνα": 1683,
      "##20": 1684,
      "σελ": 1685,
      "##λευθε": 1686,
      "##κινη": 1687,
      "##λογιας": 1688,
      "γινει": 1689,
      "ελεγχου": 1690,
      "μεγαλ": 1691,
      "βοη": 1692,
      "καπο": 1693,
      "κατω": 1694,
      "εγκριση": 1695,
      "αποκεντρωμενης": 1696,
      "κανονισμο": 1697,
      "δραστηριο": 1698,
      "φορε": 1699,
      "##24": 1700,
      "##βασης": 1701,
      "σχεδια": 1702,
      "εργαζο": 1703,
      "##θεσ": 1704,
      "αποτελει": 1705,
      "εξωτερ": 1706,
      "νοσοκομ": 1707,
      "δημοσιων": 1708,
      "##tion": 1709,
      "αλλοδα": 1710,
      "γραφειο": 1711,
      "χρησιμο": 1712,
      "ομα": 1713,
      "περιβαλλοντος": 1714,
      "##is": 1715,
      "τεχ": 1716,
      "γενικο": 1717,
      "##βι": 1718,
      "##ικους": 1719,
      "προσωπικο": 1720,
      "αποστο": 1721,
      "ταμ": 1722,
      "##θεσεις": 1723,
      "ετους": 1724,
      "##ξει": 1725,
      "παροντος": 1726,
      "##τηρια": 1727,
      "##17": 1728,
      "##πης": 1729,
      "πολιτικης": 1730,
      "##θμιση": 1731,
      "υποστη": 1732,
      "πιστω": 1733,
      "##θεια": 1734,
      "##λλη": 1735,
      "πιο": 1736,
      "χωρας": 1737,
      "διοτι": 1738,
      "βαση": 1739,
      "##νου": 1740,
      "##90": 1741,
      "προστασιας": 1742,
      "##τυν": 1743,
      "οφει": 1744,
      "εργου": 1745,
      "κλι": 1746,
      "##χετε": 1747,
      "χρησ": 1748,
      "##τιο": 1749,
      "υποβαλ": 1750,
      "καταρ": 1751,
      "##τεια": 1752,
      "εναν": 1753,
      "πλαισιο": 1754,
      "παραρ": 1755,
      "χρηματο": 1756,
      "διατα": 1757,
      "διαρκ": 1758,
      "πιστοποιη": 1759,
      "ετη": 1760,
      "φι": 1761,
      "ισο": 1762,
      "παιδειας": 1763,
      "παραγραφος": 1764,
      "υλ": 1765,
      "παπα": 1766,
      "λεπ": 1767,
      "##πουλου": 1768,
      "βουλ": 1769,
      "##δοτηση": 1770,
      "βαρος": 1771,
      "γεγονος": 1772,
      "##84": 1773,
      "ενω": 1774,
      "δαν": 1775,
      "##κληρω": 1776,
      "εντος": 1777,
      "ολοκληρω": 1778,
      "καταργ": 1779,
      "##ζημι": 1780,
      "περιλαμβαν": 1781,
      "δευτερο": 1782,
      "δημοσιο": 1783,
      "υπουργο": 1784,
      "προκαλ": 1785,
      "υποχρεω": 1786,
      "υψ": 1787,
      "εχετε": 1788,
      "απολυ": 1789,
      "92": 1790,
      "οσον": 1791,
      "πως": 1792,
      "##52": 1793,
      "36": 1794,
      "##σετε": 1795,
      "ιθαγενειας": 1796,
      "##ταλ": 1797,
      "ολες": 1798,
      "καθα": 1799,
      "συστημα": 1800,
      "αποδο": 1801,
      "##γραφων": 1802,
      "##ινε": 1803,
      "γυ": 1804,
      "##14": 1805,
      "αυξη": 1806,
      "αρμοδιοτητων": 1807,
      "ερ": 1808,
      "περισσο": 1809,
      "επειδη": 1810,
      "##εδον": 1811,
      "οπου": 1812,
      "97": 1813,
      "περ": 1814,
      "ασφα": 1815,
      "##χωρη": 1816,
      "##μευ": 1817,
      "##συν": 1818,
      "αποζημι": 1819,
      "ουτε": 1820,
      "1999": 1821,
      "##λεξ": 1822,
      "##μακ": 1823,
      "περιοχη": 1824,
      "##ψης": 1825,
      "αντικει": 1826,
      "εδα": 1827,
      "βιβ": 1828,
      "μακεδον": 1829,
      "##50": 1830,
      "70": 1831,
      "##ριες": 1832,
      "ειτε": 1833,
      "συγ": 1834,
      "##πανω": 1835,
      "ενος": 1836,
      "περιε": 1837,
      "##ειες": 1838,
      "δικτυ": 1839,
      "ρυθμισ": 1840,
      "##ουλευ": 1841,
      "02": 1842,
      "λπ": 1843,
      "##ρης": 1844,
      "μελων": 1845,
      "##σες": 1846,
      "παραπανω": 1847,
      "νικολαος": 1848,
      "συνθηκ": 1849,
      "##τειται": 1850,
      "ερευ": 1851,
      "νεας": 1852,
      "συμβασ": 1853,
      "37": 1854,
      "##λειου": 1855,
      "κοινη": 1856,
      "χρονου": 1857,
      "##μορφ": 1858,
      "##λας": 1859,
      "φω": 1860,
      "καταστα": 1861,
      "τιτ": 1862,
      "κηρυ": 1863,
      "κι": 1864,
      "ετσι": 1865,
      "παρουσα": 1866,
      "ασκη": 1867,
      "γι": 1868,
      "προκειμενου": 1869,
      "κει": 1870,
      "υλο": 1871,
      "θεσσαλονικης": 1872,
      "καθη": 1873,
      "ακινη": 1874,
      "αστυν": 1875,
      "εφοσον": 1876,
      "98": 1877,
      "εοκ": 1878,
      "##γες": 1879,
      "εκδοση": 1880,
      "τεχνο": 1881,
      "πεντε": 1882,
      "##58": 1883,
      "##βολης": 1884,
      "##πεδ": 1885,
      "προταση": 1886,
      "εσ": 1887,
      "αφορουν": 1888,
      "αρθρ": 1889,
      "##ικοινων": 1890,
      "εγω": 1891,
      "##30": 1892,
      "διαφο": 1893,
      "##λικη": 1894,
      "οδηγ": 1895,
      "99": 1896,
      "αναπτυξη": 1897,
      "##ριβ": 1898,
      "ποιο": 1899,
      "εντολη": 1900,
      "πανεπιστημ": 1901,
      "δεσ": 1902,
      "αποτελεσμα": 1903,
      "αγορα": 1904,
      "νομοσχεδιο": 1905,
      "ταυ": 1906,
      "κοινοτητας": 1907,
      "##μοι": 1908,
      "##ur": 1909,
      "##τριος": 1910,
      "δημοτικου": 1911,
      "##θηση": 1912,
      "επανα": 1913,
      "μεριμνα": 1914,
      "εγινε": 1915,
      "κτι": 1916,
      "δημητριος": 1917,
      "ειχε": 1918,
      "##κος": 1919,
      "εξετα": 1920,
      "04": 1921,
      "οκ": 1922,
      "ευχαριστω": 1923,
      "ηλεκτρον": 1924,
      "##te": 1925,
      "##λικ": 1926,
      "συλ": 1927,
      "##ροι": 1928,
      "06": 1929,
      "χιλια": 1930,
      "##περι": 1931,
      "##αιων": 1932,
      "##32": 1933,
      "##ρειας": 1934,
      "αρμοδιοτητες": 1935,
      "##γματα": 1936,
      "94": 1937,
      "ελευθε": 1938,
      "##ιζεται": 1939,
      "in": 1940,
      "αναδασ": 1941,
      "##τικους": 1942,
      "##16": 1943,
      "ναι": 1944,
      "##τεχν": 1945,
      "μακεδονιας": 1946,
      "κωνσταντινος": 1947,
      "##ριζονται": 1948,
      "μπ": 1949,
      "τακ": 1950,
      "##τομμυ": 1951,
      "##κηρυ": 1952,
      "of": 1953,
      "##φερεται": 1954,
      "##ιση": 1955,
      "κωδικα": 1956,
      "1992": 1957,
      "επωνυ": 1958,
      "ενωσης": 1959,
      "δικη": 1960,
      "##θεσης": 1961,
      "δημοκρατια": 1962,
      "υπα": 1963,
      "προμη": 1964,
      "τουλαχισ": 1965,
      "##18": 1966,
      "##39": 1967,
      "##τιου": 1968,
      "κανει": 1969,
      "γενικης": 1970,
      "αθλη": 1971,
      "εκταση": 1972,
      "σπου": 1973,
      "αντιπρο": 1974,
      "συζητηση": 1975,
      "##μηχαν": 1976,
      "##βε": 1977,
      "προσπα": 1978,
      "αστυνομ": 1979,
      "αναλογ": 1980,
      "ηθε": 1981,
      "##γγε": 1982,
      "##ιζω": 1983,
      "λογισ": 1984,
      "ιδιαι": 1985,
      "εδαφ": 1986,
      "επαγγελμα": 1987,
      "αλλων": 1988,
      "υε": 1989,
      "ερωτηση": 1990,
      "εσεις": 1991,
      "##ζι": 1992,
      "03": 1993,
      "##μαρ": 1994,
      "σημειο": 1995,
      "μπορουν": 1996,
      "##49": 1997,
      "##σμου": 1998,
      "γεννη": 1999,
      "κλ": 2000,
      "τηρηση": 2001,
      "##ποιησης": 2002,
      "##αρια": 2003,
      "κρατους": 2004,
      "τουλαχιστον": 2005,
      "ολων": 2006,
      "απα": 2007,
      "##μαι": 2008,
      "αναγνω": 2009,
      "05": 2010,
      "##φρα": 2011,
      "θρη": 2012,
      "πανω": 2013,
      "επιμε": 2014,
      "##22": 2015,
      "αρμοδ": 2016,
      "##τυπ": 2017,
      "γενικος": 2018,
      "##ic": 2019,
      "80": 2020,
      "γεωργιου": 2021,
      "αποσ": 2022,
      "προβλημα": 2023,
      "ενας": 2024,
      "##πους": 2025,
      "οσο": 2026,
      "##λικης": 2027,
      "##60": 2028,
      "εκτελεση": 2029,
      "##69": 2030,
      "προγραμματος": 2031,
      "αερο": 2032,
      "ορ": 2033,
      "κανονισμος": 2034,
      "ομογεν": 2035,
      "ολοι": 2036,
      "1994": 2037,
      "##κολ": 2038,
      "μελος": 2039,
      "08": 2040,
      "μαλ": 2041,
      "βουλης": 2042,
      "σχεδιου": 2043,
      "λαμβαν": 2044,
      "κυριες": 2045,
      "##πλ": 2046,
      "##τουμε": 2047,
      "##θυνη": 2048,
      "βελτι": 2049,
      "##πεδο": 2050,
      "οργανισμου": 2051,
      "υποστηρι": 2052,
      "ουσια": 2053,
      "##ρικη": 2054,
      "διευθυνση": 2055,
      "##εμβριου": 2056,
      "09": 2057,
      "##40": 2058,
      "ελλαδας": 2059,
      "##βαθμ": 2060,
      "θρησκευ": 2061,
      "φα": 2062,
      "##ουλιου": 2063,
      "κυβερνησης": 2064,
      "##ενα": 2065,
      "##68": 2066,
      "τετο": 2067,
      "βαρ": 2068,
      "##ληψη": 2069,
      "σταθ": 2070,
      "ανταγων": 2071,
      "τηλε": 2072,
      "ειπα": 2073,
      "γραμματεας": 2074,
      "επιση": 2075,
      "95": 2076,
      "εκθεση": 2077,
      "##τηρηση": 2078,
      "δει": 2079,
      "##θεω": 2080,
      "επιβ": 2081,
      "αμο": 2082,
      "πη": 2083,
      "καλα": 2084,
      "##μιας": 2085,
      "πρωθ": 2086,
      "δημητ": 2087,
      "βε": 2088,
      "αιτησης": 2089,
      "προτα": 2090,
      "##ενεργ": 2091,
      "πρωθυπουργ": 2092,
      "οποιος": 2093,
      "##ωτε": 2094,
      "##ηντα": 2095,
      "##ξια": 2096,
      "##el": 2097,
      "##φερονται": 2098,
      "εξαιρε": 2099,
      "ελεγχο": 2100,
      "##ιως": 2101,
      "##λογων": 2102,
      "##πασ": 2103,
      "##ρακ": 2104,
      "αξιολογη": 2105,
      "μερος": 2106,
      "προσωπο": 2107,
      "2017": 2108,
      "μιας": 2109,
      "οργανα": 2110,
      "απαρ": 2111,
      "τοτε": 2112,
      "##κει": 2113,
      "##23": 2114,
      "##φορας": 2115,
      "παραιτησης": 2116,
      "διοικητικης": 2117,
      "##λεται": 2118,
      "δικαιολογη": 2119,
      "παραγραφου": 2120,
      "νομαρχια": 2121,
      "διαχειρισης": 2122,
      "39": 2123,
      "##ψει": 2124,
      "##σμο": 2125,
      "διεθν": 2126,
      "100": 2127,
      "προγραμματων": 2128,
      "##γματος": 2129,
      "τελος": 2130,
      "##μισ": 2131,
      "πλειο": 2132,
      "συνεργασια": 2133,
      "οριζεται": 2134,
      "##φυλα": 2135,
      "φορα": 2136,
      "στοιχειων": 2137,
      "κυκλο": 2138,
      "υφυπουργος": 2139,
      "υπαλληλου": 2140,
      "παρουσας": 2141,
      "συμμετο": 2142,
      "μητρωο": 2143,
      "##τικοτητα": 2144,
      "νσης": 2145,
      "##χθει": 2146,
      "αποκτηση": 2147,
      "##τειας": 2148,
      "αργ": 2149,
      "πλεον": 2150,
      "##γε": 2151,
      "ελληνικη": 2152,
      "ποσοστο": 2153,
      "δυσ": 2154,
      "##19": 2155,
      "καθηκ": 2156,
      "ηθελα": 2157,
      "θεματων": 2158,
      "##πυ": 2159,
      "επιχειρησης": 2160,
      "προιοντων": 2161,
      "##χους": 2162,
      "χρηση": 2163,
      "κατηγοριας": 2164,
      "συνολο": 2165,
      "σι": 2166,
      "εξου": 2167,
      "##χρον": 2168,
      "αναφερεται": 2169,
      "##ρασ": 2170,
      "an": 2171,
      "εβ": 2172,
      "85": 2173,
      "βουλη": 2174,
      "σωμα": 2175,
      "αντικαταστα": 2176,
      "##κι": 2177,
      "ακριβ": 2178,
      "κατασταση": 2179,
      "ωρα": 2180,
      "πλειοψη": 2181,
      "εφαρμογης": 2182,
      "οκτω": 2183,
      "θεσεων": 2184,
      "παναγιωτης": 2185,
      "##τηριο": 2186,
      "γνωριζ": 2187,
      "##37": 2188,
      "κατηγορια": 2189,
      "συμβαση": 2190,
      "κατασ": 2191,
      "##27": 2192,
      "ηδη": 2193,
      "υποψηφ": 2194,
      "δυνατοτητα": 2195,
      "##ation": 2196,
      "1995": 2197,
      "αναγκες": 2198,
      "καρ": 2199,
      "γεωργιας": 2200,
      "##ρισμο": 2201,
      "διευ": 2202,
      "96": 2203,
      "##χον": 2204,
      "##ανδ": 2205,
      "δημοσια": 2206,
      "κρατος": 2207,
      "##ξεων": 2208,
      "##σιν": 2209,
      "μετρων": 2210,
      "##ro": 2211,
      "προκαλειται": 2212,
      "γραμ": 2213,
      "ισχυουν": 2214,
      "##τροφ": 2215,
      "εναρ": 2216,
      "θρησκευματων": 2217,
      "##re": 2218,
      "εργασια": 2219,
      "βουλευτες": 2220,
      "##μενως": 2221,
      "##τοτε": 2222,
      "##λωση": 2223,
      "υπολογ": 2224,
      "##φθει": 2225,
      "##πονται": 2226,
      "χωρων": 2227,
      "##νομ": 2228,
      "ανε": 2229,
      "φαρ": 2230,
      "##τηριου": 2231,
      "πολιτισμου": 2232,
      "1998": 2233,
      "ρυθμιση": 2234,
      "απαλλο": 2235,
      "γνωμο": 2236,
      "##57": 2237,
      "προσδιο": 2238,
      "##στερα": 2239,
      "αναδασωτε": 2240,
      "##ινδ": 2241,
      "κλη": 2242,
      "ανθρωπιν": 2243,
      "μισθο": 2244,
      "διοικητικων": 2245,
      "ανη": 2246,
      "χορηγηση": 2247,
      "επιστημον": 2248,
      "##σιες": 2249,
      "συγκρο": 2250,
      "παραρτημα": 2251,
      "αρθρα": 2252,
      "##αριου": 2253,
      "διενεργ": 2254,
      "στελε": 2255,
      "αδειας": 2256,
      "στιγ": 2257,
      "##δεικ": 2258,
      "##τρια": 2259,
      "ιδιοκτη": 2260,
      "##στημα": 2261,
      "ανδ": 2262,
      "θελω": 2263,
      "δημαρχ": 2264,
      "##πια": 2265,
      "αποδεκ": 2266,
      "##47": 2267,
      "ευρωπαικη": 2268,
      "κρατη": 2269,
      "βιομηχαν": 2270,
      "1996": 2271,
      "καθορισμος": 2272,
      "διαρκεια": 2273,
      "ταυτο": 2274,
      "πλα": 2275,
      "##it": 2276,
      "γ΄": 2277,
      "συνδε": 2278,
      "##80": 2279,
      "τιμη": 2280,
      "##τζ": 2281,
      "κυρω": 2282,
      "##ποιειται": 2283,
      "##λιου": 2284,
      "τοποθε": 2285,
      "τελευτα": 2286,
      "##βασ": 2287,
      "κερ": 2288,
      "δεδο": 2289,
      "καθηγη": 2290,
      "##δι": 2291,
      "##καλ": 2292,
      "υπαλληλος": 2293,
      "##13": 2294,
      "προκηρυ": 2295,
      "εσο": 2296,
      "πολεοδ": 2297,
      "αρχει": 2298,
      "υπη": 2299,
      "προστασια": 2300,
      "αλεξ": 2301,
      "ειχα": 2302,
      "##ρακης": 2303,
      "δεσμευ": 2304,
      "##ισμων": 2305,
      "παραγραφο": 2306,
      "κυκλοφο": 2307,
      "επε": 2308,
      "βρισκεται": 2309,
      "αδεια": 2310,
      "##ινδυν": 2311,
      "αναστα": 2312,
      "87": 2313,
      "49": 2314,
      "εικο": 2315,
      "αναλυ": 2316,
      "απορ": 2317,
      "διορ": 2318,
      "διοικηση": 2319,
      "αμοιβ": 2320,
      "ειδικοτερα": 2321,
      "##55": 2322,
      "διακο": 2323,
      "απαραι": 2324,
      "υπουργων": 2325,
      "συλλογ": 2326,
      "δυναμικου": 2327,
      "βουλευτης": 2328,
      "αυτος": 2329,
      "##ρισμος": 2330,
      "κατι": 2331,
      "##συνης": 2332,
      "##τησει": 2333,
      "χρεια": 2334,
      "3528": 2335,
      "υγει": 2336,
      "απαλλοτρι": 2337,
      "##θεσεων": 2338,
      "κατεθε": 2339,
      "επικοινων": 2340,
      "σχεδιο": 2341,
      "παραγωγ": 2342,
      "93": 2343,
      "de": 2344,
      "μεσω": 2345,
      "##πολι": 2346,
      "ιδιωτικου": 2347,
      "43": 2348,
      "περιπτωσεις": 2349,
      "αρισ": 2350,
      "εποπ": 2351,
      "διν": 2352,
      "ανακο": 2353,
      "αυτον": 2354,
      "προτει": 2355,
      "πιστευ": 2356,
      "κρη": 2357,
      "##τησεων": 2358,
      "##ηση": 2359,
      "σκοπο": 2360,
      "εκτι": 2361,
      "προβλεπεται": 2362,
      "οργανωση": 2363,
      "αναφερονται": 2364,
      "##ικοι": 2365,
      "προκειται": 2366,
      "αιγ": 2367,
      "##σαμε": 2368,
      "συστα": 2369,
      "##βαθμιας": 2370,
      "περιεχο": 2371,
      "##θων": 2372,
      "##τικοι": 2373,
      "##66": 2374,
      "ιωαννη": 2375,
      "συσταση": 2376,
      "πολεοδομ": 2377,
      "απασχολησης": 2378,
      "ρο": 2379,
      "κατοικ": 2380,
      "εμβα": 2381,
      "##ισταται": 2382,
      "ανεξ": 2383,
      "υγειονομ": 2384,
      "επαν": 2385,
      "δικαιωμα": 2386,
      "μηχανικων": 2387,
      "##λικα": 2388,
      "##στικα": 2389,
      "πρωτη": 2390,
      "αναφορα": 2391,
      "ρα": 2392,
      "ατο": 2393,
      "##νει": 2394,
      "##διδ": 2395,
      "δρο": 2396,
      "διαθε": 2397,
      "κλα": 2398,
      "κλαδος": 2399,
      "##ent": 2400,
      "προεδρου": 2401,
      "προβληματα": 2402,
      "τοσο": 2403,
      "πλειοψηφια": 2404,
      "εχω": 2405,
      "91": 2406,
      "##τικοτητας": 2407,
      "νομικου": 2408,
      "εγκριν": 2409,
      "επιχειρησεων": 2410,
      "##υπηρε": 2411,
      "θυ": 2412,
      "##γραφα": 2413,
      "γνωμη": 2414,
      "##ρεας": 2415,
      "##θεται": 2416,
      "διαγραμμα": 2417,
      "ικαν": 2418,
      "εικοσι": 2419,
      "ακο": 2420,
      "νεο": 2421,
      "προθεσ": 2422,
      "##βαν": 2423,
      "##τερης": 2424,
      "47": 2425,
      "##ελι": 2426,
      "##πιση": 2427,
      "διασ": 2428,
      "##κατα": 2429,
      "##ρουνται": 2430,
      "τελευταια": 2431,
      "στιγμη": 2432,
      "οποιοι": 2433,
      "##ψεις": 2434,
      "##29": 2435,
      "κυριο": 2436,
      "θη": 2437,
      "διαπιστω": 2438,
      "συστηματος": 2439,
      "σχετικη": 2440,
      "διαχειριση": 2441,
      "αθανασιος": 2442,
      "οριο": 2443,
      "##ολη": 2444,
      "##γονται": 2445,
      "απαντηση": 2446,
      "##ρησης": 2447,
      "σει": 2448,
      "ωρες": 2449,
      "##σατε": 2450,
      "ζων": 2451,
      "##δος": 2452,
      "ιστο": 2453,
      "πολιτες": 2454,
      "ακομα": 2455,
      "##αρτη": 2456,
      "##15": 2457,
      "συντον": 2458,
      "##at": 2459,
      "επιχειρησεις": 2460,
      "##πτε": 2461,
      "παροχη": 2462,
      "συμπερι": 2463,
      "φορεις": 2464,
      "εξοπλ": 2465,
      "φορολογ": 2466,
      "εργασιων": 2467,
      "νομοθεσιας": 2468,
      "44": 2469,
      "αποκλει": 2470,
      "χωρες": 2471,
      "θεοδ": 2472,
      "εξυπηρε": 2473,
      "##τογραφη": 2474,
      "αντικειμενο": 2475,
      "500": 2476,
      "μαλιστα": 2477,
      "ομι": 2478,
      "προβλεπο": 2479,
      "πανεπιστημιου": 2480,
      "επιδο": 2481,
      "τετρα": 2482,
      "εξασ": 2483,
      "μετο": 2484,
      "προσωπου": 2485,
      "οργανισμος": 2486,
      "ενια": 2487,
      "##κας": 2488,
      "ανθρωπινου": 2489,
      "περιοδο": 2490,
      "μεταφορων": 2491,
      "εταιρειας": 2492,
      "λογαρια": 2493,
      "ανατο": 2494,
      "εισπρα": 2495,
      "ασφαλειας": 2496,
      "αρμοδια": 2497,
      "##25": 2498,
      "δεκτο": 2499,
      "χρε": 2500,
      "##τρος": 2501,
      "προνο": 2502,
      "ομογενους": 2503,
      "δομη": 2504,
      "##τρου": 2505,
      "λεει": 2506,
      "##67": 2507,
      "##ριζα": 2508,
      "διαταξη": 2509,
      "μικρο": 2510,
      "θεσης": 2511,
      "ανωτα": 2512,
      "κτη": 2513,
      "ακομη": 2514,
      "79": 2515,
      "στηρι": 2516,
      "υποδομ": 2517,
      "##as": 2518,
      "πραξης": 2519,
      "εκτασης": 2520,
      "ελλει": 2521,
      "φρον": 2522,
      "οικονομικου": 2523,
      "αυτοδιοικησης": 2524,
      "ενημερω": 2525,
      "αυτους": 2526,
      "##θου": 2527,
      "##ρικα": 2528,
      "κλει": 2529,
      "προσε": 2530,
      "δημοσιευση": 2531,
      "ενεργειας": 2532,
      "ευθυνη": 2533,
      "καρα": 2534,
      "re": 2535,
      "ελεγχος": 2536,
      "διπ": 2537,
      "1993": 2538,
      "προω": 2539,
      "προυπολογισμο": 2540,
      "αρχες": 2541,
      "παρακαλ": 2542,
      "γα": 2543,
      "##γεται": 2544,
      "δ΄": 2545,
      "περιου": 2546,
      "μεσο": 2547,
      "##ταλλευ": 2548,
      "αρχης": 2549,
      "##σσεται": 2550,
      "δικαιοσυνης": 2551,
      "υποβολης": 2552,
      "##63": 2553,
      "ελλαδος": 2554,
      "δημητριου": 2555,
      "##τολογ": 2556,
      "περιοχης": 2557,
      "αφου": 2558,
      "νομιζω": 2559,
      "##εκα": 2560,
      "##τηθει": 2561,
      "κοινοβουλευ": 2562,
      "63": 2563,
      "εγγυ": 2564,
      "καταθε": 2565,
      "##μεταλλευ": 2566,
      "μεγαλυ": 2567,
      "##θειας": 2568,
      "##γειται": 2569,
      "συνη": 2570,
      "πειρα": 2571,
      "αναγκη": 2572,
      "##ανου": 2573,
      "πλευ": 2574,
      "αριθμος": 2575,
      "##λετε": 2576,
      "##ρικο": 2577,
      "προγραμματα": 2578,
      "συριζα": 2579,
      "ρυθμισεις": 2580,
      "πολλα": 2581,
      "βασει": 2582,
      "ψυ": 2583,
      "τεχνικων": 2584,
      "##ed": 2585,
      "καταρτι": 2586,
      "45": 2587,
      "ειδικου": 2588,
      "ιδιως": 2589,
      "καταλλη": 2590,
      "επιχο": 2591,
      "##γραμ": 2592,
      "##χρη": 2593,
      "εκμεταλλευ": 2594,
      "σημα": 2595,
      "##δυνα": 2596,
      "αλι": 2597,
      "συνδυ": 2598,
      "148": 2599,
      "##παρα": 2600,
      "##ρειται": 2601,
      "##ωσεων": 2602,
      "κοινωνικων": 2603,
      "ναυτι": 2604,
      "##ισμους": 2605,
      "εταιρεια": 2606,
      "πρωτ": 2607,
      "προο": 2608,
      "χρηματοδο": 2609,
      "εκλογ": 2610,
      "αποκεντρωσης": 2611,
      "##αρχ": 2612,
      "77": 2613,
      "ενωση": 2614,
      "παρακατω": 2615,
      "τος": 2616,
      "διαστημα": 2617,
      "##ζουν": 2618,
      "παρουσια": 2619,
      "βεβαιως": 2620,
      "##νια": 2621,
      "κατανα": 2622,
      "##ξε": 2623,
      "χειρο": 2624,
      "##ις": 2625,
      "λυση": 2626,
      "αποφασεων": 2627,
      "ικανο": 2628,
      "μεταβι": 2629,
      "οικονομικης": 2630,
      "επιπεδο": 2631,
      "προβλεπονται": 2632,
      "##ιδης": 2633,
      "κατευ": 2634,
      "τριαντα": 2635,
      "γεννηθηκε": 2636,
      "ειμαστε": 2637,
      "μαζι": 2638,
      "γενικη": 2639,
      "μηνες": 2640,
      "χρηστος": 2641,
      "ii": 2642,
      "co": 2643,
      "ψηφισ": 2644,
      "σπυ": 2645,
      "##αινεται": 2646,
      "ιε": 2647,
      "γραφειου": 2648,
      "##τομμυρια": 2649,
      "φερ": 2650,
      "οικονομικη": 2651,
      "αναπληρωτη": 2652,
      "48": 2653,
      "νικολαου": 2654,
      "πολιτισ": 2655,
      "υπουργικη": 2656,
      "αγορας": 2657,
      "συνδυασ": 2658,
      "δρχ": 2659,
      "ζα": 2660,
      "ιουν": 2661,
      "βρε": 2662,
      "##ιζονται": 2663,
      "δηλω": 2664,
      "αναφερ": 2665,
      "##44": 2666,
      "αρα": 2667,
      "57": 2668,
      "προυποθεσεις": 2669,
      "επιχειρηση": 2670,
      "κατευθυν": 2671,
      "αποδεκτη": 2672,
      "χρημα": 2673,
      "επωνυμια": 2674,
      "θεωρη": 2675,
      "αρχαιο": 2676,
      "55": 2677,
      "λεπτο": 2678,
      "##υκ": 2679,
      "οποιων": 2680,
      "υπερω": 2681,
      "##ταξη": 2682,
      "πολιτογραφη": 2683,
      "##καταστα": 2684,
      "τρεις": 2685,
      "εκασ": 2686,
      "##στου": 2687,
      "##ch": 2688,
      "δικαιωματων": 2689,
      "δικαιωματα": 2690,
      "νοση": 2691,
      "πολιτων": 2692,
      "##πευ": 2693,
      "##le": 2694,
      "##οδου": 2695,
      "ολους": 2696,
      "ακου": 2697,
      "ανακοιν": 2698,
      "ξεν": 2699,
      "##χονται": 2700,
      "##τεκ": 2701,
      "επιπ": 2702,
      "κανουμε": 2703,
      "αγροτικης": 2704,
      "προκυπ": 2705,
      "##μας": 2706,
      "ελληνικο": 2707,
      "##βαια": 2708,
      "εξελι": 2709,
      "περιορισ": 2710,
      "##ρωνει": 2711,
      "##διων": 2712,
      "##ποιουνται": 2713,
      "αρχι": 2714,
      "υφυπουργου": 2715,
      "κεντρο": 2716,
      "τεσσε": 2717,
      "κατοπιν": 2718,
      "παραγωγης": 2719,
      "##ρικου": 2720,
      "75": 2721,
      "προνοιας": 2722,
      "διαπιστων": 2723,
      "##φορες": 2724,
      "διαδικασιες": 2725,
      "μαρια": 2726,
      "υπευθυν": 2727,
      "διευθυντη": 2728,
      "επιχορηγη": 2729,
      "##νομη": 2730,
      "χωροταξ": 2731,
      "προιοντα": 2732,
      "διδα": 2733,
      "υπολοι": 2734,
      "##τουνται": 2735,
      "ορους": 2736,
      "φορεα": 2737,
      "##03": 2738,
      "τροφι": 2739,
      "##ναν": 2740,
      "συμφωνη": 2741,
      "σχολης": 2742,
      "89": 2743,
      "ημερες": 2744,
      "##ξεως": 2745,
      "##ικον": 2746,
      "φε": 2747,
      "σπουδων": 2748,
      "κινδυν": 2749,
      "ειδους": 2750,
      "##νυ": 2751,
      "##στων": 2752,
      "##65": 2753,
      "προστι": 2754,
      "##τυπα": 2755,
      "πολιτικων": 2756,
      "γλω": 2757,
      "αμυ": 2758,
      "##αρμο": 2759,
      "##τερες": 2760,
      "##χοι": 2761,
      "διεκ": 2762,
      "οχη": 2763,
      "##τηριων": 2764,
      "κριση": 2765,
      "εφ": 2766,
      "εισο": 2767,
      "παρακολουθηση": 2768,
      "συνεδριαση": 2769,
      "κτημα": 2770,
      "##δικο": 2771,
      "αντων": 2772,
      "τμηματα": 2773,
      "απε": 2774,
      "λεω": 2775,
      "παυ": 2776,
      "##γιαν": 2777,
      "καλλι": 2778,
      "##μεια": 2779,
      "επιβαλ": 2780,
      "##ing": 2781,
      "σου": 2782,
      "διαρ": 2783,
      "88": 2784,
      "διευθυντης": 2785,
      "οριζονται": 2786,
      "δηλωση": 2787,
      "αυτοι": 2788,
      "κλιμα": 2789,
      "##σοκ": 2790,
      "εξι": 2791,
      "##θος": 2792,
      "##ρινη": 2793,
      "σταυ": 2794,
      "##ρικων": 2795,
      "##θαν": 2796,
      "θεοδω": 2797,
      "to": 2798,
      "##και": 2799,
      "εγγραφ": 2800,
      "##ριζει": 2801,
      "ζητημα": 2802,
      "προα": 2803,
      "##οδευ": 2804,
      "μελ": 2805,
      "χιλιαδες": 2806,
      "πασοκ": 2807,
      "##ρεπε": 2808,
      "συνεπ": 2809,
      "επα": 2810,
      "##οντος": 2811,
      "αυξηση": 2812,
      "κεφαλαιο": 2813,
      "φυλα": 2814,
      "αποκαταστα": 2815,
      "κλπ": 2816,
      "γραμματειας": 2817,
      "μεταφορα": 2818,
      "##λονται": 2819,
      "δαπανων": 2820,
      "##ασιας": 2821,
      "##ριος": 2822,
      "##ra": 2823,
      "αυτοκινη": 2824,
      "αιγαιου": 2825,
      "##τρικης": 2826,
      "δισ": 2827,
      "αρχιζει": 2828,
      "κατεθεσε": 2829,
      "μαν": 2830,
      "ευα": 2831,
      "δαπανες": 2832,
      "ποιν": 2833,
      "δεκεμβριου": 2834,
      "πραγματικα": 2835,
      "βουλευτη": 2836,
      "εγγραφα": 2837,
      "φροντι": 2838,
      "ημερα": 2839,
      "τελει": 2840,
      "##43": 2841,
      "##48": 2842,
      "κοινοτητα": 2843,
      "πτυχ": 2844,
      "μορ": 2845,
      "##ροσ": 2846,
      "δυτικης": 2847,
      "ποσου": 2848,
      "##ζαν": 2849,
      "ενδιαφερο": 2850,
      "επεξ": 2851,
      "εγκρι": 2852,
      "id": 2853,
      "ορια": 2854,
      "##κουν": 2855,
      "νοσοκομειου": 2856,
      "λογους": 2857,
      "γιαν": 2858,
      "1991": 2859,
      "επεξεργ": 2860,
      "##δρομ": 2861,
      "δικηγο": 2862,
      "υπερωρια": 2863,
      "νομοθεσια": 2864,
      "παρακαλω": 2865,
      "μελετη": 2866,
      "67": 2867,
      "##ρικ": 2868,
      "41": 2869,
      "##στικη": 2870,
      "πινακα": 2871,
      "αλεξανδ": 2872,
      "προβολη": 2873,
      "συμβασης": 2874,
      "περιοχες": 2875,
      "κωδικ": 2876,
      "##δον": 2877,
      "μπορου": 2878,
      "επικαι": 2879,
      "##λιων": 2880,
      "εταιρει": 2881,
      "επεκ": 2882,
      "##μει": 2883,
      "υψος": 2884,
      "ελα": 2885,
      "νομος": 2886,
      "ειπε": 2887,
      "χρισ": 2888,
      "συμφερον": 2889,
      "οργανων": 2890,
      "δημαρχου": 2891,
      "δημοτικης": 2892,
      "ακολουθ": 2893,
      "κωνσταντινου": 2894,
      "ευρυ": 2895,
      "χαλ": 2896,
      "χορη": 2897,
      "ημερων": 2898,
      "ανταγωνισ": 2899,
      "συμμετοχη": 2900,
      "42": 2901,
      "δεκτη": 2902,
      "μιχα": 2903,
      "εμβαδου": 2904,
      "βεβαια": 2905,
      "εισηγηση": 2906,
      "κρατικου": 2907,
      "οργανισμο": 2908,
      "εθνικο": 2909,
      "ηρακ": 2910,
      "τμηματων": 2911,
      "1985": 2912,
      "ιδρυση": 2913,
      "οικογεν": 2914,
      "διαγραφης": 2915,
      "τυπου": 2916,
      "στρε": 2917,
      "διαγων": 2918,
      "παραδο": 2919,
      "υπηρ": 2920,
      "διαβ": 2921,
      "ον": 2922,
      "86": 2923,
      "εργαζομενων": 2924,
      "επτα": 2925,
      "διακ": 2926,
      "##τιω": 2927,
      "οικοδομ": 2928,
      "αυτοδικα": 2929,
      "κυριως": 2930,
      "καλυπ": 2931,
      "ειχαν": 2932,
      "##ομενων": 2933,
      "##γορευ": 2934,
      "69": 2935,
      "σαν": 2936,
      "αυτοδικαια": 2937,
      "##περ": 2938,
      "ιδιαιτερα": 2939,
      "πιστοποιητικο": 2940,
      "ελεγκ": 2941,
      "λυεται": 2942,
      "##λουμε": 2943,
      "εντα": 2944,
      "απαιτειται": 2945,
      "ηλικ": 2946,
      "##λως": 2947,
      "δημιουργη": 2948,
      "πραγματο": 2949,
      "λιγο": 2950,
      "ακριβως": 2951,
      "αλληλε": 2952,
      "εννο": 2953,
      "##πω": 2954,
      "διεξ": 2955,
      "##ιωμα": 2956,
      "κανα": 2957,
      "προσωπα": 2958,
      "##λαν": 2959,
      "##δομη": 2960,
      "and": 2961,
      "πρωθυπουργου": 2962,
      "υποχρεωσεις": 2963,
      "περιπου": 2964,
      "##ζα": 2965,
      "νεων": 2966,
      "ενισχυση": 2967,
      "συγκεκριμενα": 2968,
      "επισκ": 2969,
      "περισσοτερο": 2970,
      "καθαριο": 2971,
      "τελων": 2972,
      "δημιουργια": 2973,
      "οποιου": 2974,
      "##ρετε": 2975,
      "δοκ": 2976,
      "εδρα": 2977,
      "υπουργοι": 2978,
      "κομμα": 2979,
      "επρεπε": 2980,
      "μηνα": 2981,
      "τροπολογια": 2982,
      "##45": 2983,
      "προεδρο": 2984,
      "μεγαλο": 2985,
      "τοπογραφ": 2986,
      "αναδασωτεας": 2987,
      "##τερου": 2988,
      "επιτρεπεται": 2989,
      "##62": 2990,
      "προσθε": 2991,
      "διαμε": 2992,
      "θελετε": 2993,
      "θρακης": 2994,
      "παραδει": 2995,
      "εγκαταστασεων": 2996,
      "αναφερο": 2997,
      "τροφιμων": 2998,
      "πτε": 2999,
      "δυνατον": 3000,
      "στρατιω": 3001,
      "αλληλεγγυ": 3002,
      "βλε": 3003,
      "##83": 3004,
      "1990": 3005,
      "αιγια": 3006,
      "χαρ": 3007,
      "πτερυ": 3008,
      "καμια": 3009,
      "υδ": 3010,
      "εισοδη": 3011,
      "γενικα": 3012,
      "κανετε": 3013,
      "αντιπροεδ": 3014,
      "αντιμετωπισ": 3015,
      "κεντρικης": 3016,
      "##il": 3017,
      "χαρακτηρισ": 3018,
      "ναυτιλιας": 3019,
      "μιλα": 3020,
      "##ul": 3021,
      "κηρυξη": 3022,
      "δασικη": 3023,
      "##ιζουν": 3024,
      "διαφορε": 3025,
      "ιωανν": 3026,
      "παρασκευ": 3027,
      "μνη": 3028,
      "καταναλω": 3029,
      "ιουνιου": 3030,
      "µε": 3031,
      "πλοιο": 3032,
      "καταβαλ": 3033,
      "μηχανο": 3034,
      "##τευσης": 3035,
      "χαρακτηρα": 3036,
      "##ρεα": 3037,
      "##ποιει": 3038,
      "ιανου": 3039,
      "μεγαλη": 3040,
      "συμφωνια": 3041,
      "σχετικων": 3042,
      "##γκο": 3043,
      "##τζη": 3044,
      "επικρα": 3045,
      "παρακατα": 3046,
      "τυχον": 3047,
      "πραγματα": 3048,
      "κοινης": 3049,
      "σημαντικο": 3050,
      "διοικητικο": 3051,
      "##ευμα": 3052,
      "γνωστο": 3053,
      "πρακτικα": 3054,
      "μιλη": 3055,
      "λιμεν": 3056,
      "ευθυν": 3057,
      "##et": 3058,
      "##βη": 3059,
      "εισαγωγ": 3060,
      "φορ": 3061,
      "συντηρη": 3062,
      "αγα": 3063,
      "κατασκευη": 3064,
      "##τηγ": 3065,
      "σοβα": 3066,
      "400": 3067,
      "καμ": 3068,
      "σχετικες": 3069,
      "καλυψη": 3070,
      "υπαλληλους": 3071,
      "συνταξη": 3072,
      "δοκι": 3073,
      "απαγορευ": 3074,
      "δημοτικο": 3075,
      "αγων": 3076,
      "##δικαι": 3077,
      "μοναδων": 3078,
      "ενημερωση": 3079,
      "##δεικνυ": 3080,
      "κλιμακ": 3081,
      "##ωθει": 3082,
      "κυκλοφοριας": 3083,
      "##μαρχη": 3084,
      "αρμοδιοτητας": 3085,
      "##ρυν": 3086,
      "ρε": 3087,
      "συμβαλ": 3088,
      "διορισμου": 3089,
      "ταμειο": 3090,
      "58": 3091,
      "δασων": 3092,
      "καθοριζονται": 3093,
      "##λειος": 3094,
      "ιδιου": 3095,
      "κοινοτητων": 3096,
      "μπορουμε": 3097,
      "σωματος": 3098,
      "συνεργα": 3099,
      "##μηση": 3100,
      "εκτε": 3101,
      "##µα": 3102,
      "συνεπως": 3103,
      "53": 3104,
      "καθεσ": 3105,
      "υποχρεωση": 3106,
      "ολοκλη": 3107,
      "65": 3108,
      "##κρο": 3109,
      "##στικο": 3110,
      "ιουλιου": 3111,
      "καποι": 3112,
      "αποθηκ": 3113,
      "##πες": 3114,
      "ακολουθη": 3115,
      "καποια": 3116,
      "##ol": 3117,
      "βασιλειος": 3118,
      "εφε": 3119,
      "διαδικασιας": 3120,
      "##τυχως": 3121,
      "ειδικων": 3122,
      "αδειων": 3123,
      "συγκεντρω": 3124,
      "επιπλεον": 3125,
      "χρησης": 3126,
      "λετε": 3127,
      "κρητης": 3128,
      "νομαρχη": 3129,
      "αυτοδικαι": 3130,
      "χωροταξιας": 3131,
      "διαδικασιων": 3132,
      "εγγραφων": 3133,
      "##πεδου": 3134,
      "υπαλληλικη": 3135,
      "εξουσιο": 3136,
      "ταμειου": 3137,
      "επιτε": 3138,
      "πρωτοκολ": 3139,
      "απαλλα": 3140,
      "προισταμενος": 3141,
      "διαφαν": 3142,
      "##θενται": 3143,
      "τουρισ": 3144,
      "##ιοι": 3145,
      "βελτιωση": 3146,
      "##ουλιο": 3147,
      "##ενη": 3148,
      "διεξα": 3149,
      "λογιστικου": 3150,
      "συνεχεια": 3151,
      "τευ": 3152,
      "κακ": 3153,
      "διαπιστωνεται": 3154,
      "κυριος": 3155,
      "εκφρα": 3156,
      "ολη": 3157,
      "διαθεση": 3158,
      "##ερχεται": 3159,
      "ενεργεια": 3160,
      "ορο": 3161,
      "φαινεται": 3162,
      "##ευση": 3163,
      "βοηθη": 3164,
      "επιχειρημα": 3165,
      "νομικο": 3166,
      "59": 3167,
      "##ρρυ": 3168,
      "μερους": 3169,
      "##64": 3170,
      "εκατον": 3171,
      "##ρηγο": 3172,
      "δημ": 3173,
      "περιλαμβανει": 3174,
      "ζητη": 3175,
      "μελετων": 3176,
      "##λογο": 3177,
      "αντικαθ": 3178,
      "κον": 3179,
      "αξιωμα": 3180,
      "##us": 3181,
      "δου": 3182,
      "αο": 3183,
      "##ραι": 3184,
      "##ατε": 3185,
      "πολλες": 3186,
      "προε": 3187,
      "##ληση": 3188,
      "χειροκρο": 3189,
      "συναδελφ": 3190,
      "γινονται": 3191,
      "##γγελος": 3192,
      "ειδικα": 3193,
      "διατηρη": 3194,
      "##70": 3195,
      "βλα": 3196,
      "δραχ": 3197,
      "υψους": 3198,
      "οργανικη": 3199,
      "εγγυη": 3200,
      "68": 3201,
      "##τυχια": 3202,
      "σπυρι": 3203,
      "ημερη": 3204,
      "προσοντα": 3205,
      "##ανε": 3206,
      "διακυ": 3207,
      "αναθεση": 3208,
      "τελευται": 3209,
      "##στει": 3210,
      "βαθμι": 3211,
      "θαλα": 3212,
      "##τηκε": 3213,
      "φοι": 3214,
      "##ment": 3215,
      "##oυ": 3216,
      "υστερα": 3217,
      "προσωπων": 3218,
      "στρατηγ": 3219,
      "οκτωβ": 3220,
      "##ραν": 3221,
      "λου": 3222,
      "##ομαι": 3223,
      "γον": 3224,
      "##ξαν": 3225,
      "βιβλιο": 3226,
      "πολιτογραφησης": 3227,
      "##ιβασ": 3228,
      "τεχνολογ": 3229,
      "αντιμετωπιση": 3230,
      "φιλο": 3231,
      "δικαιολογητικα": 3232,
      "ειδικη": 3233,
      "παρων": 3234,
      "##μω": 3235,
      "83": 3236,
      "συνεχ": 3237,
      "ανοι": 3238,
      "195": 3239,
      "αναγκασ": 3240,
      "##ter": 3241,
      "αλβαν": 3242,
      "πιστευω": 3243,
      "ασκηση": 3244,
      "εγκεκρι": 3245,
      "πρυ": 3246,
      "##λισ": 3247,
      "εμπει": 3248,
      "γραμματεια": 3249,
      "αντιπροσω": 3250,
      "##θουμε": 3251,
      "ιανουαριου": 3252,
      "160": 3253,
      "ισχυου": 3254,
      "ρυμο": 3255,
      "υλοποιηση": 3256,
      "καθορισμο": 3257,
      "##χια": 3258,
      "εκδιδ": 3259,
      "διορθ": 3260,
      "γρηγο": 3261,
      "αλληλεγγυης": 3262,
      "αμυνας": 3263,
      "χρονικο": 3264,
      "ζητηματα": 3265,
      "νοσοκομειο": 3266,
      "ας": 3267,
      "νομαρχης": 3268,
      "εκτακ": 3269,
      "συναλλα": 3270,
      "σελι": 3271,
      "γυμνα": 3272,
      "λαρισ": 3273,
      "##χρο": 3274,
      "οποιαδηποτε": 3275,
      "σημει": 3276,
      "παροχης": 3277,
      "διδακ": 3278,
      "προτασεις": 3279,
      "μειωση": 3280,
      "##αμε": 3281,
      "##ινο": 3282,
      "νοσηλευ": 3283,
      "χειροκροτηματα": 3284,
      "κανεις": 3285,
      "τσι": 3286,
      "σταθε": 3287,
      "ψηφο": 3288,
      "υπερβ": 3289,
      "μυ": 3290,
      "κρατων": 3291,
      "μισθ": 3292,
      "##21": 3293,
      "μελλον": 3294,
      "μορφη": 3295,
      "εκατο": 3296,
      "ξερετε": 3297,
      "εκπαιδευση": 3298,
      "##τιων": 3299,
      "εθνικου": 3300,
      "συμβασεις": 3301,
      "συνοδευ": 3302,
      "αντιστοιχα": 3303,
      "νηπια": 3304,
      "οποιας": 3305,
      "##νηση": 3306,
      "##γενε": 3307,
      "δευτερης": 3308,
      "διαπρα": 3309,
      "παρεμ": 3310,
      "##θυμ": 3311,
      "προανα": 3312,
      "ανο": 3313,
      "##os": 3314,
      "##μορφωση": 3315,
      "καθηγητη": 3316,
      "πραγματι": 3317,
      "κλαδο": 3318,
      "αιγιαλου": 3319,
      "παραλαβ": 3320,
      "ασφαλ": 3321,
      "πατρων": 3322,
      "λυκ": 3323,
      "σεπτε": 3324,
      "λεπτομε": 3325,
      "μιχαηλ": 3326,
      "υψη": 3327,
      "αποφασισ": 3328,
      "ορθο": 3329,
      "αποψη": 3330,
      "κυβερνητικα": 3331,
      "χρυ": 3332,
      "καταρτιση": 3333,
      "ασφαλισης": 3334,
      "αντικατασταθηκε": 3335,
      "##81": 3336,
      "γνωμοδοτηση": 3337,
      "##τευση": 3338,
      "##νωση": 3339,
      "##ec": 3340,
      "συμβασεων": 3341,
      "μισθολογ": 3342,
      "ιδρυματος": 3343,
      "βεβαιωση": 3344,
      "##βου": 3345,
      "##ην": 3346,
      "δημοσιονομ": 3347,
      "ψηφ": 3348,
      "καθηκοντα": 3349,
      "οδηγιας": 3350,
      "εκπο": 3351,
      "1988": 3352,
      "ξεκ": 3353,
      "υπαλληλοι": 3354,
      "διαχειρισ": 3355,
      "επιθεω": 3356,
      "αυτοδιοικηση": 3357,
      "διακυβερνη": 3358,
      "συνδυασμο": 3359,
      "συμμετε": 3360,
      "μουσ": 3361,
      "con": 3362,
      "αστυνομιας": 3363,
      "σειρα": 3364,
      "καθοριζεται": 3365,
      "54": 3366,
      "τεκ": 3367,
      "υλικων": 3368,
      "χαραλα": 3369,
      "ανεργ": 3370,
      "##σιμων": 3371,
      "υποβολη": 3372,
      "##61": 3373,
      "δευτερη": 3374,
      "καταστασης": 3375,
      "κριν": 3376,
      "##ιδας": 3377,
      "ορων": 3378,
      "πραξεων": 3379,
      "##ριδης": 3380,
      "φεβ": 3381,
      "υποβλη": 3382,
      "μεταρρυ": 3383,
      "οριων": 3384,
      "πενηντα": 3385,
      "επισκευ": 3386,
      "κοστος": 3387,
      "ποτε": 3388,
      "τετραγων": 3389,
      "εκαστοτε": 3390,
      "ρω": 3391,
      "καθαριοτητας": 3392,
      "##σσας": 3393,
      "μαιου": 3394,
      "ηρακλειου": 3395,
      "διατυπ": 3396,
      "φαρμα": 3397,
      "αορισ": 3398,
      "ταχυ": 3399,
      "προσλη": 3400,
      "αρχιτεκ": 3401,
      "νηπιαγωγ": 3402,
      "ληψη": 3403,
      "λεπτα": 3404,
      "##πεια": 3405,
      "##87": 3406,
      "αντιπολι": 3407,
      "##33": 3408,
      "συνθηκες": 3409,
      "##βουλ": 3410,
      "δομησης": 3411,
      "ενδε": 3412,
      "##δοτησης": 3413,
      "ακα": 3414,
      "##id": 3415,
      "ειχαμε": 3416,
      "οδηγια": 3417,
      "φρα": 3418,
      "##ρινης": 3419,
      "σπυριδων": 3420,
      "συνταξιο": 3421,
      "##ημα": 3422,
      "εξασφαλ": 3423,
      "ιι": 3424,
      "οργανωσης": 3425,
      "εξωτερικων": 3426,
      "##ποτα": 3427,
      "χαν": 3428,
      "ταξης": 3429,
      "κοινοβουλιο": 3430,
      "εσοδων": 3431,
      "##μολογ": 3432,
      "πλαισια": 3433,
      "εναρξη": 3434,
      "προκυπτει": 3435,
      "συμπληρωθηκε": 3436,
      "νση": 3437,
      "αναγκα": 3438,
      "##γουν": 3439,
      "συντηρηση": 3440,
      "ισχυος": 3441,
      "βασιλειου": 3442,
      "εθνικη": 3443,
      "υποδομων": 3444,
      "τευχος": 3445,
      "ευρωπαικων": 3446,
      "απορρι": 3447,
      "αποστολος": 3448,
      "πτερυγα": 3449,
      "ερευνας": 3450,
      "προχωρη": 3451,
      "ρυμοτομ": 3452,
      "υποθεσεων": 3453,
      "χρειαζεται": 3454,
      "##κους": 3455,
      "ευρωπη": 3456,
      "αμεσα": 3457,
      "αποζημιωση": 3458,
      "συμπληρωση": 3459,
      "επαρ": 3460,
      "##τσας": 3461,
      "στοιχειο": 3462,
      "αναγκων": 3463,
      "οργανω": 3464,
      "τηρει": 3465,
      "##τροφη": 3466,
      "μηνων": 3467,
      "πεντα": 3468,
      "πραξεις": 3469,
      "κεφα": 3470,
      "κοινωνικη": 3471,
      "##77": 3472,
      "αναλογα": 3473,
      "αρχειο": 3474,
      "κωλυ": 3475,
      "μαρτιου": 3476,
      "οκτωβριου": 3477,
      "απρι": 3478,
      "αλβανια": 3479,
      "##γραφεται": 3480,
      "διεκπερ": 3481,
      "##31": 3482,
      "προκηρυξη": 3483,
      "τσα": 3484,
      "απαιτου": 3485,
      "##πολε": 3486,
      "μερη": 3487,
      "καταρτισ": 3488,
      "υφιστα": 3489,
      "σχολειου": 3490,
      "κεντρου": 3491,
      "##νοη": 3492,
      "φορεων": 3493,
      "τουρισμου": 3494,
      "ασφαλισεων": 3495,
      "εισαγωγη": 3496,
      "λαβ": 3497,
      "προσπαθεια": 3498,
      "κωδικο": 3499,
      "χιλιαδων": 3500,
      "##μματων": 3501,
      "##τεθει": 3502,
      "πρωτοβουλ": 3503,
      "προσαρμο": 3504,
      "υποστηριξης": 3505,
      "καταστη": 3506,
      "##αινουν": 3507,
      "156": 3508,
      "τιτλο": 3509,
      "##ταται": 3510,
      "1989": 3511,
      "##26": 3512,
      "ειδικοτητα": 3513,
      "μεσ": 3514,
      "επιμελη": 3515,
      "##τιες": 3516,
      "περαν": 3517,
      "1986": 3518,
      "81": 3519,
      "εδαφιο": 3520,
      "ειδικης": 3521,
      "υδα": 3522,
      "##νομης": 3523,
      "αναθεω": 3524,
      "84": 3525,
      "##ταρ": 3526,
      "ενοτητας": 3527,
      "ευρωπαικο": 3528,
      "##ποκ": 3529,
      "μοναδες": 3530,
      "καταλαβ": 3531,
      "δημος": 3532,
      "ερευνη": 3533,
      "σκ": 3534,
      "##σμος": 3535,
      "μπορε": 3536,
      "περιουσια": 3537,
      "##κληση": 3538,
      "πεζ": 3539,
      "καταργηση": 3540,
      "περιφερειακης": 3541,
      "πραγματοποιη": 3542,
      "ευαγγελ": 3543,
      "αξιολογηση": 3544,
      "##γλου": 3545,
      "ακινητων": 3546,
      "ειδικοτητας": 3547,
      "##τησεως": 3548,
      "υποστηριξη": 3549,
      "προισταμενου": 3550,
      "πειραια": 3551,
      "##ωσε": 3552,
      "τοπικης": 3553,
      "ευρωπαικου": 3554,
      "παναγιωτη": 3555,
      "##λαμβανει": 3556,
      "αφη": 3557,
      "##μανης": 3558,
      "ανωνυ": 3559,
      "φυσικα": 3560,
      "##τυπων": 3561,
      "ειρη": 3562,
      "##ιζο": 3563,
      "##ιε": 3564,
      "##εναν": 3565,
      "##υρω": 3566,
      "δελτι": 3567,
      "δωδεκ": 3568,
      "τυπο": 3569,
      "46": 3570,
      "##κοσιων": 3571,
      "θεσσαλιας": 3572,
      "μεταγενε": 3573,
      "διαπραγμα": 3574,
      "ειμαι": 3575,
      "αρχιτεκτον": 3576,
      "te": 3577,
      "εκειν": 3578,
      "απασχοληση": 3579,
      "οσα": 3580,
      "σαρα": 3581,
      "μετ": 3582,
      "##λευσης": 3583,
      "δημοσιευθηκε": 3584,
      "αποζημιωσης": 3585,
      "δραστηριοτητες": 3586,
      "επιχειρησια": 3587,
      "τοπικη": 3588,
      "προμηθει": 3589,
      "τριων": 3590,
      "επενδυσεων": 3591,
      "διαμερισ": 3592,
      "σημαινει": 3593,
      "εργασιες": 3594,
      "δυναται": 3595,
      "##µο": 3596,
      "βαλ": 3597,
      "##35": 3598,
      "δυστυχως": 3599,
      "πατρος": 3600,
      "εφαρμοζονται": 3601,
      "ασθεν": 3602,
      "παραγωγη": 3603,
      "##χαιας": 3604,
      "##ωσει": 3605,
      "αρμοδιες": 3606,
      "##προθεσ": 3607,
      "κεφαλαιου": 3608,
      "ποια": 3609,
      "ετων": 3610,
      "αναπτυξια": 3611,
      "φεβρου": 3612,
      "αλλοδαπης": 3613,
      "##05": 3614,
      "##ce": 3615,
      "αποτελουν": 3616,
      "##αισ": 3617,
      "εμμα": 3618,
      "μεταφορας": 3619,
      "απαραιτη": 3620,
      "##χωρηση": 3621,
      "ευαγγελος": 3622,
      "##τηματος": 3623,
      "δισεκα": 3624,
      "##34": 3625,
      "πληροφοριες": 3626,
      "κοινοβουλιου": 3627,
      "##γκα": 3628,
      "δευτεροβαθμιας": 3629,
      "βρισκονται": 3630,
      "##θουσα": 3631,
      "παιδια": 3632,
      "##πλο": 3633,
      "##ποννη": 3634,
      "κειμενο": 3635,
      "##τερων": 3636,
      "##λοποννη": 3637,
      "##τυπο": 3638,
      "##σσα": 3639,
      "μεσων": 3640,
      "##ματισ": 3641,
      "εγκυκ": 3642,
      "εμμανου": 3643,
      "νομιμα": 3644,
      "κυρωθηκε": 3645,
      "σης": 3646,
      "78": 3647,
      "εισηγειται": 3648,
      "##λαια": 3649,
      "##οδο": 3650,
      "μεταβιβαση": 3651,
      "προθεσμια": 3652,
      "χρονος": 3653,
      "επιλογ": 3654,
      "παρεμβ": 3655,
      "αρμοδιοτητα": 3656,
      "επικοινωνιων": 3657,
      "ισχυς": 3658,
      "αθλητισμου": 3659,
      "##νουν": 3660,
      "καθορισμου": 3661,
      "ισχυουσες": 3662,
      "αντιθε": 3663,
      "αποδει": 3664,
      "##υπο": 3665,
      "πληροφορικης": 3666,
      "γενικων": 3667,
      "συμφωνιας": 3668,
      "αοριστου": 3669,
      "##δρα": 3670,
      "πορων": 3671,
      "εκδη": 3672,
      "πανεπιστημια": 3673,
      "χωρου": 3674,
      "##un": 3675,
      "περαι": 3676,
      "##γκοσ": 3677,
      "##φερει": 3678,
      "##ανη": 3679,
      "λοιπα": 3680,
      "συνταγματος": 3681,
      "εσωτερικης": 3682,
      "##θευ": 3683,
      "οδο": 3684,
      "φορες": 3685,
      "##τερας": 3686,
      "##βαθ": 3687,
      "σερ": 3688,
      "σχεσης": 3689,
      "συμπεριλαμβαν": 3690,
      "##χθηκε": 3691,
      "τραπεζα": 3692,
      "πελοποννη": 3693,
      "οτε": 3694,
      "πειθ": 3695,
      "##γραφονται": 3696,
      "76": 3697,
      "σεπτεμβριου": 3698,
      "εμφαν": 3699,
      "τιμες": 3700,
      "##ταξης": 3701,
      "ουσιαστικα": 3702,
      "120": 3703,
      "##71": 3704,
      "παλι": 3705,
      "κοινωνια": 3706,
      "##φεια": 3707,
      "μηχανη": 3708,
      "συγκεκριμενο": 3709,
      "αντικαθισταται": 3710,
      "κοινοχρη": 3711,
      "παραλιας": 3712,
      "ολυ": 3713,
      "σαραντα": 3714,
      "παρεχει": 3715,
      "κακλα": 3716,
      "ανεξαρτη": 3717,
      "χωρους": 3718,
      "αθανασιου": 3719,
      "συσκευ": 3720,
      "##κκ": 3721,
      "pro": 3722,
      "παραδειγμα": 3723,
      "74": 3724,
      "χρησιμοποιη": 3725,
      "συνεχισ": 3726,
      "μετρο": 3727,
      "σελιδα": 3728,
      "προστατευ": 3729,
      "καταβολη": 3730,
      "παρακολουθει": 3731,
      "συνταγμα": 3732,
      "κανουν": 3733,
      "μεν": 3734,
      "ρη": 3735,
      "εξοπλισμου": 3736,
      "##βια": 3737,
      "##θες": 3738,
      "##πλα": 3739,
      "κοστους": 3740,
      "μπα": 3741,
      "επενδυσης": 3742,
      "κριτηρια": 3743,
      "εμμανουηλ": 3744,
      "μολ": 3745,
      "δικτυων": 3746,
      "ευκαι": 3747,
      "λοιπων": 3748,
      "αιθουσα": 3749,
      "ενδιαφερον": 3750,
      "καθυ": 3751,
      "στελεχ": 3752,
      "αλλοδαπων": 3753,
      "εναντι": 3754,
      "ειδικες": 3755,
      "φθ": 3756,
      "##τωση": 3757,
      "ανθρωπ": 3758,
      "51": 3759,
      "σχολειο": 3760,
      "##ri": 3761,
      "52": 3762,
      "##μουν": 3763,
      "θελουμε": 3764,
      "πλοιου": 3765,
      "μονιμου": 3766,
      "γενει": 3767,
      "διαφορα": 3768,
      "πληροφοριων": 3769,
      "αδυνα": 3770,
      "πειθαρχ": 3771,
      "βαρυν": 3772,
      "καθυστε": 3773,
      "συνολικου": 3774,
      "παιρ": 3775,
      "παρακολουθη": 3776,
      "νομιμο": 3777,
      "##τεραιο": 3778,
      "διοικητη": 3779,
      "αποτελεσματα": 3780,
      "πρωτοδικ": 3781,
      "κτιριων": 3782,
      "πολιτη": 3783,
      "απριλιου": 3784,
      "νεου": 3785,
      "αλλους": 3786,
      "προτεραιο": 3787,
      "ιατρ": 3788,
      "υπαλληλο": 3789,
      "πελοποννησου": 3790,
      "##ta": 3791,
      "αποκατασταση": 3792,
      "κειμενες": 3793,
      "εκατομμυρια": 3794,
      "συνθηκη": 3795,
      "υπηρεσιακου": 3796,
      "αδια": 3797,
      "ιωαννινων": 3798,
      "νοεμβριου": 3799,
      "τας": 3800,
      "λαρισας": 3801,
      "##σσονται": 3802,
      "προσφυ": 3803,
      "αιτιο": 3804,
      "73": 3805,
      "##τακης": 3806,
      "διεκπεραι": 3807,
      "παραλλη": 3808,
      "αναγκαια": 3809,
      "επομενως": 3810,
      "##08": 3811,
      "ασφαλεια": 3812,
      "κυρωση": 3813,
      "##καθα": 3814,
      "##ληπ": 3815,
      "##λαιο": 3816,
      "1979": 3817,
      "##υμο": 3818,
      "υπογραφης": 3819,
      "χατζη": 3820,
      "ελαχισ": 3821,
      "107": 3822,
      "αλη": 3823,
      "3852": 3824,
      "πλευρα": 3825,
      "en": 3826,
      "καυ": 3827,
      "λειτουργει": 3828,
      "οδου": 3829,
      "παροντα": 3830,
      "64": 3831,
      "αξιολογησης": 3832,
      "##τσα": 3833,
      "##59": 3834,
      "τομ": 3835,
      "3838": 3836,
      "##πουν": 3837,
      "συγκεκριμενη": 3838,
      "##ερχο": 3839,
      "πιστωσεις": 3840,
      "πρακτικο": 3841,
      "γεωργια": 3842,
      "μελους": 3843,
      "προδια": 3844,
      "τετοια": 3845,
      "ιον": 3846,
      "παραγ": 3847,
      "πρωτα": 3848,
      "νεες": 3849,
      "διατη": 3850,
      "δευτε": 3851,
      "αντιμετωπ": 3852,
      "##ονο": 3853,
      "##σδηποτε": 3854,
      "ολοκληρωση": 3855,
      "αποθε": 3856,
      "##μηνο": 3857,
      "φεβρουαριου": 3858,
      "εο": 3859,
      "απαιτησεις": 3860,
      "##δομα": 3861,
      "ηλεκτρονικης": 3862,
      "ειπατε": 3863,
      "##συγ": 3864,
      "ατομ": 3865,
      "κτηματολογ": 3866,
      "οικονομια": 3867,
      "οροι": 3868,
      "ταυτοτητας": 3869,
      "βιβλια": 3870,
      "κενη": 3871,
      "υποχρεωσεων": 3872,
      "ενδεχο": 3873,
      "προηγουμενη": 3874,
      "ατομα": 3875,
      "σχεδιων": 3876,
      "ποι": 3877,
      "##λογρα": 3878,
      "απου": 3879,
      "καταργη": 3880,
      "##στικης": 3881,
      "τιποτα": 3882,
      "δαπανης": 3883,
      "εκπληρω": 3884,
      "οδηγη": 3885,
      "κτηνια": 3886,
      "λεμε": 3887,
      "βεν": 3888,
      "διακυβερνησης": 3889,
      "καλλιεργ": 3890,
      "λια": 3891,
      "##07": 3892,
      "μετε": 3893,
      "προισταμενο": 3894,
      "ex": 3895,
      "χιλιο": 3896,
      "ρυθμ": 3897,
      "εννοια": 3898,
      "συνημ": 3899,
      "διαταγμα": 3900,
      "##αρων": 3901,
      "δρομο": 3902,
      "##αισθη": 3903,
      "μετατα": 3904,
      "##ωμα": 3905,
      "λευ": 3906,
      "ακολουθα": 3907,
      "εκπροσωπος": 3908,
      "##ολογ": 3909,
      "##om": 3910,
      "αεροπο": 3911,
      "##κελ": 3912,
      "##σιω": 3913,
      "##δικη": 3914,
      "δουμε": 3915,
      "##σως": 3916,
      "##ρονομ": 3917,
      "χη": 3918,
      "κατευθυνση": 3919,
      "αισ": 3920,
      "1980": 3921,
      "γαλα": 3922,
      "πν": 3923,
      "δοθηκε": 3924,
      "##51": 3925,
      "νομοσχεδιου": 3926,
      "υπογραφη": 3927,
      "ανασυ": 3928,
      "επιστο": 3929,
      "##συγχρον": 3930,
      "αιτησεις": 3931,
      "##τιθεται": 3932,
      "ποσα": 3933,
      "ιν": 3934,
      "αχαιας": 3935,
      "εκτελεσης": 3936,
      "αποσπασ": 3937,
      "διενεργεια": 3938,
      "##μενει": 3939,
      "σκα": 3940,
      "##τσ": 3941,
      "στοχο": 3942,
      "γαλ": 3943,
      "παρατηρη": 3944,
      "##ομενα": 3945,
      "56": 3946,
      "χρηστου": 3947,
      "κανονες": 3948,
      "χαραλαμ": 3949,
      "εκτελεσ": 3950,
      "προβλεπει": 3951,
      "επικου": 3952,
      "θητεια": 3953,
      "δελτιου": 3954,
      "συμπληρωμα": 3955,
      "συγκροτηση": 3956,
      "ποιοτητας": 3957,
      "εκσυγχρον": 3958,
      "ελλη": 3959,
      "πειτε": 3960,
      "##ικονομ": 3961,
      "αλλου": 3962,
      "τεταρ": 3963,
      "στατισ": 3964,
      "σκε": 3965,
      "πρωην": 3966,
      "ενημερωσης": 3967,
      "εκκαθα": 3968,
      "τριτο": 3969,
      "δημοτικων": 3970,
      "μισθοδο": 3971,
      "##ρικες": 3972,
      "φαρμακ": 3973,
      "καθηκοντων": 3974,
      "##92": 3975,
      "νομικων": 3976,
      "σαφ": 3977,
      "διαφορων": 3978,
      "ηλικιας": 3979,
      "εκανε": 3980,
      "##στες": 3981,
      "δρασης": 3982,
      "##μπια": 3983,
      "2503": 3984,
      "##54": 3985,
      "αναπληρωτης": 3986,
      "μορφ": 3987,
      "μαγ": 3988,
      "##88": 3989,
      "par": 3990,
      "υπαρξει": 3991,
      "γερ": 3992,
      "117": 3993,
      "##φιας": 3994,
      "αντιγραφο": 3995,
      "δραστηριοτητων": 3996,
      "πρωτοβαθμιας": 3997,
      "ταξ": 3998,
      "φωτο": 3999,
      "1η": 4000,
      "εξακ": 4001,
      "πολιτικες": 4002,
      "ταυτοχρο": 4003,
      "τρε": 4004,
      "τεχνολογιας": 4005,
      "επιλογη": 4006,
      "συνολικα": 4007,
      "ελληνων": 4008,
      "οχηματων": 4009,
      "##γραφει": 4010,
      "υπουργικης": 4011,
      "##σπασ": 4012,
      "τιμων": 4013,
      "περιφερ": 4014,
      "θελει": 4015,
      "εβδομα": 4016,
      "ανταλλα": 4017,
      "ασυ": 4018,
      "θεσμ": 4019,
      "κακλαμανης": 4020,
      "ζωη": 4021,
      "αξια": 4022,
      "υπερωριακης": 4023,
      "μεθο": 4024,
      "πλοια": 4025,
      "πολλοι": 4026,
      "κυριου": 4027,
      "απαντη": 4028,
      "##διας": 4029,
      "##λοπουλος": 4030,
      "γυνα": 4031,
      "δικτυου": 4032,
      "##ονη": 4033,
      "300": 4034,
      "καλο": 4035,
      "διατηρηση": 4036,
      "τελ": 4037,
      "δυτικα": 4038,
      "αναστασιος": 4039,
      "κανω": 4040,
      "##46": 4041,
      "μοναδας": 4042,
      "##ξουμε": 4043,
      "δημοτικη": 4044,
      "εσοδα": 4045,
      "##φθουν": 4046,
      "##προστα": 4047,
      "1983": 4048,
      "##πτυχια": 4049,
      "σχολικη": 4050,
      "οποιους": 4051,
      "τεχνικου": 4052,
      "διασφαλ": 4053,
      "##τεθηκε": 4054,
      "ανηκουν": 4055,
      "ξανα": 4056,
      "βορ": 4057,
      "##λογιες": 4058,
      "πωλη": 4059,
      "πολιτικο": 4060,
      "εγκατασταση": 4061,
      "##82": 4062,
      "συνισ": 4063,
      "##τοιμα": 4064,
      "##ξουν": 4065,
      "υλικου": 4066,
      "επιτευ": 4067,
      "δομ": 4068,
      "##th": 4069,
      "ειδο": 4070,
      "##τητος": 4071,
      "κολ": 4072,
      "εγκαταστασεις": 4073,
      "παγκοσ": 4074,
      "##στρα": 4075,
      "sh": 4076,
      "συντηρησης": 4077,
      "αυγου": 4078,
      "επικρατειας": 4079,
      "ομαδα": 4080,
      "εταιρειες": 4081,
      "##τριας": 4082,
      "##97": 4083,
      "##ργαν": 4084,
      "σχο": 4085,
      "##ts": 4086,
      "##μορ": 4087,
      "##ερχονται": 4088,
      "νομαρχιακης": 4089,
      "παντα": 4090,
      "τομεις": 4091,
      "διευκολ": 4092,
      "ανταποκ": 4093,
      "ικα": 4094,
      "σχετικο": 4095,
      "ζητει": 4096,
      "##ενων": 4097,
      "μαυ": 4098,
      "##σσει": 4099,
      "ομαδας": 4100,
      "μοναδα": 4101,
      "82": 4102,
      "καθεστως": 4103,
      "μισθω": 4104,
      "παπαν": 4105,
      "τροπος": 4106,
      "οικονομικα": 4107,
      "3584": 4108,
      "στελεχωση": 4109,
      "εμπορευ": 4110,
      "βρυ": 4111,
      "##01": 4112,
      "παρελ": 4113,
      "κανονισ": 4114,
      "ενεργειες": 4115,
      "καβα": 4116,
      "αναζη": 4117,
      "δικαιολογητικων": 4118,
      "διπλω": 4119,
      "συνδρο": 4120,
      "διευκολυν": 4121,
      "##μιων": 4122,
      "##δικων": 4123,
      "πραγματικοτητα": 4124,
      "σφαλ": 4125,
      "επιβαρ": 4126,
      "71": 4127,
      "επωνυμο": 4128,
      "ανδρεας": 4129,
      "αλλαγη": 4130,
      "##ισμα": 4131,
      "καταλογ": 4132,
      "αικα": 4133,
      "υπηρετουν": 4134,
      "##τονται": 4135,
      "ξεκινη": 4136,
      "μεταγενεστερα": 4137,
      "εμποριου": 4138,
      "##αρης": 4139,
      "or": 4140,
      "χριστο": 4141,
      "##σις": 4142,
      "πρακτικων": 4143,
      "##93": 4144,
      "χρηματοδοτηση": 4145,
      "υδρευ": 4146,
      "##νος": 4147,
      "παραιτηση": 4148,
      "##ρινα": 4149,
      "τεσσερις": 4150,
      "ηπει": 4151,
      "τελικα": 4152,
      "ονο": 4153,
      "αμοιβη": 4154,
      "εφαρμοζεται": 4155,
      "συνεργασιας": 4156,
      "απευθυν": 4157,
      "επιλε": 4158,
      "##μονης": 4159,
      "τυπ": 4160,
      "ψηφοφο": 4161,
      "τροποποιηθηκαν": 4162,
      "περιλαμβανονται": 4163,
      "κοι": 4164,
      "αμεσως": 4165,
      "σχεδιασμου": 4166,
      "ελληνες": 4167,
      "##γματων": 4168,
      "προισταμενους": 4169,
      "καταγγελ": 4170,
      "γινουν": 4171,
      "στυ": 4172,
      "διορισ": 4173,
      "##νεται": 4174,
      "δασικης": 4175,
      "προφαν": 4176,
      "ερωτημα": 4177,
      "επιβαρυν": 4178,
      "##am": 4179,
      "αικατε": 4180,
      "επιφαν": 4181,
      "συγχρον": 4182,
      "##ζανης": 4183,
      "αποδεικνυ": 4184,
      "αναπο": 4185,
      "##42": 4186,
      "κοριν": 4187,
      "##ενας": 4188,
      "ωστο": 4189,
      "ωστοσο": 4190,
      "998": 4191,
      "περιοδου": 4192,
      "##μιες": 4193,
      "τηλεφων": 4194,
      "κατανομη": 4195,
      "εκτασεων": 4196,
      "τοποθετηση": 4197,
      "εφοδια": 4198,
      "διαρθρω": 4199,
      "καθιε": 4200,
      "μετανα": 4201,
      "ανανε": 4202,
      "διοικ": 4203,
      "βρα": 4204,
      "ακολουθως": 4205,
      "τοπογραφικο": 4206,
      "##γερ": 4207,
      "βορεια": 4208,
      "εγκρισης": 4209,
      "προγραμματισμου": 4210,
      "οποιοδηποτε": 4211,
      "##τροφης": 4212,
      "διαφανειας": 4213,
      "##98": 4214,
      "πληθυ": 4215,
      "υλοποιησης": 4216,
      "eur": 4217,
      "##δοτη": 4218,
      "μεταρρυθμισ": 4219,
      "τεχνικης": 4220,
      "σχετικης": 4221,
      "ολυμπια": 4222,
      "πρωτης": 4223,
      "πρυταν": 4224,
      "am": 4225,
      "τερασ": 4226,
      "εργαζομενους": 4227,
      "συνεται": 4228,
      "ζωης": 4229,
      "ανεξαρ": 4230,
      "εξωτερικου": 4231,
      "αρνη": 4232,
      "ανθρωπινων": 4233,
      "εμπ": 4234,
      "αλλαγης": 4235,
      "καμμια": 4236,
      "συναδελφε": 4237,
      "##ροσβε": 4238,
      "καταρτισης": 4239,
      "ταμεια": 4240,
      "αυτοδικαιη": 4241,
      "μητρο": 4242,
      "1987": 4243,
      "διοριζεται": 4244,
      "for": 4245,
      "##ag": 4246,
      "ορισμενες": 4247,
      "ποιος": 4248,
      "##λειται": 4249,
      "κορυ": 4250,
      "επικαιρη": 4251,
      "ανταγωνιστικοτητας": 4252,
      "##02": 4253,
      "##θιας": 4254,
      "λαο": 4255,
      "υπαλληλικης": 4256,
      "147": 4257,
      "##ριζουμε": 4258,
      "εγγραφης": 4259,
      "3299": 4260,
      "εγκαι": 4261,
      "1558": 4262,
      "ντη": 4263,
      "##πεν": 4264,
      "καταχω": 4265,
      "##συνη": 4266,
      "επιλυ": 4267,
      "υπουργειων": 4268,
      "διδασ": 4269,
      "αυτε": 4270,
      "οικονομικο": 4271,
      "οικογενεια": 4272,
      "ελενη": 4273,
      "περαιτερω": 4274,
      "αυτοτε": 4275,
      "κανενα": 4276,
      "##ψε": 4277,
      "ερευνα": 4278,
      "γραφεια": 4279,
      "μεταπτυχια": 4280,
      "οικισμου": 4281,
      "συστηματων": 4282,
      "μετακινη": 4283,
      "καλη": 4284,
      "εγκλη": 4285,
      "137": 4286,
      "δεδομενων": 4287,
      "εξοδων": 4288,
      "θεοδωρος": 4289,
      "εξηντα": 4290,
      "αλιευ": 4291,
      "διω": 4292,
      "##36": 4293,
      "καπ": 4294,
      "##ισει": 4295,
      "##τειου": 4296,
      "σταμα": 4297,
      "τεσσερα": 4298,
      "γερμαν": 4299,
      "επιτροπων": 4300,
      "αθηνας": 4301,
      "##ir": 4302,
      "περιεχομενα": 4303,
      "τηλεπ": 4304,
      "διαφορες": 4305,
      "νοτια": 4306,
      "εκδηλω": 4307,
      "##94": 4308,
      "μηνια": 4309,
      "##ειδικ": 4310,
      "##ταμε": 4311,
      "προγραμματισ": 4312,
      "##αυ": 4313,
      "αναγνωρισ": 4314,
      "οργανικων": 4315,
      "πληρη": 4316,
      "δωρε": 4317,
      "αβ": 4318,
      "##αινε": 4319,
      "##χειου": 4320,
      "αυτοκινητων": 4321,
      "συνεπεια": 4322,
      "λειτουργουν": 4323,
      "πανεπιστημιο": 4324,
      "μπου": 4325,
      "βαθμου": 4326,
      "##ρωνεται": 4327,
      "ελεγχει": 4328,
      "εγκρινουμε": 4329,
      "συντο": 4330,
      "##000": 4331,
      "προσπαθει": 4332,
      "##νεα": 4333,
      "##ξελ": 4334,
      "λαος": 4335,
      "##ομενης": 4336,
      "1982": 4337,
      "ερχεται": 4338,
      "μπορουσε": 4339,
      "οδηγιες": 4340,
      "##ion": 4341,
      "##ζουμε": 4342,
      "ακουσα": 4343,
      "##λακης": 4344,
      "χαμη": 4345,
      "un": 4346,
      "προιον": 4347,
      "62": 4348,
      "##ισταν": 4349,
      "##τιθενται": 4350,
      "συμβου": 4351,
      "γραπ": 4352,
      "ορισμενα": 4353,
      "##ψεων": 4354,
      "βυ": 4355,
      "εξεταση": 4356,
      "σχολικων": 4357,
      "εμπορικης": 4358,
      "ραδιο": 4359,
      "γλωσσας": 4360,
      "παρει": 4361,
      "γραμμη": 4362,
      "ειστε": 4363,
      "επιχορηγησης": 4364,
      "εξη": 4365,
      "217": 4366,
      "δανειων": 4367,
      "σημεια": 4368,
      "##στι": 4369,
      "γνωση": 4370,
      "χρηματα": 4371,
      "θερ": 4372,
      "εξωτερικο": 4373,
      "##κιδ": 4374,
      "προυποθεση": 4375,
      "##θι": 4376,
      "συγχων": 4377,
      "υγεια": 4378,
      "##διω": 4379,
      "γνωριζουμε": 4380,
      "λυκειου": 4381,
      "εξαι": 4382,
      "##ov": 4383,
      "3200": 4384,
      "οτα": 4385,
      "##ad": 4386,
      "αξιοποιηση": 4387,
      "##οδος": 4388,
      "πυροσβε": 4389,
      "χημ": 4390,
      "καε": 4391,
      "ισοτι": 4392,
      "ενισχυσης": 4393,
      "##ωθηκε": 4394,
      "επιλογης": 4395,
      "επεκταση": 4396,
      "δικαιωματος": 4397,
      "προμηθειων": 4398,
      "##ιναν": 4399,
      "##ευσης": 4400,
      "επιφυλα": 4401,
      "κατεχει": 4402,
      "συντελεσ": 4403,
      "συμμετοχης": 4404,
      "τηλεπικοινων": 4405,
      "##θης": 4406,
      "δικτυο": 4407,
      "154": 4408,
      "αναγκαιο": 4409,
      "προιοντος": 4410,
      "66": 4411,
      "πελα": 4412,
      "προισταμενη": 4413,
      "συζητη": 4414,
      "συνεν": 4415,
      "ασκησης": 4416,
      "##γος": 4417,
      "##νιας": 4418,
      "συμβολ": 4419,
      "φακελ": 4420,
      "σχολη": 4421,
      "δελ": 4422,
      "##γραφες": 4423,
      "αλλοδαπου": 4424,
      "εξαιρεση": 4425,
      "τουτου": 4426,
      "##ριθει": 4427,
      "ερε": 4428,
      "επιτο": 4429,
      "διαπραγματευ": 4430,
      "##τσης": 4431,
      "μητρωου": 4432,
      "δασικων": 4433,
      "στερεας": 4434,
      "θεωρειται": 4435,
      "προεκ": 4436,
      "σημερι": 4437,
      "υπευ": 4438,
      "κατασκευης": 4439,
      "δημοπρα": 4440,
      "μισθωσης": 4441,
      "επιβα": 4442,
      "τελωνεια": 4443,
      "ρυμοτομικου": 4444,
      "αποτελειται": 4445,
      "θεο": 4446,
      "εξειδικ": 4447,
      "προωθηση": 4448,
      "##σκα": 4449,
      "μαγνη": 4450,
      "##τσο": 4451,
      "απολογ": 4452,
      "κωδικας": 4453,
      "συμβαλλο": 4454,
      "εικον": 4455,
      "προσωποπα": 4456,
      "##στελ": 4457,
      "72": 4458,
      "κεντρα": 4459,
      "κοινου": 4460,
      "##all": 4461,
      "##μορφωσης": 4462,
      "ζωων": 4463,
      "εξελιξη": 4464,
      "ευχαριστουμε": 4465,
      "μετατασσεται": 4466,
      "ευαισθη": 4467,
      "μαζ": 4468,
      "ανατολικης": 4469,
      "##τουμενων": 4470,
      "##ωφε": 4471,
      "ζωνη": 4472,
      "εκδοσης": 4473,
      "απεναν": 4474,
      "αμα": 4475,
      "ευβο": 4476,
      "επεξεργασια": 4477,
      "##πουλο": 4478,
      "##τυχη": 4479,
      "μιλαμε": 4480,
      "##κρι": 4481,
      "σταδιο": 4482,
      "γει": 4483,
      "##ρχη": 4484,
      "αξιας": 4485,
      "κατοχου": 4486,
      "στηριξης": 4487,
      "πυρ": 4488,
      "δισεκατομμυρια": 4489,
      "##ac": 4490,
      "##τζης": 4491,
      "μονιμο": 4492,
      "αρχαιολογ": 4493,
      "εργατων": 4494,
      "##56": 4495,
      "αποδε": 4496,
      "μεγαλυτερη": 4497,
      "δασαρ": 4498,
      "ανατολικα": 4499,
      "##λευση": 4500,
      "##αινο": 4501,
      "2190": 4502,
      "αντιστοιχων": 4503,
      "##ειδη": 4504,
      "κοινοτικου": 4505,
      "##γασ": 4506,
      "εκπαιδευτικων": 4507,
      "##γκρο": 4508,
      "βρυξελ": 4509,
      "ιδρυμα": 4510,
      "γνωμοδο": 4511,
      "καταλη": 4512,
      "εγιναν": 4513,
      "πετρε": 4514,
      "##χωρησης": 4515,
      "##νται": 4516,
      "πορεια": 4517,
      "##τοποιηση": 4518,
      "##φης": 4519,
      "προμηθεια": 4520,
      "##04": 4521,
      "βουλευτων": 4522,
      "νομικα": 4523,
      "φυσεως": 4524,
      "φαρμακευ": 4525,
      "κατασκευασ": 4526,
      "##ig": 4527,
      "διοικητικη": 4528,
      "##δους": 4529,
      "κατοικει": 4530,
      "υπερβαινει": 4531,
      "λειτουργη": 4532,
      "ειδικ": 4533,
      "αποστρα": 4534,
      "νομων": 4535,
      "ιδιωτικο": 4536,
      "##φορικα": 4537,
      "##ψουν": 4538,
      "κρισης": 4539,
      "##χθουν": 4540,
      "σκοπι": 4541,
      "εννεα": 4542,
      "κατηγοριες": 4543,
      "επιπεδου": 4544,
      "προσεγγ": 4545,
      "com": 4546,
      "αργο": 4547,
      "επιστημων": 4548,
      "επιτροπες": 4549,
      "εξασφαλισ": 4550,
      "πινακας": 4551,
      "##παγγελ": 4552,
      "##θον": 4553,
      "##ζω": 4554,
      "επιβλε": 4555,
      "βημα": 4556,
      "ar": 4557,
      "##νουμε": 4558,
      "εντε": 4559,
      "##γδ": 4560,
      "χειρισ": 4561,
      "ενδει": 4562,
      "πειραι": 4563,
      "##μεων": 4564,
      "αιτημα": 4565,
      "##θεντων": 4566,
      "##σπον": 4567,
      "εκκλη": 4568,
      "##στευ": 4569,
      "απεναντι": 4570,
      "εξακολου": 4571,
      "νικη": 4572,
      "##ενε": 4573,
      "εξεδ": 4574,
      "αποχε": 4575,
      "ευκαιρια": 4576,
      "συγκεντρωση": 4577,
      "υποψηφιων": 4578,
      "σχετι": 4579,
      "αγγ": 4580,
      "επομενη": 4581,
      "υδρο": 4582,
      "γη": 4583,
      "βλαστη": 4584,
      "πουμε": 4585,
      "συνολικο": 4586,
      "##σκο": 4587,
      "ακαδη": 4588,
      "εισαγωγης": 4589,
      "αρμοδιας": 4590,
      "##χωδε": 4591,
      "##κια": 4592,
      "καβαλας": 4593,
      "στεφαν": 4594,
      "χανιων": 4595,
      "ωφε": 4596,
      "##λογικη": 4597,
      "reg": 4598,
      "περιουσιας": 4599,
      "ενημερωνει": 4600,
      "##σθε": 4601,
      "κοινωνικο": 4602,
      "λογαριασ": 4603,
      "αυγουστου": 4604,
      "ανασυγκρο": 4605,
      "πειραιως": 4606,
      "##ασεις": 4607,
      "##τροπη": 4608,
      "ασε": 4609,
      "ηπειρου": 4610,
      "διατηρητε": 4611,
      "ανηλ": 4612,
      "1984": 4613,
      "δινει": 4614,
      "κλιμακα": 4615,
      "##θαλ": 4616,
      "μελετης": 4617,
      "ηνω": 4618,
      "##θησαν": 4619,
      "σταθμου": 4620,
      "εκατομμυ": 4621,
      "αγαπη": 4622,
      "σερρων": 4623,
      "ολομε": 4624,
      "αρκε": 4625,
      "τραπεζας": 4626,
      "καταβλη": 4627,
      "ενοτητα": 4628,
      "προσκομ": 4629,
      "πλαισιου": 4630,
      "αλλοι": 4631,
      "ξερω": 4632,
      "πλην": 4633,
      "λοιπες": 4634,
      "κεφαλαια": 4635,
      "be": 4636,
      "##ινου": 4637,
      "μεσση": 4638,
      "πληρωμης": 4639,
      "λογαριασμο": 4640,
      "τεχνικη": 4641,
      "υφυπουργο": 4642,
      "δημοσιευσης": 4643,
      "γραμματεων": 4644,
      "##τασης": 4645,
      "ισως": 4646,
      "61": 4647,
      "##ττ": 4648,
      "ιπ": 4649,
      "αποστολη": 4650,
      "##qu": 4651,
      "##ποιουν": 4652,
      "δωσει": 4653,
      "πολης": 4654,
      "γνωστικο": 4655,
      "κτιρια": 4656,
      "αποφασεως": 4657,
      "επιτα": 4658,
      "φυλ": 4659,
      "υπηρχε": 4660,
      "υπαγονται": 4661,
      "παρακολουθησης": 4662,
      "##tin": 4663,
      "##αιες": 4664,
      "ευβοιας": 4665,
      "θανα": 4666,
      "150": 4667,
      "ξη": 4668,
      "##φισβη": 4669,
      "##θηκη": 4670,
      "ερχ": 4671,
      "##φυλ": 4672,
      "λαου": 4673,
      "τροπολογιες": 4674,
      "φυσικου": 4675,
      "##im": 4676,
      "εξοδα": 4677,
      "απαιτουνται": 4678,
      "κτιριου": 4679,
      "επιπτω": 4680,
      "ληξη": 4681,
      "ορισμενων": 4682,
      "σκοπος": 4683,
      "εθε": 4684,
      "υπαι": 4685,
      "βιομηχανιας": 4686,
      "ετησια": 4687,
      "οριζει": 4688,
      "σημαντικη": 4689,
      "σεβασ": 4690,
      "συνολικη": 4691,
      "προηγουμενως": 4692,
      "καποιες": 4693,
      "πορ": 4694,
      "δανει": 4695,
      "σημασια": 4696,
      "μνημον": 4697,
      "##ενο": 4698,
      "επαγγελματικης": 4699,
      "τουτο": 4700,
      "διεθνους": 4701,
      "υδρευσης": 4702,
      "οικειου": 4703,
      "αμεση": 4704,
      "##μπα": 4705,
      "γυμνασιου": 4706,
      "κληρονομ": 4707,
      "##λαβε": 4708,
      "τρικ": 4709,
      "απασχολ": 4710,
      "ειδων": 4711,
      "θεματος": 4712,
      "1977": 4713,
      "μελετες": 4714,
      "##ate": 4715,
      "παει": 4716,
      "ιερα": 4717,
      "δευτερον": 4718,
      "κατωτερω": 4719,
      "vi": 4720,
      "πιε": 4721,
      "περιεχομενο": 4722,
      "προσο": 4723,
      "πλοιοκτη": 4724,
      "##φιση": 4725,
      "μειω": 4726,
      "προσφα": 4727,
      "προεδρευουσα": 4728,
      "ανερχεται": 4729,
      "εξαρ": 4730,
      "##ιωτης": 4731,
      "εταιρειων": 4732,
      "βρυξελλες": 4733,
      "παραρτηματος": 4734,
      "υπευθυνη": 4735,
      "σπουδασ": 4736,
      "αντιπροεδρος": 4737,
      "al": 4738,
      "εκλογες": 4739,
      "αγιου": 4740,
      "αληθεια": 4741,
      "##41": 4742,
      "πιθαν": 4743,
      "εισφορες": 4744,
      "ιατρικης": 4745,
      "##ετια": 4746,
      "απλως": 4747,
      "ιδρυματων": 4748,
      "τομεας": 4749,
      "αιτω": 4750,
      "αναπη": 4751,
      "##βαλε": 4752,
      "υγι": 4753,
      "ευρωπης": 4754,
      "##σιμα": 4755,
      "##ιτη": 4756,
      "επιδιω": 4757,
      "αναβα": 4758,
      "σιδη": 4759,
      "υππο": 4760,
      "##ξα": 4761,
      "πρ": 4762,
      "τουρκ": 4763,
      "υποθεση": 4764,
      "σωτη": 4765,
      "##λιπ": 4766,
      "οργανισμων": 4767,
      "##σιμες": 4768,
      "εμπειρια": 4769,
      "γονεων": 4770,
      "διασφαλισ": 4771,
      "υποδει": 4772,
      "##θετηση": 4773,
      "υφυπουργων": 4774,
      "##πολης": 4775,
      "αρχων": 4776,
      "εκκ": 4777,
      "συστηματα": 4778,
      "ταυτοχρονα": 4779,
      "μηχανηματων": 4780,
      "διαταγματος": 4781,
      "##θηκης": 4782,
      "προβληματων": 4783,
      "διαβι": 4784,
      "ερευν": 4785,
      "συζ": 4786,
      "στρεμματων": 4787,
      "ρολο": 4788,
      "εκπαιδευτικου": 4789,
      "πασης": 4790,
      "ειδη": 4791,
      "αρχειου": 4792,
      "πνευμα": 4793,
      "##ιζε": 4794,
      "εφαρμογων": 4795,
      "κοσμο": 4796,
      "##δισ": 4797,
      "διευθυνσεων": 4798,
      "βρεφ": 4799,
      "##δω": 4800,
      "χορηγειται": 4801,
      "as": 4802,
      "μεθ": 4803,
      "μεταλ": 4804,
      "##αλων": 4805,
      "αυτεπαγγελ": 4806,
      "θεωρω": 4807,
      "##μωντας": 4808,
      "γραφειων": 4809,
      "φαινο": 4810,
      "περιοχων": 4811,
      "ενταλ": 4812,
      "αριθμου": 4813,
      "ποσοσ": 4814,
      "##and": 4815,
      "καταστρα": 4816,
      "μερα": 4817,
      "##op": 4818,
      "δυσκο": 4819,
      "εποπτεια": 4820,
      "τραπεζες": 4821,
      "εξεδωσε": 4822,
      "410": 4823,
      "διεκπεραιωση": 4824,
      "αποφασιζει": 4825,
      "πεζικου": 4826,
      "##ιτων": 4827,
      "##τηκαν": 4828,
      "θαλασ": 4829,
      "πληροφορια": 4830,
      "εεττ": 4831,
      "##ρισεις": 4832,
      "αποβλη": 4833,
      "μεγε": 4834,
      "αναδο": 4835,
      "πιστωσεων": 4836,
      "προκατα": 4837,
      "##γιου": 4838,
      "ιστορια": 4839,
      "σημειων": 4840,
      "##85": 4841,
      "110": 4842,
      "καποιος": 4843,
      "##στικου": 4844,
      "τεκμη": 4845,
      "ασεπ": 4846,
      "ρου": 4847,
      "##κριν": 4848,
      "οποτε": 4849,
      "αγωγης": 4850,
      "ενσω": 4851,
      "ιδε": 4852,
      "##ποιουμε": 4853,
      "##ειτε": 4854,
      "152": 4855,
      "##ρησεις": 4856,
      "χορηγησης": 4857,
      "ιδρυματα": 4858,
      "εβδομη": 4859,
      "δεη": 4860,
      "καρδι": 4861,
      "##θεισα": 4862,
      "##ρεου": 4863,
      "ανηκει": 4864,
      "συνημμενο": 4865,
      "προεδρικο": 4866,
      "διαλυ": 4867,
      "##σους": 4868,
      "la": 4869,
      "παραστα": 4870,
      "##πιπ": 4871,
      "τερ": 4872,
      "##ξου": 4873,
      "iii": 4874,
      "δημων": 4875,
      "ακρο": 4876,
      "στυλια": 4877,
      "##tic": 4878,
      "##σσουμε": 4879,
      "αδειες": 4880,
      "##καρ": 4881,
      "ενταξη": 4882,
      "πρασιν": 4883,
      "##τινα": 4884,
      "ηλιας": 4885,
      "##ρκω": 4886,
      "αυξαν": 4887,
      "κτηνο": 4888,
      "##ub": 4889,
      "διεθ": 4890,
      "παπαδο": 4891,
      "φερει": 4892,
      "τριτη": 4893,
      "σκοπους": 4894,
      "##φορ": 4895,
      "προμηθευ": 4896,
      "πυρκα": 4897,
      "χαραλαμπος": 4898,
      "κερκυ": 4899,
      "παραλληλα": 4900,
      "γεωπον": 4901,
      "##ομενου": 4902,
      "εκπροσωπο": 4903,
      "κεπ": 4904,
      "διορισμος": 4905,
      "##ξεν": 4906,
      "προσληψη": 4907,
      "κομματα": 4908,
      "##ουται": 4909,
      "λαβει": 4910,
      "ηλεκτρονικων": 4911,
      "##72": 4912,
      "ακολουθει": 4913,
      "μπορω": 4914,
      "no": 4915,
      "δικο": 4916,
      "##89": 4917,
      "καταπολε": 4918,
      "λαμπ": 4919,
      "##ay": 4920,
      "2081": 4921,
      "παραγρ": 4922,
      "##ανατο": 4923,
      "μεγισ": 4924,
      "μεθοδο": 4925,
      "ξαν": 4926,
      "ομαδες": 4927,
      "εγκαταστασης": 4928,
      "τει": 4929,
      "προσβαση": 4930,
      "εποπτευ": 4931,
      "επιθυ": 4932,
      "is": 4933,
      "βι": 4934,
      "θερα": 4935,
      "εκμεταλλευση": 4936,
      "δραχμες": 4937,
      "επενδυσεις": 4938,
      "στηριξη": 4939,
      "ομοφων": 4940,
      "ανθρωποι": 4941,
      "συνταξιοδο": 4942,
      "γεωργικων": 4943,
      "αλιειας": 4944,
      "ατομων": 4945,
      "##γδοντα": 4946,
      "νοσοκο": 4947,
      "πλοιων": 4948,
      "διαβα": 4949,
      "ογδοντα": 4950,
      "οποιον": 4951,
      "εγκρινεται": 4952,
      "##πεδα": 4953,
      "##em": 4954,
      "##λιση": 4955,
      "ανταγωνισμου": 4956,
      "κλιν": 4957,
      "πυρο": 4958,
      "προτι": 4959,
      "μονον": 4960,
      "σοβαρο": 4961,
      "σκυ": 4962,
      "##σκε": 4963,
      "παρασκευη": 4964,
      "βιου": 4965,
      "συμφεροντα": 4966,
      "εγκριθηκε": 4967,
      "αναποσπασ": 4968,
      "210": 4969,
      "τελειων": 4970,
      "υπαγωγη": 4971,
      "φορεας": 4972,
      "σταυρος": 4973,
      "φλω": 4974,
      "λογικη": 4975,
      "εκτιμωντας": 4976,
      "επιμερους": 4977,
      "##ran": 4978,
      "επαναλαμβαν": 4979,
      "##ess": 4980,
      "οικοπεδο": 4981,
      "##μεσα": 4982,
      "διορθωσεις": 4983,
      "πηγ": 4984,
      "##ιδου": 4985,
      "##76": 4986,
      "προθεσμιας": 4987,
      "λογος": 4988,
      "αικατερινη": 4989,
      "κοινοτικων": 4990,
      "αναδασωτεα": 4991,
      "σκοπιμο": 4992,
      "χερ": 4993,
      "μαγνησιας": 4994,
      "εμπισ": 4995,
      "αει": 4996,
      "le": 4997,
      "αξον": 4998,
      "πισω": 4999,
      "πρωτοκολλου": 5000,
      "τιμης": 5001,
      "διπλωμα": 5002,
      "##λογου": 5003,
      "χθες": 5004,
      "##ιδα": 5005,
      "##ψηφισ": 5006,
      "αναθε": 5007,
      "πρωτου": 5008,
      "ομιλιας": 5009,
      "##φου": 5010,
      "οργανισμους": 5011,
      "##πιον": 5012,
      "##λιω": 5013,
      "##um": 5014,
      "πινακες": 5015,
      "νικ": 5016,
      "συνολου": 5017,
      "αδα": 5018,
      "##κιου": 5019,
      "συντελε": 5020,
      "##γαλ": 5021,
      "##ληψ": 5022,
      "οδηγων": 5023,
      "ναυτικου": 5024,
      "εξαμηνο": 5025,
      "φυσικη": 5026,
      "##μορφων": 5027,
      "##λογηση": 5028,
      "χρηματοδοτησης": 5029,
      "##μελους": 5030,
      "##ia": 5031,
      "εγγραφη": 5032,
      "μηχανικου": 5033,
      "υποβαλλονται": 5034,
      "προαναφερ": 5035,
      "αρμοδιου": 5036,
      "ειδος": 5037,
      "ερωταται": 5038,
      "καλυφθει": 5039,
      "ομοιο": 5040,
      "##ματικα": 5041,
      "##θιου": 5042,
      "επισημη": 5043,
      "κοινωνικου": 5044,
      "##ρειτε": 5045,
      "##ιδη": 5046,
      "δραστηριοτητα": 5047,
      "280": 5048,
      "επαρχ": 5049,
      "σταθερο": 5050,
      "κομματος": 5051,
      "κυκλοφορια": 5052,
      "παπ": 5053,
      "##μνη": 5054,
      "συμβα": 5055,
      "μαθητες": 5056,
      "μεσσηνιας": 5057,
      "##ματας": 5058,
      "επιβολη": 5059,
      "προσδιορισ": 5060,
      "δημοσιες": 5061,
      "μερες": 5062,
      "ανωτατο": 5063,
      "αναφε": 5064,
      "σχεσεις": 5065,
      "δεκαπεν": 5066,
      "##ιους": 5067,
      "αντιστοιχες": 5068,
      "##θηκων": 5069,
      "##τριων": 5070,
      "κωδικος": 5071,
      "εξυπηρετηση": 5072,
      "οργανικες": 5073,
      "οριζομενα": 5074,
      "επιτρεψ": 5075,
      "##οινων": 5076,
      "κανατε": 5077,
      "λεσ": 5078,
      "ηλια": 5079,
      "περισσοτερα": 5080,
      "##λακη": 5081,
      "3284": 5082,
      "κεντρων": 5083,
      "αναποσπαστο": 5084,
      "εστω": 5085,
      "αιτησεων": 5086,
      "αναφορας": 5087,
      "δοθει": 5088,
      "προετοιμα": 5089,
      "παραλαβη": 5090,
      "υγειονομικης": 5091,
      "γνωριζετε": 5092,
      "απολυτως": 5093,
      "ελεγα": 5094,
      "αγορες": 5095,
      "οριογραμ": 5096,
      "πληρως": 5097,
      "εργαστηρια": 5098,
      "συγκοινων": 5099,
      "συνεταιρισ": 5100,
      "υιο": 5101,
      "αριστοτε": 5102,
      "ανοικ": 5103,
      "παρεκκ": 5104,
      "προστιθεται": 5105,
      "τροποποιησης": 5106,
      "ξεκα": 5107,
      "ιδιοκτησιας": 5108,
      "##στικων": 5109,
      "παμε": 5110,
      "τιτλων": 5111,
      "νος": 5112,
      "δωδεκα": 5113,
      "τετοιο": 5114,
      "εξοφ": 5115,
      "μολις": 5116,
      "ομοσπον": 5117,
      "υγειονομικου": 5118,
      "ελεγχων": 5119,
      "εβδομηντα": 5120,
      "δυνατη": 5121,
      "ασκει": 5122,
      "##79": 5123,
      "##ιστανται": 5124,
      "οδων": 5125,
      "προσβασης": 5126,
      "διοικητης": 5127,
      "αλληλογρα": 5128,
      "επηρε": 5129,
      "καταλληλο": 5130,
      "##περασ": 5131,
      "##ers": 5132,
      "σοφια": 5133,
      "ορισμενου": 5134,
      "χαρακτηριστικα": 5135,
      "κοζανης": 5136,
      "καλυτερη": 5137,
      "##ελλην": 5138,
      "μπορειτε": 5139,
      "##ληψης": 5140,
      "ιδιας": 5141,
      "αννα": 5142,
      "προφανως": 5143,
      "φυσικο": 5144,
      "4009": 5145,
      "ψα": 5146,
      "τζ": 5147,
      "αποκλειστικα": 5148,
      "ενιαιο": 5149,
      "ελλειμμα": 5150,
      "συγκεκριμενες": 5151,
      "μονιμη": 5152,
      "σχη": 5153,
      "διεθνη": 5154,
      "##86": 5155,
      "εισοδημα": 5156,
      "τελευταιο": 5157,
      "διαρκειας": 5158,
      "##ικι": 5159,
      "##ρχου": 5160,
      "οργανο": 5161,
      "πρωθυπουργος": 5162,
      "##τεων": 5163,
      "159": 5164,
      "κλαδων": 5165,
      "επιβεβ": 5166,
      "##τσου": 5167,
      "##ανο": 5168,
      "συναν": 5169,
      "##θεντα": 5170,
      "νοσοκομεια": 5171,
      "υποκ": 5172,
      "θεσπ": 5173,
      "##θετη": 5174,
      "πτυχιο": 5175,
      "εγκυκλιο": 5176,
      "##pp": 5177,
      "αναγνωριση": 5178,
      "ελπ": 5179,
      "600": 5180,
      "μεγαλες": 5181,
      "οπω": 5182,
      "πρωτον": 5183,
      "εκτασεις": 5184,
      "##ρρο": 5185,
      "##εστε": 5186,
      "ενωπιον": 5187,
      "ε΄": 5188,
      "προβει": 5189,
      "συνταξιου": 5190,
      "##τακη": 5191,
      "αναφορικα": 5192,
      "υπερωριακη": 5193,
      "##ρακη": 5194,
      "επιχορηγηση": 5195,
      "νω": 5196,
      "εκκρε": 5197,
      "βρεφονη": 5198,
      "προτασεων": 5199,
      "φιλιπ": 5200,
      "οσοι": 5201,
      "φροντιζει": 5202,
      "##φερουν": 5203,
      "δεδομενα": 5204,
      "ληξεως": 5205,
      "ανθ": 5206,
      "1ο": 5207,
      "##φαι": 5208,
      "προεδριας": 5209,
      "αναστο": 5210,
      "αποχετευσης": 5211,
      "συναδελφους": 5212,
      "συμπλη": 5213,
      "αγροτες": 5214,
      "θεσσαλονικη": 5215,
      "##ρυνση": 5216,
      "δασος": 5217,
      "##μοκρα": 5218,
      "τριτων": 5219,
      "##ut": 5220,
      "##οικονομ": 5221,
      "##δουν": 5222,
      "σχεσεων": 5223,
      "βιω": 5224,
      "##53": 5225,
      "##κω": 5226,
      "##ισης": 5227,
      "##μονη": 5228,
      "σταυρου": 5229,
      "1970": 5230,
      "##ab": 5231,
      "αντιστοιχη": 5232,
      "ξεκαθα": 5233,
      "##πτικη": 5234,
      "φροντιδα": 5235,
      "απογ": 5236,
      "ανεπ": 5237,
      "ιδρυσης": 5238,
      "αντικειμεν": 5239,
      "##τερος": 5240,
      "χρησιμοποιουνται": 5241,
      "εκλε": 5242,
      "υπαρξη": 5243,
      "ανακληση": 5244,
      "τηλεο": 5245,
      "υλικο": 5246,
      "λαθος": 5247,
      "##στης": 5248,
      "ολ": 5249,
      "##μιο": 5250,
      "συνεργαζεται": 5251,
      "νου": 5252,
      "αργυ": 5253,
      "αμφισβη": 5254,
      "εκθεσης": 5255,
      "ανακαλ": 5256,
      "απαλλοτριωση": 5257,
      "κτισ": 5258,
      "4024": 5259,
      "ac": 5260,
      "συντελεστη": 5261,
      "βαθμιδα": 5262,
      "βαθμιδας": 5263,
      "101": 5264,
      "περιφ": 5265,
      "προστεθηκε": 5266,
      "##λουνται": 5267,
      "κοινωφε": 5268,
      "##υλ": 5269,
      "υπευθυνος": 5270,
      "σιδηρο": 5271,
      "βαρυνει": 5272,
      "λεπτομερει": 5273,
      "εναλλα": 5274,
      "χρηματισ": 5275,
      "παιδιων": 5276,
      "παρουσης": 5277,
      "εκλογη": 5278,
      "##πουμε": 5279,
      "επιβαλλεται": 5280,
      "ανακ": 5281,
      "συναδελφος": 5282,
      "μεγαλυτερο": 5283,
      "1981": 5284,
      "μπροστα": 5285,
      "##λαβει": 5286,
      "κλιμακιο": 5287,
      "παρεμβαση": 5288,
      "διορθωση": 5289,
      "##μπο": 5290,
      "ταξη": 5291,
      "διευκριν": 5292,
      "αθην": 5293,
      "προτεινο": 5294,
      "σγου": 5295,
      "προσδιοριζεται": 5296,
      "ευθυνης": 5297,
      "##τωντας": 5298,
      "114": 5299,
      "##στιτου": 5300,
      "##od": 5301,
      "##st": 5302,
      "πλου": 5303,
      "##χαλ": 5304,
      "ακινητα": 5305,
      "250": 5306,
      "πασ": 5307,
      "##γακης": 5308,
      "οφε": 5309,
      "ec": 5310,
      "##ρευει": 5311,
      "ποροι": 5312,
      "##ωσω": 5313,
      "εισοδηματος": 5314,
      "δυναμει": 5315,
      "##νετε": 5316,
      "παλαιο": 5317,
      "κεντρικη": 5318,
      "ινστιτου": 5319,
      "συνθεση": 5320,
      "απαραιτητα": 5321,
      "εργαζομενοι": 5322,
      "ωρων": 5323,
      "οικονομικες": 5324,
      "σωστη": 5325,
      "καθιερωση": 5326,
      "περιπτωσει": 5327,
      "κανονων": 5328,
      "διεθνεις": 5329,
      "ανασυγκροτησης": 5330,
      "##ζετε": 5331,
      "ναυπ": 5332,
      "##96": 5333,
      "στοχους": 5334,
      "εκδοθει": 5335,
      "αλεξανδρος": 5336,
      "επιστολη": 5337,
      "πρωτοβουλια": 5338,
      "##πλη": 5339,
      "πορους": 5340,
      "##τρας": 5341,
      "επιτρο": 5342,
      "αναλυση": 5343,
      "επιτελους": 5344,
      "ανθρωπους": 5345,
      "παρελθον": 5346,
      "##δαγωγ": 5347,
      "ανακοινωση": 5348,
      "διαφων": 5349,
      "##θρο": 5350,
      "χρω": 5351,
      "st": 5352,
      "πληρωμη": 5353,
      "εθνικων": 5354,
      "##λιδης": 5355,
      "##oc": 5356,
      "υποψηφιο": 5357,
      "γεγονο": 5358,
      "##γραφου": 5359,
      "πια": 5360,
      "##στασεις": 5361,
      "αλλαγες": 5362,
      "##α΄": 5363,
      "αυριο": 5364,
      "inter": 5365,
      "##υγ": 5366,
      "κρατικο": 5367,
      "γαλακ": 5368,
      "συναινε": 5369,
      "ερωτησεις": 5370,
      "##τειο": 5371,
      "πεμπ": 5372,
      "πτυχιου": 5373,
      "επικοινωνιας": 5374,
      "γεωργιο": 5375,
      "##ρατε": 5376,
      "κατατεθει": 5377,
      "##πως": 5378,
      "καθημερι": 5379,
      "##σιμη": 5380,
      "##κοσια": 5381,
      "##υρωση": 5382,
      "##ινα": 5383,
      "υποχρεουται": 5384,
      "παλαι": 5385,
      "##φραγ": 5386,
      "νομισμα": 5387,
      "συστασης": 5388,
      "##οντες": 5389,
      "ζωνης": 5390,
      "υποβαλουν": 5391,
      "αναδια": 5392,
      "##ποιηθει": 5393,
      "απουσια": 5394,
      "##δικου": 5395,
      "πατρωνυμο": 5396,
      "νομους": 5397,
      "διοικητικες": 5398,
      "##τωσης": 5399,
      "συνεδριασης": 5400,
      "αντικατασταση": 5401,
      "αγροτικη": 5402,
      "##αντα": 5403,
      "εναρμον": 5404,
      "σχεδιασμο": 5405,
      "λενε": 5406,
      "θεσμο": 5407,
      "σχολεια": 5408,
      "παραλαβης": 5409,
      "προκηρυξης": 5410,
      "##ριζουν": 5411,
      "διακινη": 5412,
      "πρωτοδικειου": 5413,
      "δασαρχειου": 5414,
      "ακινητου": 5415,
      "##μορφω": 5416,
      "λιμενικου": 5417,
      "εκμεταλλευσης": 5418,
      "περιμεν": 5419,
      "αντιπολιτευση": 5420,
      "##νι": 5421,
      "επισκευη": 5422,
      "δυναμεων": 5423,
      "σημερινη": 5424,
      "##ρωνονται": 5425,
      "εδρας": 5426,
      "1α": 5427,
      "σαβ": 5428,
      "μετοχων": 5429,
      "στοχος": 5430,
      "##κις": 5431,
      "απω": 5432,
      "γλωσσα": 5433,
      "##ρως": 5434,
      "καταβαλλεται": 5435,
      "υφυπουργους": 5436,
      "ημερησια": 5437,
      "υποβαλλει": 5438,
      "κηρυσσουμε": 5439,
      "κατοικιας": 5440,
      "επαγγελματος": 5441,
      "λαμβανει": 5442,
      "θεμε": 5443,
      "αναθεσης": 5444,
      "δανεια": 5445,
      "δραση": 5446,
      "ηγε": 5447,
      "##πδ": 5448,
      "αμοιβης": 5449,
      "υποβαλλεται": 5450,
      "βλαβ": 5451,
      "κρυ": 5452,
      "τρικαλων": 5453,
      "δειχν": 5454,
      "παρατηρησεις": 5455,
      "τσε": 5456,
      "καρδιτσας": 5457,
      "ψυχο": 5458,
      "δουλεια": 5459,
      "αγγελ": 5460,
      "επιλεξ": 5461,
      "ψηφιση": 5462,
      "οριστε": 5463,
      "##ιστικο": 5464,
      "αντ": 5465,
      "βασιλικη": 5466,
      "##ρινες": 5467,
      "προκλη": 5468,
      "##στηκε": 5469,
      "δραστηριοτητας": 5470,
      "ητοι": 5471,
      "αντιστοιχουν": 5472,
      "δεικ": 5473,
      "##νοι": 5474,
      "##σσαρων": 5475,
      "υπηρξε": 5476,
      "##φω": 5477,
      "καποιο": 5478,
      "δεκαπεντε": 5479,
      "διορθω": 5480,
      "παραβια": 5481,
      "προυπολογισμος": 5482,
      "προισταμενης": 5483,
      "απαγορευεται": 5484,
      "##κοπουλος": 5485,
      "##λοπουλου": 5486,
      "λαμβανονται": 5487,
      "ερμην": 5488,
      "παραταση": 5489,
      "##τοπουλος": 5490,
      "εμας": 5491,
      "ανεγερ": 5492,
      "υπηρετει": 5493,
      "παιδαγωγ": 5494,
      "τακτικη": 5495,
      "μαθησης": 5496,
      "σημαντικα": 5497,
      "##οπουλος": 5498,
      "επισημαν": 5499,
      "υγιει": 5500,
      "παγ": 5501,
      "##τροφων": 5502,
      "περισσοτερες": 5503,
      "ελαχ": 5504,
      "περιθω": 5505,
      "δεπ": 5506,
      "μεταβολ": 5507,
      "ανακα": 5508,
      "αναρ": 5509,
      "βιβλιων": 5510,
      "νησιω": 5511,
      "αποσυ": 5512,
      "ανεξαρτητα": 5513,
      "νηπιαγωγειου": 5514,
      "##τερους": 5515,
      "αποψεις": 5516,
      "εγκεκριμενου": 5517,
      "τροποποιειται": 5518,
      "κατοικια": 5519,
      "τροποποιησεις": 5520,
      "εκεινο": 5521,
      "εξαγωγη": 5522,
      "υποθεσεις": 5523,
      "130": 5524,
      "καθαρισ": 5525,
      "##περα": 5526,
      "φτω": 5527,
      "σχολειων": 5528,
      "προωθη": 5529,
      "καταστασεις": 5530,
      "μακρο": 5531,
      "ταχυδρομ": 5532,
      "επαρκ": 5533,
      "##μαχ": 5534,
      "βοηθεια": 5535,
      "##βαθμια": 5536,
      "ειδοποιηση": 5537,
      "σκου": 5538,
      "##ετη": 5539,
      "ag": 5540,
      "ηλειας": 5541,
      "κτιριο": 5542,
      "δικαστικων": 5543,
      "συνεχη": 5544,
      "διαθετει": 5545,
      "αγορων": 5546,
      "ενσωμα": 5547,
      "ψηφοφορια": 5548,
      "on": 5549,
      "σπι": 5550,
      "κατσα": 5551,
      "##μησης": 5552,
      "##ρωνουν": 5553,
      "φυσικης": 5554,
      "ποιοτητα": 5555,
      "προισταμενων": 5556,
      "σχετιζονται": 5557,
      "##ιστικη": 5558,
      "καθεστω": 5559,
      "αντιπολιτευσης": 5560,
      "##βος": 5561,
      "σουρ": 5562,
      "αντιπροσωπευ": 5563,
      "πολιτικου": 5564,
      "επιθεωρη": 5565,
      "800": 5566,
      "παπανδ": 5567,
      "##iv": 5568,
      "ηρ": 5569,
      "προκα": 5570,
      "##τιδας": 5571,
      "οφειλει": 5572,
      "##θαρ": 5573,
      "##ρχης": 5574,
      "μαθημα": 5575,
      "iv": 5576,
      "συντασσει": 5577,
      "βελ": 5578,
      "φακε": 5579,
      "αποστελ": 5580,
      "ιδιοκτησια": 5581,
      "θεα": 5582,
      "σφα": 5583,
      "δειτε": 5584,
      "##λογος": 5585,
      "συχ": 5586,
      "παπανδρεου": 5587,
      "εξυπηρετησης": 5588,
      "δυνατοτητες": 5589,
      "ενδεχομενως": 5590,
      "χαι": 5591,
      "##μς": 5592,
      "περιθαλ": 5593,
      "οα": 5594,
      "##τανη": 5595,
      "πιστωση": 5596,
      "##95": 5597,
      "##υμα": 5598,
      "περιφερειες": 5599,
      "εναρξης": 5600,
      "ξενοδο": 5601,
      "προδιαγραφες": 5602,
      "διαβιβασ": 5603,
      "δραχμων": 5604,
      "πραγματικη": 5605,
      "ενοπ": 5606,
      "επομενα": 5607,
      "υπερασ": 5608,
      "καλλικ": 5609,
      "υποδομης": 5610,
      "ανησυ": 5611,
      "##ενος": 5612,
      "140": 5613,
      "δανειο": 5614,
      "ειχατε": 5615,
      "αντωνιου": 5616,
      "απογευμα": 5617,
      "##υχ": 5618,
      "##ενηντα": 5619,
      "##τυπαει": 5620,
      "regul": 5621,
      "##γιαννη": 5622,
      "πληρωμων": 5623,
      "αναδει": 5624,
      "πατρι": 5625,
      "##δεδ": 5626,
      "απλα": 5627,
      "##τικως": 5628,
      "καλλικρα": 5629,
      "θελουν": 5630,
      "κουδουν": 5631,
      "καποιοι": 5632,
      "##στουν": 5633,
      "##κοι": 5634,
      "τηρησης": 5635,
      "διαφη": 5636,
      "##τινο": 5637,
      "πληρης": 5638,
      "κατανε": 5639,
      "γκ": 5640,
      "μηχανικος": 5641,
      "αρμοδιων": 5642,
      "##ιρε": 5643,
      "σπο": 5644,
      "δρασεις": 5645,
      "##λογικων": 5646,
      "καθοριζει": 5647,
      "θερμο": 5648,
      "##417": 5649,
      "##ξι": 5650,
      "τηλεπικοινωνιων": 5651,
      "εξειδικευ": 5652,
      "ροδου": 5653,
      "βαθμος": 5654,
      "ξερουμε": 5655,
      "υποψηφιοι": 5656,
      "κανενας": 5657,
      "διαθεσης": 5658,
      "##ολης": 5659,
      "ζητα": 5660,
      "γενικοτερα": 5661,
      "προσωρινη": 5662,
      "διασυν": 5663,
      "λασ": 5664,
      "κουδουνι": 5665,
      "διαγωνισμου": 5666,
      "υπηρεσιακων": 5667,
      "ενενηντα": 5668,
      "ανδρεα": 5669,
      "αθηναιων": 5670,
      "##ιστικου": 5671,
      "δυσκ": 5672,
      "γης": 5673,
      "μεγαλα": 5674,
      "προχω": 5675,
      "1955": 5676,
      "εξηγη": 5677,
      "##νακης": 5678,
      "##χευ": 5679,
      "##ριστα": 5680,
      "σια": 5681,
      "ιονιου": 5682,
      "διδασκαλ": 5683,
      "συνασ": 5684,
      "ευαγγελου": 5685,
      "λεσβου": 5686,
      "σωστα": 5687,
      "προκυπτουν": 5688,
      "##μαρτυ": 5689,
      "σχολων": 5690,
      "αναστασια": 5691,
      "ενιαια": 5692,
      "ιατρων": 5693,
      "ωραριου": 5694,
      "ενεργειων": 5695,
      "εσωτερικο": 5696,
      "αποβλητων": 5697,
      "ομαδων": 5698,
      "##ζον": 5699,
      "διαφορετικα": 5700,
      "διαβασ": 5701,
      "##ρασι": 5702,
      "ιδιος": 5703,
      "συνθηκης": 5704,
      "ρεθυμ": 5705,
      "αδικ": 5706,
      "συμμετεχουν": 5707,
      "ομογενων": 5708,
      "##φορο": 5709,
      "##τισμο": 5710,
      "εργασι": 5711,
      "χαλκιδ": 5712,
      "κερκυρας": 5713,
      "##μετρ": 5714,
      "αντωνιος": 5715,
      "1180": 5716,
      "εσας": 5717,
      "αιτια": 5718,
      "εξαλ": 5719,
      "σφαλματων": 5720,
      "##δεν": 5721,
      "κοινωνιας": 5722,
      "εσφαλ": 5723,
      "##ονυ": 5724,
      "φθιω": 5725,
      "##ell": 5726,
      "σταθμων": 5727,
      "στελεχη": 5728,
      "προερχονται": 5729,
      "απει": 5730,
      "γενικες": 5731,
      "νικης": 5732,
      "141": 5733,
      "φορου": 5734,
      "περιεχομενου": 5735,
      "εκεινη": 5736,
      "ευθυνες": 5737,
      "αντιρ": 5738,
      "δημαρ": 5739,
      "πολιτικα": 5740,
      "τροποποιηθει": 5741,
      "υπολογισ": 5742,
      "μειων": 5743,
      "δυναμεις": 5744,
      "συνεπει": 5745,
      "συμπερασ": 5746,
      "εκπονηση": 5747,
      "##ληφ": 5748,
      "λογια": 5749,
      "##στ": 5750,
      "ευδο": 5751,
      "σγουριδης": 5752,
      "εξαγωγ": 5753,
      "##ποιου": 5754,
      "αρχαιοτητων": 5755,
      "##91": 5756,
      "δωδεκανη": 5757,
      "τεσσαρων": 5758,
      "##τζα": 5759,
      "παρεχεται": 5760,
      "διορισμο": 5761,
      "0022": 5762,
      "εισφορων": 5763,
      "μισθολογικο": 5764,
      "##μετ": 5765,
      "103": 5766,
      "##λογιαν": 5767,
      "επεξεργασιας": 5768,
      "επικινδυν": 5769,
      "τιθεται": 5770,
      "συμβολαιο": 5771,
      "εκανα": 5772,
      "##γεω": 5773,
      "καταγωγης": 5774,
      "##λωστε": 5775,
      "περιγραφη": 5776,
      "ικανοποιη": 5777,
      "επιτρεπο": 5778,
      "βλαστησης": 5779,
      "δεδομενου": 5780,
      "##ζας": 5781,
      "διαπιστωτικη": 5782,
      "συµ": 5783,
      "κτυπαει": 5784,
      "ετοι": 5785,
      "εσυ": 5786,
      "χωρος": 5787,
      "θεσπιση": 5788,
      "καλυπτει": 5789,
      "δηλωσεις": 5790,
      "αλλωστε": 5791,
      "αποδεικνυεται": 5792,
      "συμβαινει": 5793,
      "1975": 5794,
      "συνιστω": 5795,
      "##ομενο": 5796,
      "καταστηματων": 5797,
      "περιοδος": 5798,
      "2ο": 5799,
      "συμπληρωθηκαν": 5800,
      "ομιλη": 5801,
      "εκθεσεις": 5802,
      "##κοπη": 5803,
      "##ψηφ": 5804,
      "καταθετει": 5805,
      "##γειου": 5806,
      "ελληνικος": 5807,
      "κωλυμα": 5808,
      "επισημα": 5809,
      "αεροποριας": 5810,
      "##λαδων": 5811,
      "λογιστη": 5812,
      "λαμβανοντας": 5813,
      "κυκλου": 5814,
      "ελαιο": 5815,
      "##τειων": 5816,
      "κατατα": 5817,
      "##ματικη": 5818,
      "εγγε": 5819,
      "##γειο": 5820,
      "##γκου": 5821,
      "αυστη": 5822,
      "γεωγραφ": 5823,
      "ασφαλιστικων": 5824,
      "συνδρομη": 5825,
      "ch": 5826,
      "παραβαση": 5827,
      "προβλεπομενα": 5828,
      "θετικη": 5829,
      "##μετα": 5830,
      "ιδιωτικων": 5831,
      "πολεων": 5832,
      "κατεθεσαν": 5833,
      "##ting": 5834,
      "ξερ": 5835,
      "##τεται": 5836,
      "ακαδημα": 5837,
      "συζηταμε": 5838,
      "αποδοχων": 5839,
      "κιλ": 5840,
      "υφυπ": 5841,
      "δυναμικο": 5842,
      "κλιμακας": 5843,
      "##κοσιες": 5844,
      "νοσηλευτικης": 5845,
      "απαρα": 5846,
      "ποσων": 5847,
      "ατυχη": 5848,
      "κοινοκτη": 5849,
      "δασμολογ": 5850,
      "δυσκολ": 5851,
      "διαμαρτυ": 5852,
      "εγγραφου": 5853,
      "ιδιαιτερη": 5854,
      "διακρι": 5855,
      "συνελευσης": 5856,
      "λεων": 5857,
      "διακηρυ": 5858,
      "143": 5859,
      "προσαρμογη": 5860,
      "αποδοχες": 5861,
      "μορφης": 5862,
      "αποτελου": 5863,
      "εκατομμυριων": 5864,
      "τιμο": 5865,
      "πραγματοποιειται": 5866,
      "κοινοτικο": 5867,
      "στρ": 5868,
      "μαθηματα": 5869,
      "δηλων": 5870,
      "τσ": 5871,
      "εγγεγραμ": 5872,
      "δικαιουχους": 5873,
      "regulation": 5874,
      "οικοπεδου": 5875,
      "δραμας": 5876,
      "σκαν": 5877,
      "##οδρο": 5878,
      "ληξια": 5879,
      "##μηνου": 5880,
      "##εβη": 5881,
      "κοινοβουλευτικος": 5882,
      "##πας": 5883,
      "πληρωση": 5884,
      "επερω": 5885,
      "ποσοτητα": 5886,
      "##74": 5887,
      "δειγμα": 5888,
      "##ip": 5889,
      "##ωνει": 5890,
      "εκδιδει": 5891,
      "##ονδ": 5892,
      "αποδοση": 5893,
      "προαναφερο": 5894,
      "104": 5895,
      "διαδρο": 5896,
      "##ith": 5897,
      "προσοχη": 5898,
      "διονυ": 5899,
      "φυσικων": 5900,
      "επιφυλαξη": 5901,
      "οφειλουν": 5902,
      "εμποριας": 5903,
      "αιρε": 5904,
      "κρεα": 5905,
      "##γους": 5906,
      "μνημ": 5907,
      "απαλλοτριωσεων": 5908,
      "τω": 5909,
      "##ιδιο": 5910,
      "στεγασ": 5911,
      "122": 5912,
      "επιστροφη": 5913,
      "διεθνων": 5914,
      "σημασιας": 5915,
      "##ement": 5916,
      "ενισχυσεων": 5917,
      "κρινεται": 5918,
      "περιφερειακη": 5919,
      "##πδδ": 5920,
      "εξετασεις": 5921,
      "##αινονται": 5922,
      "βασικο": 5923,
      "παση": 5924,
      "ελληνικα": 5925,
      "νπδδ": 5926,
      "πρασινου": 5927,
      "δημαρχος": 5928,
      "τιτλος": 5929,
      "μητσο": 5930,
      "εκτιμηση": 5931,
      "παπαδη": 5932,
      "προηγουμενης": 5933,
      "στρατιωτικων": 5934,
      "πλημ": 5935,
      "δικαστηρια": 5936,
      "138": 5937,
      "##σθει": 5938,
      "καταβολης": 5939,
      "απορρο": 5940,
      "υποκει": 5941,
      "τετραγωνικα": 5942,
      "σουρλας": 5943,
      "υλικα": 5944,
      "##λικου": 5945,
      "##πειας": 5946,
      "ελλειψη": 5947,
      "υπολοιπα": 5948,
      "##ψουμε": 5949,
      "τριτους": 5950,
      "σιγου": 5951,
      "##λλας": 5952,
      "κακο": 5953,
      "εντυπ": 5954,
      "διανομης": 5955,
      "πρακτικη": 5956,
      "παντοτε": 5957,
      "διοργαν": 5958,
      "μεταρρυθμισης": 5959,
      "κυβερνησεις": 5960,
      "συνειδη": 5961,
      "πιστοποιητικων": 5962,
      "τοπου": 5963,
      "περιστα": 5964,
      "ειδα": 5965,
      "περιφερειακων": 5966,
      "διεξαγωγη": 5967,
      "##ορ": 5968,
      "υπαιθ": 5969,
      "πεδιο": 5970,
      "σχεδον": 5971,
      "##fic": 5972,
      "##φους": 5973,
      "δασο": 5974,
      "κομματων": 5975,
      "προσφορα": 5976,
      "κρητικος": 5977,
      "οργανισμοι": 5978,
      "εργοδο": 5979,
      "πρωτοκολλο": 5980,
      "##ενης": 5981,
      "##τση": 5982,
      "κοινοκτητο": 5983,
      "επιφανεια": 5984,
      "τεκμηρι": 5985,
      "τσο": 5986,
      "δρασεων": 5987,
      "καταργειται": 5988,
      "πρου": 5989,
      "##τηρων": 5990,
      "ισπαν": 5991,
      "διδ": 5992,
      "ρευ": 5993,
      "κονδυ": 5994,
      "mar": 5995,
      "αρχιτεκτονικη": 5996,
      "υποχρεωτικα": 5997,
      "πλευρας": 5998,
      "δωρεαν": 5999,
      "##φες": 6000,
      "1824": 6001,
      "180": 6002,
      "θι": 6003,
      "##78": 6004,
      "et": 6005,
      "συνταξεων": 6006,
      "##ργου": 6007,
      "μεταβιβασης": 6008,
      "προκυ": 6009,
      "εμπιπ": 6010,
      "αα": 6011,
      "προτεραιοτητα": 6012,
      "105": 6013,
      "θεοδωρου": 6014,
      "##μισω": 6015,
      "##στικες": 6016,
      "εξουσιας": 6017,
      "αναπροσ": 6018,
      "μεταναστευ": 6019,
      "##πιο": 6020,
      "οσους": 6021,
      "αυθ": 6022,
      "επαγγελματικη": 6023,
      "θμιας": 6024,
      "##ωντας": 6025,
      "##εισ": 6026,
      "συντονισμου": 6027,
      "μηχ": 6028,
      "αντιδρα": 6029,
      "##κοπουλου": 6030,
      "εξουσιοδοτηση": 6031,
      "ενεργο": 6032,
      "εφεδ": 6033,
      "υποβληθει": 6034,
      "ετα": 6035,
      "πορτο": 6036,
      "##φηκε": 6037,
      "τελε": 6038,
      "ακολουθες": 6039,
      "β2": 6040,
      "νεκ": 6041,
      "εναλλακ": 6042,
      "αντιστοιχο": 6043,
      "ζητησει": 6044,
      "αφε": 6045,
      "ποικι": 6046,
      "ελεγχους": 6047,
      "##ραμε": 6048,
      "εφετειου": 6049,
      "κουβ": 6050,
      "απαραιτητη": 6051,
      "##ομενη": 6052,
      "αντιλαμβαν": 6053,
      "σκλη": 6054,
      "##73": 6055,
      "βια": 6056,
      "τελη": 6057,
      "κομμουν": 6058,
      "shall": 6059,
      "προσωπικα": 6060,
      "κεφαλαιων": 6061,
      "160417": 6062,
      "##γαν": 6063,
      "κρε": 6064,
      "συγχωνευση": 6065,
      "παραγωγικης": 6066,
      "##τεχνικων": 6067,
      "νομαρχιακη": 6068,
      "αεροσκα": 6069,
      "πρυτανη": 6070,
      "διαταγες": 6071,
      "##75": 6072,
      "αποσπασμα": 6073,
      "αρχισ": 6074,
      "φαση": 6075,
      "αναβαθμιση": 6076,
      "βοηθειας": 6077,
      "διαμορφων": 6078,
      "αναπροσαρμο": 6079,
      "αλλης": 6080,
      "κινησης": 6081,
      "πολιτεια": 6082,
      "##γραφικο": 6083,
      "εισαγωγικο": 6084,
      "διαβουλευ": 6085,
      "##τιος": 6086,
      "εργοστα": 6087,
      "δημιουργει": 6088,
      "συλλογου": 6089,
      "μεταβ": 6090,
      "ορισμος": 6091,
      "##ικως": 6092,
      "##ρισμα": 6093,
      "134": 6094,
      "1ης": 6095,
      "##τριου": 6096,
      "ποσοτητες": 6097,
      "προεδρ": 6098,
      "ζημιων": 6099,
      "συνδικ": 6100,
      "αυθαιρε": 6101,
      "κρατικων": 6102,
      "κυκλαδων": 6103,
      "##λιες": 6104,
      "##πτ": 6105,
      "φερουν": 6106,
      "νομικη": 6107,
      "παρεχο": 6108,
      "γιω": 6109,
      "##νακη": 6110,
      "ενδεικ": 6111,
      "μονη": 6112,
      "βενιζε": 6113,
      "ερθει": 6114,
      "ημα": 6115,
      "##ιμο": 6116,
      "α1": 6117,
      "συνεδριασεις": 6118,
      "εισηγητης": 6119,
      "##ιστηκε": 6120,
      "αποστολου": 6121,
      "des": 6122,
      "##μβα": 6123,
      "τονισ": 6124,
      "αξιων": 6125,
      "συντε": 6126,
      "ηλεκτρονικη": 6127,
      "κοινοτικη": 6128,
      "##τεις": 6129,
      "##ιζετε": 6130,
      "πρεβε": 6131,
      "φπα": 6132,
      "αποτελεσματων": 6133,
      "ευστα": 6134,
      "αναθεωρηση": 6135,
      "αναφερθω": 6136,
      "1923": 6137,
      "αξιοπισ": 6138,
      "κοινοχρηστων": 6139,
      "βλεπουμε": 6140,
      "δικαστηριο": 6141,
      "##χωριου": 6142,
      "καναμε": 6143,
      "στρατου": 6144,
      "##λιν": 6145,
      "απευ": 6146,
      "κτηνοτροφ": 6147,
      "1268": 6148,
      "σοβαρα": 6149,
      "μαθητων": 6150,
      "112": 6151,
      "απαραδεκ": 6152,
      "102": 6153,
      "κληρο": 6154,
      "στρατηγικη": 6155,
      "pl": 6156,
      "ενταξης": 6157,
      "κτηνιατρ": 6158,
      "##παι": 6159,
      "ποτα": 6160,
      "##γιας": 6161,
      "θεωρουνται": 6162,
      "ad": 6163,
      "διαδικ": 6164,
      "σφραγ": 6165,
      "εκκαθαριση": 6166,
      "##ιδιοκτη": 6167,
      "3049": 6168,
      "δασικου": 6169,
      "1ου": 6170,
      "##ωνεται": 6171,
      "παρακαταθεσης": 6172,
      "##βιο": 6173,
      "αδικη": 6174,
      "διεπ": 6175,
      "οποιονδηποτε": 6176,
      "153": 6177,
      "αλλος": 6178,
      "ακυρω": 6179,
      "##αντ": 6180,
      "ενδιαφεροντος": 6181,
      "##ληφθει": 6182,
      "πολεοδομιας": 6183,
      "εξασφαλιση": 6184,
      "συνιδιοκτη": 6185,
      "δοκιμα": 6186,
      "παραγον": 6187,
      "##σκευασ": 6188,
      "πανελλην": 6189,
      "παντως": 6190,
      "επιστημονικα": 6191,
      "εκατοστα": 6192,
      "ασκ": 6193,
      "εγκρινει": 6194,
      "ταμειων": 6195,
      "απαντησεις": 6196,
      "επαρχια": 6197,
      "διαδο": 6198,
      "δημοσιονομικης": 6199,
      "εγκλημα": 6200,
      "by": 6201,
      "επιτρεπει": 6202,
      "αχ": 6203,
      "##ψυ": 6204,
      "επηρεα": 6205,
      "εβρου": 6206,
      "χιου": 6207,
      "ψηφια": 6208,
      "κοκ": 6209,
      "δεσμευση": 6210,
      "συνδικαλ": 6211,
      "αγροτικων": 6212,
      "τεχνικες": 6213,
      "ερωτησεων": 6214,
      "θεσπισ": 6215,
      "β3": 6216,
      "αστυνομια": 6217,
      "ελαβε": 6218,
      "πληθυσμου": 6219,
      "1971": 6220,
      "δικα": 6221,
      "##μβριο": 6222,
      "εκδιδεται": 6223,
      "στοχων": 6224,
      "μηχανικο": 6225,
      "εξουσιοδο": 6226,
      "αναφερει": 6227,
      "παραμενει": 6228,
      "προσπαθειες": 6229,
      "αφαιρε": 6230,
      "λεπτομερειες": 6231,
      "θεωρηθηκε": 6232,
      "καταθεση": 6233,
      "ναυτικων": 6234,
      "νεους": 6235,
      "επισκε": 6236,
      "ρυπ": 6237,
      "διευθυντρια": 6238,
      "##γεωργ": 6239,
      "καλυτερα": 6240,
      "##παρ": 6241,
      "##ψιν": 6242,
      "κωδικοποιηση": 6243,
      "επαναλαμβανω": 6244,
      "λιμαν": 6245,
      "οφειλο": 6246,
      "υποκατα": 6247,
      "εγκατα": 6248,
      "##av": 6249,
      "τηρουνται": 6250,
      "συνηθ": 6251,
      "διεθνες": 6252,
      "επιστρε": 6253,
      "##πλοια": 6254,
      "ανελ": 6255,
      "καλλικρατης": 6256,
      "##uc": 6257,
      "παρεκκλιση": 6258,
      "ειλικ": 6259,
      "στελεχων": 6260,
      "αργοτερο": 6261,
      "ψυχ": 6262,
      "μετρου": 6263,
      "συνισταται": 6264,
      "χορηγηθει": 6265,
      "παραχωρη": 6266,
      "##τηματων": 6267,
      "εμβαδον": 6268,
      "προηγουμενο": 6269,
      "δευτερου": 6270,
      "καραμαν": 6271,
      "αναμεσα": 6272,
      "παντε": 6273,
      "νομοθετικη": 6274,
      "διασφαλιση": 6275,
      "109": 6276,
      "##ψεως": 6277,
      "κατωθι": 6278,
      "διαμορφωση": 6279,
      "##μενουν": 6280,
      "##ταγ": 6281,
      "##βας": 6282,
      "διαταξης": 6283,
      "##γγελε": 6284,
      "##σιως": 6285,
      "##γεια": 6286,
      "εξουσια": 6287,
      "##µου": 6288,
      "πιστευουμε": 6289,
      "κιλκις": 6290,
      "220": 6291,
      "κριτικη": 6292,
      "επικοινωνια": 6293,
      "διαγωνισμο": 6294,
      "αυτοδικαιως": 6295,
      "##τοπουλου": 6296,
      "##λογησης": 6297,
      "απαραιτητο": 6298,
      "δωδεκανησου": 6299,
      "δικαστηριων": 6300,
      "113": 6301,
      "τσου": 6302,
      "κενων": 6303,
      "συμβουλιων": 6304,
      "παρανομ": 6305,
      "ελαχιστο": 6306,
      "##αιω": 6307,
      "αριστερας": 6308,
      "επιχειρησιακου": 6309,
      "παθο": 6310,
      "γρηγορα": 6311,
      "τετοιες": 6312,
      "υπολογιζεται": 6313,
      "κερδο": 6314,
      "ημεδα": 6315,
      "κοινωνικες": 6316,
      "επιτυ": 6317,
      "βασιλειο": 6318,
      "υπεβαλε": 6319,
      "##γραφουν": 6320,
      "γραμματεως": 6321,
      "##λεπ": 6322,
      "μετονομα": 6323,
      "συνεπειες": 6324,
      "νηο": 6325,
      "υπογραφει": 6326,
      "λεκ": 6327,
      "πολιτογραφηση": 6328,
      "ευδοκι": 6329,
      "ξυ": 6330,
      "λιαν": 6331,
      "ονοματος": 6332,
      "υδε": 6333,
      "προτεινει": 6334,
      "δεχ": 6335,
      "##δικης": 6336,
      "συγκεντ": 6337,
      "ηθ": 6338,
      "αναλυτικα": 6339,
      "532": 6340,
      "ερευνων": 6341,
      "απευθειας": 6342,
      "##ουλης": 6343,
      "παραδοσια": 6344,
      "οριστικο": 6345,
      "υπουργεια": 6346,
      "εισερχο": 6347,
      "κινημα": 6348,
      "λακων": 6349,
      "ιθαγενεια": 6350,
      "μονιμης": 6351,
      "νυχ": 6352,
      "αποτελεσματικη": 6353,
      "βορειου": 6354,
      "οξ": 6355,
      "ειδικοτητων": 6356,
      "καταπολεμηση": 6357,
      "##γορας": 6358,
      "πετρος": 6359,
      "αντιστοιχει": 6360,
      "##ap": 6361,
      "##ξετε": 6362,
      "ειπαμε": 6363,
      "επιλυση": 6364,
      "καινο": 6365,
      "##τησω": 6366,
      "συνθηκων": 6367,
      "##πεδων": 6368,
      "κατανομης": 6369,
      "##ire": 6370,
      "##ρινας": 6371,
      "υδρα": 6372,
      "αποφοι": 6373,
      "##ειδων": 6374,
      "μηπως": 6375,
      "υπολοιπο": 6376,
      "##πολεως": 6377,
      "ευκο": 6378,
      "##τηθουν": 6379,
      "##δακης": 6380,
      "διαμονης": 6381,
      "επιδομα": 6382,
      "δικαστηριου": 6383,
      "πραγματοποιηση": 6384,
      "σοβ": 6385,
      "##σφαι": 6386,
      "διευθυνσεις": 6387,
      "απεικον": 6388,
      "συντρε": 6389,
      "##θια": 6390,
      "δωσουμε": 6391,
      "οριου": 6392,
      "δικαστικης": 6393,
      "λειτουργου": 6394,
      "διαδικτυ": 6395,
      "βοηθων": 6396,
      "ροδο": 6397,
      "##γουμε": 6398,
      "182447": 6399,
      "συμμετεχει": 6400,
      "##δακη": 6401,
      "ζαχ": 6402,
      "χρονικη": 6403,
      "φαρμακων": 6404,
      "σωστο": 6405,
      "επιτυχ": 6406,
      "προχωρησει": 6407,
      "δικαιοσυνη": 6408,
      "επικυρω": 6409,
      "υποχρεωτικης": 6410,
      "κορινθιας": 6411,
      "ανθρωπων": 6412,
      "αποδοχη": 6413,
      "εποχη": 6414,
      "ολομελεια": 6415,
      "αυτ": 6416,
      "ειδικοτητες": 6417,
      "παρεχονται": 6418,
      "διερευ": 6419,
      "δικαιοδο": 6420,
      "##ικια": 6421,
      "νοτιου": 6422,
      "αγαπητοι": 6423,
      "εσωτερικου": 6424,
      "##ασει": 6425,
      "εκκλησια": 6426,
      "δεσμευτικος": 6427,
      "συνεδριασεων": 6428,
      "##τεπων": 6429,
      "καταλογο": 6430,
      "φραση": 6431,
      "kg": 6432,
      "##tr": 6433,
      "νησων": 6434,
      "αναγκης": 6435,
      "νομαρχιας": 6436,
      "κινδυνο": 6437,
      "μεταβα": 6438,
      "μαριας": 6439,
      "λειτουργων": 6440,
      "δανειου": 6441,
      "μισθοδοτουμενων": 6442,
      "ακινητο": 6443,
      "επιπτωσεις": 6444,
      "##χθη": 6445,
      "παρεμβασεις": 6446,
      "οδηγιων": 6447,
      "παρατηρηση": 6448,
      "τελικης": 6449,
      "εξοπλισμο": 6450,
      "λαμβανεται": 6451,
      "α2": 6452,
      "τεθει": 6453,
      "πανε": 6454,
      "αγιος": 6455,
      "οικοδομη": 6456,
      "συνθε": 6457,
      "##τειες": 6458,
      "ελευθεριος": 6459,
      "αποκαταστασης": 6460,
      "κινηση": 6461,
      "κατοικων": 6462,
      "ιχ": 6463,
      "##γνωμον": 6464,
      "##μπου": 6465,
      "νερου": 6466,
      "##χρηματο": 6467,
      "ασχολ": 6468,
      "καλω": 6469,
      "##λαβα": 6470,
      "φων": 6471,
      "καταγραφη": 6472,
      "εικονα": 6473,
      "εμποριο": 6474,
      "εκτακτων": 6475,
      "απομακ": 6476,
      "λεξη": 6477,
      "προσεγγιση": 6478,
      "ελληνικων": 6479,
      "διαμερισματος": 6480,
      "χρεος": 6481,
      "##γραφιας": 6482,
      "συναψη": 6483,
      "αμυν": 6484,
      "ξεχ": 6485,
      "ζαχα": 6486,
      "πιστοποιητικα": 6487,
      "μετρη": 6488,
      "ιδιες": 6489,
      "στενο": 6490,
      "χαρτη": 6491,
      "εδαφιου": 6492,
      "προσανατο": 6493,
      "παραγωγων": 6494,
      "τελικη": 6495,
      "υποχρεωτικη": 6496,
      "εξαιρετικα": 6497,
      "θεωρουμε": 6498,
      "ερχονται": 6499,
      "παραπε": 6500,
      "διαβιβα": 6501,
      "##θανα": 6502,
      "τηρη": 6503,
      "αρκα": 6504,
      "προβαινει": 6505,
      "φωτει": 6506,
      "146": 6507,
      "ονοματεπων": 6508,
      "υποψηφιος": 6509,
      "##ζε": 6510,
      "414": 6511,
      "καταστραφηκε": 6512,
      "πελλας": 6513,
      "##τοφυλα": 6514,
      "υψηλο": 6515,
      "res": 6516,
      "αλλογ": 6517,
      "προσκληση": 6518,
      "χαλκιδικης": 6519,
      "ποιες": 6520,
      "ma": 6521,
      "προσαυ": 6522,
      "στρατολογ": 6523,
      "υπευθυνο": 6524,
      "##ναμε": 6525,
      "καταβληθει": 6526,
      "δικες": 6527,
      "συνταξης": 6528,
      "αισθη": 6529,
      "μηνος": 6530,
      "αφορου": 6531,
      "περιλαμβανεται": 6532,
      "συνελευση": 6533,
      "γκα": 6534,
      "πυρη": 6535,
      "εκεινες": 6536,
      "125": 6537,
      "##09": 6538,
      "νομικης": 6539,
      "700": 6540,
      "##αλυ": 6541,
      "ποινικου": 6542,
      "διατυπωση": 6543,
      "συναφων": 6544,
      "νησια": 6545,
      "μετοχ": 6546,
      "ελεγκτικου": 6547,
      "αγμς": 6548,
      "εμπορευματων": 6549,
      "with": 6550,
      "επειγου": 6551,
      "##ιστικα": 6552,
      "ανεργιας": 6553,
      "121": 6554,
      "##ant": 6555,
      "σχεδιασμος": 6556,
      "συμφωνιες": 6557,
      "155": 6558,
      "γειτο": 6559,
      "αρχικη": 6560,
      "sp": 6561,
      "συμπεριλαμβανομενων": 6562,
      "2020": 6563,
      "πρυτανης": 6564,
      "σταδια": 6565,
      "πολεμ": 6566,
      "παραδοση": 6567,
      "##ωσεως": 6568,
      "gr": 6569,
      "αναστασιου": 6570,
      "λογαριασμων": 6571,
      "τιμολογ": 6572,
      "ξανθης": 6573,
      "ασφαλως": 6574,
      "συνοδευει": 6575,
      "καθυστερηση": 6576,
      "τοπικων": 6577,
      "εξαντ": 6578,
      "στρατηγικης": 6579,
      "παιδεια": 6580,
      "ιδιοκτητων": 6581,
      "συνασπ": 6582,
      "αποδεικ": 6583,
      "##κισ": 6584,
      "διαμερισμα": 6585,
      "αναφερω": 6586,
      "##µη": 6587,
      "μοντε": 6588,
      "κυνη": 6589,
      "su": 6590,
      "##ich": 6591,
      "δυτ": 6592,
      "εισαγγελ": 6593,
      "παρεχουν": 6594,
      "ανευ": 6595,
      "πετρελαιο": 6596,
      "εξελιξης": 6597,
      "συζητησης": 6598,
      "φθιωτιδας": 6599,
      "##ie": 6600,
      "κοστο": 6601,
      "τζα": 6602,
      "οικονο": 6603,
      "διαλογο": 6604,
      "ενιαιου": 6605,
      "οδηγει": 6606,
      "κενες": 6607,
      "βολου": 6608,
      "##νανιας": 6609,
      "##λογικο": 6610,
      "αποσταση": 6611,
      "εστια": 6612,
      "απαντησει": 6613,
      "ισχυουσα": 6614,
      "περιβαλλοντικων": 6615,
      "συζητησουμε": 6616,
      "γες": 6617,
      "αναγκαιες": 6618,
      "##γουνται": 6619,
      "αρχειων": 6620,
      "ασφαλιση": 6621,
      "##μιου": 6622,
      "δεκαε": 6623,
      "119": 6624,
      "κυπ": 6625,
      "γραμματεις": 6626,
      "##ted": 6627,
      "κερα": 6628,
      "##επι": 6629,
      "##ιζοντας": 6630,
      "πολυτεχν": 6631,
      "##πετε": 6632,
      "##κιδας": 6633,
      "τoυ": 6634,
      "##περιφερε": 6635,
      "εργαστηριου": 6636,
      "##ερο": 6637,
      "##κυν": 6638,
      "προσφορων": 6639,
      "τρεχον": 6640,
      "υγιεινης": 6641,
      "##γυ": 6642,
      "συμβουλευ": 6643,
      "116": 6644,
      "τραπεζων": 6645,
      "κανονισμους": 6646,
      "επιτευξη": 6647,
      "αρθρον": 6648,
      "πρωτοδικειο": 6649,
      "εκτιμη": 6650,
      "οικοδομικων": 6651,
      "σημαια": 6652,
      "συνολικης": 6653,
      "λογαριασμου": 6654,
      "θο": 6655,
      "λιγοτερο": 6656,
      "υπεχωδε": 6657,
      "##ττα": 6658,
      "240": 6659,
      "118": 6660,
      "λευκα": 6661,
      "αρε": 6662,
      "προελευσης": 6663,
      "wh": 6664,
      "##ρθρω": 6665,
      "σχολικης": 6666,
      "##δαλ": 6667,
      "αθλητικων": 6668,
      "υποδο": 6669,
      "μεταχει": 6670,
      "πδ": 6671,
      "προυποθεσεων": 6672,
      "πωληση": 6673,
      "108": 6674,
      "εργαλ": 6675,
      "δημαρχο": 6676,
      "μαγει": 6677,
      "γυρω": 6678,
      "υφισταται": 6679,
      "δυνανται": 6680,
      "καυσιμων": 6681,
      "καταστασεων": 6682,
      "πιστωσης": 6683,
      "στρατιωτικες": 6684,
      "ολοκληρωθει": 6685,
      "κοινοποιη": 6686,
      "δημους": 6687,
      "3463": 6688,
      "εισαγωγες": 6689,
      "##ενους": 6690,
      "συνταξεις": 6691,
      "ασκουν": 6692,
      "δημοσιευματα": 6693,
      "αναγκαστικη": 6694,
      "διαπιστωση": 6695,
      "ηλεκτρ": 6696,
      "τακτικου": 6697,
      "βενιζελος": 6698,
      "εκτελει": 6699,
      "κανονισμων": 6700,
      "δικτυα": 6701,
      "αναγκαστικων": 6702,
      "τεχνη": 6703,
      "επομενο": 6704,
      "συμβουλου": 6705,
      "ανωτατου": 6706,
      "καθεστωτος": 6707,
      "λακωνιας": 6708,
      "##χερ": 6709,
      "##ψαν": 6710,
      "ομοια": 6711,
      "εγκαιρη": 6712,
      "διοικητικα": 6713,
      "τασ": 6714,
      "139": 6715,
      "προσλαμβαν": 6716,
      "##our": 6717,
      "##μινα": 6718,
      "##οταν": 6719,
      "αναγεν": 6720,
      "παρεμβασης": 6721,
      "ναυτιλια": 6722,
      "αεριου": 6723,
      "κυρωσεις": 6724,
      "χαμηλο": 6725,
      "##λογικα": 6726,
      "εδαφος": 6727,
      "λειτουργησει": 6728,
      "διορθων": 6729,
      "ιιι": 6730,
      "συνταξιοδοτησης": 6731,
      "ανωνυμη": 6732,
      "βοι": 6733,
      "ελεγε": 6734,
      "τεχνικο": 6735,
      "σπα": 6736,
      "1599": 6737,
      "αναστολη": 6738,
      "1974": 6739,
      "περιληψη": 6740,
      "οικειο": 6741,
      "##μονω": 6742,
      "απολυτη": 6743,
      "##εριας": 6744,
      "##θεντος": 6745,
      "ιδιωτες": 6746,
      "λασι": 6747,
      "αντικειμενου": 6748,
      "εκτασεως": 6749,
      "προσωριν": 6750,
      "αρτας": 6751,
      "εισοδου": 6752,
      "κεδ": 6753,
      "γιαννα": 6754,
      "τιμω": 6755,
      "σημειωμα": 6756,
      "διπλα": 6757,
      "##φτα": 6758,
      "επιβλη": 6759,
      "οδον": 6760,
      "μεταφο": 6761,
      "εκπαιδευτικο": 6762,
      "συμφεροντων": 6763,
      "ορθη": 6764,
      "παραγραφων": 6765,
      "συνεδριου": 6766,
      "εγκριθει": 6767,
      "πωλησης": 6768,
      "123": 6769,
      "απλο": 6770,
      "κατηγοριων": 6771,
      "διαθεσιμο": 6772,
      "##λαμε": 6773,
      "ηλεκτρολογων": 6774,
      "##θηκατε": 6775,
      "δικαιουται": 6776,
      "βεβαιωσης": 6777,
      "οφελος": 6778,
      "τακτικο": 6779,
      "ναυπη": 6780,
      "##ρουργ": 6781,
      "παραβασ": 6782,
      "περιφερειακου": 6783,
      "##ow": 6784,
      "οποιασδηποτε": 6785,
      "δε1": 6786,
      "περιλαμβανουν": 6787,
      "##τιαδης": 6788,
      "##ζοντας": 6789,
      "οφειλε": 6790,
      "χρυσο": 6791,
      "κοινοτικης": 6792,
      "##γοντας": 6793,
      "τεραστια": 6794,
      "##ουμενη": 6795,
      "1969": 6796,
      "##πιστω": 6797,
      "2083": 6798,
      "δικαιουχων": 6799,
      "διαχω": 6800,
      "κατσαρος": 6801,
      "δεξα": 6802,
      "κανονιστικες": 6803,
      "γραμμες": 6804,
      "##ort": 6805,
      "πιστοποιησης": 6806,
      "περιφερειων": 6807,
      "τουριστικης": 6808,
      "##ot": 6809,
      "αξιωματικων": 6810,
      "αρχικα": 6811,
      "λαμβανουν": 6812,
      "διαμαν": 6813,
      "115": 6814,
      "απελευθε": 6815,
      "ορος": 6816,
      "καταθεσει": 6817,
      "αξιολογ": 6818,
      "##στηκαν": 6819,
      "3549": 6820,
      "χονδ": 6821,
      "προσληψης": 6822,
      "##δρομια": 6823,
      "αναλαβει": 6824,
      "βη": 6825,
      "γου": 6826,
      "pr": 6827,
      "εθελον": 6828,
      "αναληψη": 6829,
      "εμπιστο": 6830,
      "##ργος": 6831,
      "##γιαννης": 6832,
      "##τεστη": 6833,
      "##ρεων": 6834,
      "χριστοδου": 6835,
      "θητειας": 6836,
      "περιπτωσεων": 6837,
      "συμμορφωση": 6838,
      "καστο": 6839,
      "κοινοποιηση": 6840,
      "ληφθει": 6841,
      "##ελε": 6842,
      "##ity": 6843,
      "##ii": 6844,
      "##δικες": 6845,
      "εξαρτη": 6846,
      "##ud": 6847,
      "##λοα": 6848,
      "ποινη": 6849,
      "μεταβιβασ": 6850,
      "μειο": 6851,
      "εποπτειας": 6852,
      "χρειαζονται": 6853,
      "ελαχιστη": 6854,
      "ιδιοι": 6855,
      "##ζων": 6856,
      "ουσιας": 6857,
      "149": 6858,
      "συντονισμο": 6859,
      "##μευσης": 6860,
      "παπαδοπουλος": 6861,
      "μαζικης": 6862,
      "##μηνα": 6863,
      "οριστικη": 6864,
      "δημητρα": 6865,
      "αρση": 6866,
      "1978": 6867,
      "μητροπολι": 6868,
      "εξισ": 6869,
      "οχηματα": 6870,
      "παρακαταθηκων": 6871,
      "αναπαρα": 6872,
      "##ιον": 6873,
      "χρησιμοποιειται": 6874,
      "151": 6875,
      "συντελεστης": 6876,
      "συγγ": 6877,
      "δημητριο": 6878,
      "διαφανεια": 6879,
      "ναρκω": 6880,
      "καλυτερο": 6881,
      "εκχερ": 6882,
      "προτεινεται": 6883,
      "τοπος": 6884,
      "εγγυηση": 6885,
      "εκδηλωσεων": 6886,
      "προσφορας": 6887,
      "αποζημιωσεων": 6888,
      "τεχνικα": 6889,
      "μεταφρα": 6890,
      "παρομο": 6891,
      "χωροι": 6892,
      "σταση": 6893,
      "132": 6894,
      "εθνικα": 6895,
      "29α": 6896,
      "υποβαλλουν": 6897,
      "δακ": 6898,
      "βιομηχανια": 6899,
      "φαντα": 6900,
      "φαρμακο": 6901,
      "##ξιο": 6902,
      "μονιμων": 6903,
      "##χθηκαν": 6904,
      "παραμονης": 6905,
      "128": 6906,
      "εμπρα": 6907,
      "νιας": 6908,
      "πτη": 6909,
      "εισαγγελε": 6910,
      "##ματικο": 6911,
      "μεταρρυθμιση": 6912,
      "λασιθιου": 6913,
      "επιστημης": 6914,
      "δημοσιευεται": 6915,
      "νομιμη": 6916,
      "εκσυγχρονισμο": 6917,
      "μοι": 6918,
      "προσανατολ": 6919,
      "καταλληλα": 6920,
      "ιβ": 6921,
      "επιμελεια": 6922,
      "αναπληρωτων": 6923,
      "##ision": 6924,
      "υποθηκ": 6925,
      "ταξιν": 6926,
      "##ph": 6927,
      "παραγραφους": 6928,
      "##τισμος": 6929,
      "ειδικος": 6930,
      "προηγουμενων": 6931,
      "εξελιξεις": 6932,
      "##τησουν": 6933,
      "##λοακαρ": 6934,
      "εισπρατ": 6935,
      "προισταται": 6936,
      "##ργα": 6937,
      "αντιπροεδρο": 6938,
      "εκπροσωπους": 6939,
      "διαφημισ": 6940,
      "ιεραρχ": 6941,
      "##ιστικων": 6942,
      "##ρουπολης": 6943,
      "##τροφες": 6944,
      "τοις": 6945,
      "##ιστες": 6946,
      "επιπεδα": 6947,
      "ευθυμ": 6948,
      "ζωο": 6949,
      "##πτεται": 6950,
      "επιστημονικη": 6951,
      "βορειο": 6952,
      "εισπραξη": 6953,
      "καποδισ": 6954,
      "ολοκληρη": 6955,
      "ιτα": 6956,
      "δυναμη": 6957,
      "ιερας": 6958,
      "επιθεωρησης": 6959,
      "συναινεση": 6960,
      "καταστροφη": 6961,
      "αναγραφεται": 6962,
      "υποχρεουνται": 6963,
      "##τειτε": 6964,
      "2ου": 6965,
      "καθολου": 6966,
      "ευνο": 6967,
      "1973": 6968,
      "απονε": 6969,
      "##ρχαν": 6970,
      "αιτωλοακαρ": 6971,
      "ειδικευ": 6972,
      "ενοπλων": 6973,
      "106": 6974,
      "συνεχως": 6975,
      "##φος": 6976,
      "καιρο": 6977,
      "##κοπ": 6978,
      "σαμου": 6979,
      "##φιβ": 6980,
      "αεροδρομ": 6981,
      "φτα": 6982,
      "ενδειξεις": 6983,
      "αναπληρωτες": 6984,
      "καθενα": 6985,
      "ανταποκριν": 6986,
      "##06": 6987,
      "διαφ": 6988,
      "1976": 6989,
      "αντιληψη": 6990,
      "απαραιτητες": 6991,
      "ειρηνη": 6992,
      "οικισμων": 6993,
      "ιγ": 6994,
      "τρομοκρα": 6995,
      "μονιμος": 6996,
      "υγειονομικη": 6997,
      "υπουργικες": 6998,
      "πατρα": 6999,
      "##ine": 7000,
      "προξεν": 7001,
      "##ρωσης": 7002,
      "εκπροσωποι": 7003,
      "ψευ": 7004,
      "προδιαγραφων": 7005,
      "καταναλωτη": 7006,
      "##πολη": 7007,
      "διδακτικου": 7008,
      "##φαση": 7009,
      "203": 7010,
      "εκλεκ": 7011,
      "νικητας": 7012,
      "##χιας": 7013,
      "##ισα": 7014,
      "αντε": 7015,
      "ετησιως": 7016,
      "επισκευης": 7017,
      "##ens": 7018,
      "πετυ": 7019,
      "διασκε": 7020,
      "ονομασια": 7021,
      "ολοκληρωσης": 7022,
      "εμπορικων": 7023,
      "αναγραφονται": 7024,
      "##ουσας": 7025,
      "πρεσ": 7026,
      "σιου": 7027,
      "μετατροπη": 7028,
      "αιτιολογη": 7029,
      "τιτλοι": 7030,
      "χρησεις": 7031,
      "οαεδ": 7032,
      "εβδομαδα": 7033,
      "διευθυντες": 7034,
      "μητρωα": 7035,
      "##κομων": 7036,
      "προαγωγη": 7037,
      "κινδυνου": 7038,
      "##τεινεται": 7039,
      "προληψη": 7040,
      "διαθετουν": 7041,
      "ελευθερια": 7042,
      "δηλωσης": 7043,
      "παιρνει": 7044,
      "##ue": 7045,
      "κρινει": 7046,
      "εξετασεων": 7047,
      "προβλεφθει": 7048,
      "μεριμ": 7049,
      "επιβλεψη": 7050,
      "τοπικο": 7051,
      "αυτεπαγγελτως": 7052,
      "0010": 7053,
      "ληγει": 7054,
      "##ρειων": 7055,
      "φιλοσο": 7056,
      "συμπληρωσεως": 7057,
      "μιλ": 7058,
      "##δευ": 7059,
      "προβληματος": 7060,
      "ικανοτητα": 7061,
      "ελπιζω": 7062,
      "σοσια": 7063,
      "αναδρομ": 7064,
      "φερο": 7065,
      "##ρισε": 7066,
      "##ard": 7067,
      "προβλεψη": 7068,
      "##ties": 7069,
      "στρεμμα": 7070,
      "##λογικης": 7071,
      "##ακης": 7072,
      "προβλεπομενων": 7073,
      "απολυση": 7074,
      "αποδοσης": 7075,
      "##χολου": 7076,
      "οργανωσεις": 7077,
      "ανακοινων": 7078,
      "καθοριζουμε": 7079,
      "μαθηματων": 7080,
      "γνωριζει": 7081,
      "εκθεσεων": 7082,
      "περιγραφονται": 7083,
      "απορροφη": 7084,
      "τροποποιουμε": 7085,
      "##δεις": 7086,
      "διακοπη": 7087,
      "##ινης": 7088,
      "##χυν": 7089,
      "φυτο": 7090,
      "##ne": 7091,
      "νησιωτικης": 7092,
      "αγροτων": 7093,
      "αναλω": 7094,
      "πολιτιστικων": 7095,
      "συστατικης": 7096,
      "μπενα": 7097,
      "πηγες": 7098,
      "φροντιδας": 7099,
      "αγωγ": 7100,
      "πεχωδε": 7101,
      "νοσοκομειων": 7102,
      "τριτες": 7103,
      "ενταξ": 7104,
      "αποκεντρωμενη": 7105,
      "ελευθερη": 7106,
      "αποφυ": 7107,
      "επισημ": 7108,
      "συρ": 7109,
      "προσωποπαγη": 7110,
      "σπη": 7111,
      "##τιδης": 7112,
      "##κασ": 7113,
      "κοσμος": 7114,
      "καλαματας": 7115,
      "κριθηκε": 7116,
      "αρκετα": 7117,
      "ειρηνο": 7118,
      "δηθεν": 7119,
      "εκπληρωσει": 7120,
      "εργαστηριο": 7121,
      "προμηθειας": 7122,
      "##τζο": 7123,
      "επικυρωση": 7124,
      "αναπληρωτρια": 7125,
      "ευρισ": 7126,
      "##λανδια": 7127,
      "μεγιστο": 7128,
      "κατανοη": 7129,
      "ενδιαμε": 7130,
      "τμ": 7131,
      "##end": 7132,
      "μεση": 7133,
      "136": 7134,
      "οκτα": 7135,
      "αιθου": 7136,
      "πεζοδρο": 7137,
      "##og": 7138,
      "##χεστε": 7139,
      "##λογικου": 7140,
      "συναλλαγων": 7141,
      "κιν": 7142,
      "υπεν": 7143,
      "πιστοποιηση": 7144,
      "αναδιαρθρω": 7145,
      "επανεξ": 7146,
      "##ηλθε": 7147,
      "απαντωντας": 7148,
      "βοιω": 7149,
      "διατιθενται": 7150,
      "μπορεσει": 7151,
      "προτυπα": 7152,
      "γνωσεις": 7153,
      "υπομνη": 7154,
      "λαμπρου": 7155,
      "1000": 7156,
      "παροχων": 7157,
      "νοτιο": 7158,
      "προβλεπομενες": 7159,
      "αναγεννηση": 7160,
      "##τεα": 7161,
      "απαιτει": 7162,
      "παραλει": 7163,
      "υπηρχαν": 7164,
      "υπουργους": 7165,
      "ανεγερση": 7166,
      "ακολουθο": 7167,
      "οσων": 7168,
      "αιτηματα": 7169,
      "πραγματικης": 7170,
      "συνασπισμου": 7171,
      "αλεξανδρου": 7172,
      "ουτως": 7173,
      "ιατρο": 7174,
      "υποβαλει": 7175,
      "##νοπουλος": 7176,
      "πολεοδομικου": 7177,
      "χοι": 7178,
      "##oς": 7179,
      "αντιθετα": 7180,
      "τυπικα": 7181,
      "επιτελειου": 7182,
      "ονοματεπωνυμο": 7183,
      "##λιος": 7184,
      "ερωτηματα": 7185,
      "εσφαλμενο": 7186,
      "μερει": 7187,
      "εταμ": 7188,
      "κωστα": 7189,
      "135": 7190,
      "##σος": 7191,
      "##χομαστε": 7192,
      "σημαντικες": 7193,
      "ολου": 7194,
      "διασυνδε": 7195,
      "λεωφο": 7196,
      "χειριστων": 7197,
      "##ational": 7198,
      "χρεη": 7199,
      "##ations": 7200,
      "δικαιουνται": 7201,
      "νομιμες": 7202,
      "προσπαθη": 7203,
      "εισηγητη": 7204,
      "πολεοδομικων": 7205,
      "λοιποι": 7206,
      "390": 7207,
      "##μενον": 7208,
      "σταθμος": 7209,
      "β1": 7210,
      "2971": 7211,
      "##λατε": 7212,
      "##θερα": 7213,
      "εμπειρο": 7214,
      "λυσεις": 7215,
      "επιτρεψτε": 7216,
      "σαφη": 7217,
      "λιμενα": 7218,
      "θεμελιω": 7219,
      "γυναικων": 7220,
      "ερωτησης": 7221,
      "διατυπων": 7222,
      "##τρους": 7223,
      "αντιστοιχης": 7224,
      "αναλαμβανει": 7225,
      "λεξεις": 7226,
      "πιστο": 7227,
      "συνεπα": 7228,
      "συζητηθει": 7229,
      "δωσω": 7230,
      "##γκας": 7231,
      "δημοτων": 7232,
      "κυριακες": 7233,
      "συμβουλων": 7234,
      "εταιρια": 7235,
      "προακ": 7236,
      "υπολογισμο": 7237,
      "σχετικου": 7238,
      "αποστολης": 7239,
      "μεσοπροθεσ": 7240,
      "στηλη": 7241,
      "187": 7242,
      "μεταβολη": 7243,
      "γειτονας": 7244,
      "παραπο": 7245,
      "καλυψης": 7246,
      "υποσχε": 7247,
      "##τωνται": 7248,
      "##τριες": 7249,
      "##μητριου": 7250,
      "μηδεν": 7251,
      "2218": 7252,
      "124": 7253,
      "ομοσπονδια": 7254,
      "μπει": 7255,
      "χρεους": 7256,
      "περιφερειακες": 7257,
      "κεντρικου": 7258,
      "2469": 7259,
      "ισολογ": 7260,
      "πρεβεζας": 7261,
      "##xi": 7262,
      "εξακολουθει": 7263,
      "αντικειμενα": 7264,
      "οψιν": 7265,
      "##νοηση": 7266,
      "εκεινα": 7267,
      "τοσα": 7268,
      "ακριβεια": 7269,
      "αμοιβες": 7270,
      "θορυ": 7271,
      "καταταξη": 7272,
      "1968": 7273,
      "ενηλ": 7274,
      "##αινετε": 7275,
      "κρεατος": 7276,
      "νομοθετικου": 7277,
      "τεταρτο": 7278,
      "##τηθηκε": 7279,
      "πληρε": 7280,
      "##πλασια": 7281,
      "απαλλοτριωσης": 7282,
      "##φεις": 7283,
      "γραμμης": 7284,
      "ενισχυσεις": 7285,
      "βασικες": 7286,
      "συντεταγ": 7287,
      "αιτωλοακαρνανιας": 7288,
      "επενδυση": 7289,
      "εξυ": 7290,
      "##γκος": 7291,
      "θεραπευ": 7292,
      "περιεχει": 7293,
      "αποκλειστικη": 7294,
      "##ματικων": 7295,
      "##κατε": 7296,
      "αποκοπη": 7297,
      "226": 7298,
      "δικαιουχου": 7299,
      "δελτιο": 7300,
      "##πληρω": 7301,
      "πλει": 7302,
      "σαφες": 7303,
      "μαλλον": 7304,
      "διαρθρωση": 7305,
      "οποιουδηποτε": 7306,
      "εσπα": 7307,
      "ζητουν": 7308,
      "κοινοβουλευτικη": 7309,
      "ηνωμενων": 7310,
      "αδελ": 7311,
      "κοινωνικα": 7312,
      "artic": 7313,
      "αλλαξει": 7314,
      "2α": 7315,
      "συλλογικων": 7316,
      "##πιων": 7317,
      "καιν": 7318,
      "εφημεριδας": 7319,
      "περιορισμων": 7320,
      "συνδεσης": 7321,
      "ξενων": 7322,
      "ληξης": 7323,
      "##γας": 7324,
      "##θασ": 7325,
      "ζακυν": 7326,
      "φυλακων": 7327,
      "εδωσε": 7328,
      "αποστρατεια": 7329,
      "ειδικους": 7330,
      "411": 7331,
      "##tiv": 7332,
      "##πικου": 7333,
      "##ικοτητα": 7334,
      "μεγαλων": 7335,
      "προκαλε": 7336,
      "προωθει": 7337,
      "ριζ": 7338,
      "3205": 7339,
      "μπορουσαν": 7340,
      "συνιδιοκτησιας": 7341,
      "εκεινων": 7342,
      "##ονταν": 7343,
      "εναντιον": 7344,
      "##παξ": 7345,
      "προσκλη": 7346,
      "θερμαν": 7347,
      "καποδιστρια": 7348,
      "##ριδα": 7349,
      "εδαφους": 7350,
      "##αδ": 7351,
      "##ροπουλος": 7352,
      "νησου": 7353,
      "καινουργ": 7354,
      "##νονται": 7355,
      "συμβουλια": 7356,
      "##for": 7357,
      "οφειλεται": 7358,
      "παρακρα": 7359,
      "κορ": 7360,
      "##ρωνουμε": 7361,
      "δικαιουχοι": 7362,
      "##ρικαν": 7363,
      "ιδιωτικης": 7364,
      "προτασης": 7365,
      "προσφερει": 7366,
      "##εντα": 7367,
      "απορριμματων": 7368,
      "κοινοβουλευτικης": 7369,
      "ρυπαν": 7370,
      "αδιαιρε": 7371,
      "rep": 7372,
      "##ρχος": 7373,
      "##ge": 7374,
      "βαθμους": 7375,
      "πληρους": 7376,
      "ανεργια": 7377,
      "ιδιαιτερο": 7378,
      "επιστροφης": 7379,
      "178": 7380,
      "γρε": 7381,
      "φορολογιας": 7382,
      "επεκτα": 7383,
      "ευαγγελια": 7384,
      "ανικ": 7385,
      "πορτογαλ": 7386,
      "βιας": 7387,
      "ενδο": 7388,
      "##µε": 7389,
      "γεωργικης": 7390,
      "δικηγορων": 7391,
      "αγιας": 7392,
      "χιλιοστα": 7393,
      "βοιωτιας": 7394,
      "διαστα": 7395,
      "ενεργη": 7396,
      "επιμελητων": 7397,
      "διενεργειας": 7398,
      "αναλυτικο": 7399,
      "167": 7400,
      "##οδους": 7401,
      "##ελου": 7402,
      "αλλογενους": 7403,
      "φασ": 7404,
      "συμβουλος": 7405,
      "##λησης": 7406,
      "επιμελειται": 7407,
      "129": 7408,
      "οργανωσεως": 7409,
      "συμφωνουμε": 7410,
      "κλιματικης": 7411,
      "συγκεκριμενων": 7412,
      "##δικος": 7413,
      "προηγουμενου": 7414,
      "σταθμ": 7415,
      "αναγκαιων": 7416,
      "αρω": 7417,
      "απουσιας": 7418,
      "περιπτωσης": 7419,
      "προηγουμενα": 7420,
      "αρρ": 7421,
      "αναφορες": 7422,
      "απευθυνεται": 7423,
      "υπαγεται": 7424,
      "σπυριδωνα": 7425,
      "εσωτερικη": 7426,
      "##lic": 7427,
      "εγγ": 7428,
      "οργανικης": 7429,
      "3ο": 7430,
      "##μελες": 7431,
      "au": 7432,
      "κατοχυ": 7433,
      "##ζομενων": 7434,
      "ατε": 7435,
      "αρχισει": 7436,
      "##μπη": 7437,
      "ηλεκτρικης": 7438,
      "καστοριας": 7439,
      "καταναλωτων": 7440,
      "επικουρου": 7441,
      "χρηματοπιστω": 7442,
      "συμπεριφορα": 7443,
      "##ριδη": 7444,
      "κοντα": 7445,
      "φτια": 7446,
      "βεβαιωσεις": 7447,
      "συνιστα": 7448,
      "οργανου": 7449,
      "##νες": 7450,
      "##ill": 7451,
      "##ποιησει": 7452,
      "511": 7453,
      "##ιωτη": 7454,
      "ξενοδοχεια": 7455,
      "ηλικιω": 7456,
      "χαρακτηρισμος": 7457,
      "καταναλωσης": 7458,
      "πολεως": 7459,
      "εισφορα": 7460,
      "πληροφορησης": 7461,
      "γνωμα": 7462,
      "δινεται": 7463,
      "πραγματοποιηθει": 7464,
      "συγχρηματο": 7465,
      "##μεται": 7466,
      "τεχνολογων": 7467,
      "καταστηματα": 7468,
      "##τυπη": 7469,
      "##μισθ": 7470,
      "προθεση": 7471,
      "αριστει": 7472,
      "ισοδυνα": 7473,
      "νικολ": 7474,
      "κανελ": 7475,
      "χρησιμοποιει": 7476,
      "εφαπαξ": 7477,
      "cont": 7478,
      "παραχωρηση": 7479,
      "διδακτο": 7480,
      "##κυκ": 7481,
      "περιορισμο": 7482,
      "εκπροσωπει": 7483,
      "##ik": 7484,
      "γιατρων": 7485,
      "##λιεργ": 7486,
      "ντο": 7487,
      "υιοθε": 7488,
      "πολιτιστικης": 7489,
      "θεωρει": 7490,
      "αρκαδιας": 7491,
      "φαινονται": 7492,
      "##τεθουν": 7493,
      "δισεκατομμυ": 7494,
      "περασει": 7495,
      "μεταβιβα": 7496,
      "εξετασης": 7497,
      "αναθεωρη": 7498,
      "417": 7499,
      "λογιστηριου": 7500,
      "##ζομαστε": 7501,
      "καταστατικου": 7502,
      "συνδεση": 7503,
      "πυροβολ": 7504,
      "ιδιοτητα": 7505,
      "πληροφορουμε": 7506,
      "δεον": 7507,
      "υπηρεσιακες": 7508,
      "ανακλη": 7509,
      "γραμμων": 7510,
      "##mp": 7511,
      "νικολαο": 7512,
      "βουλγ": 7513,
      "θεοδωρα": 7514,
      "ντα": 7515,
      "γλυ": 7516,
      "κυριας": 7517,
      "##ure": 7518,
      "διατηρει": 7519,
      "##λαου": 7520,
      "ανοιχ": 7521,
      "αντιστοιχου": 7522,
      "γραφειοκρα": 7523,
      "μπορεσουμε": 7524,
      "εμβολ": 7525,
      "πραγματων": 7526,
      "λοβερ": 7527,
      "επισυ": 7528,
      "διανε": 7529,
      "συστασεως": 7530,
      "κτηνιατρικης": 7531,
      "διαμορφ": 7532,
      "βιοτεχν": 7533,
      "μεταταξη": 7534,
      "βαμβα": 7535,
      "συντονισ": 7536,
      "δακτυ": 7537,
      "##ανος": 7538,
      "προμηθειες": 7539,
      "παπαγεωργ": 7540,
      "συμπληρωσει": 7541,
      "163": 7542,
      "dec": 7543,
      "μεμονω": 7544,
      "γαλακτος": 7545,
      "καλυπτονται": 7546,
      "διακινηση": 7547,
      "φου": 7548,
      "κυρωσεων": 7549,
      "πραγματοποιουνται": 7550,
      "στεγα": 7551,
      "δικαστικη": 7552,
      "φορολογικων": 7553,
      "##ομαστε": 7554,
      "κτηματικης": 7555,
      "##χαλης": 7556,
      "170": 7557,
      "γυναικες": 7558,
      "παραγοντες": 7559,
      "133": 7560,
      "ημαθιας": 7561,
      "τεταρτη": 7562,
      "διαιτη": 7563,
      "αγροτικο": 7564,
      "παρακολουθουν": 7565,
      "ισορρο": 7566,
      "τριανταφυλ": 7567,
      "1577": 7568,
      "##θμη": 7569,
      "εξοπλισμος": 7570,
      "συνορευει": 7571,
      "##ικας": 7572,
      "αργολ": 7573,
      "ληφθουν": 7574,
      "##αινουμε": 7575,
      "προοριζονται": 7576,
      "αλληλογραφιας": 7577,
      "##ριακων": 7578,
      "αποφευ": 7579,
      "ορα": 7580,
      "μετατρε": 7581,
      "μεταφορες": 7582,
      "γεγονοτα": 7583,
      "διανομη": 7584,
      "δηµο": 7585,
      "γρηγοριος": 7586,
      "βασικα": 7587,
      "αδιαιρετου": 7588,
      "αρχεια": 7589,
      "λεφτα": 7590,
      "προσληψεις": 7591,
      "συνοχης": 7592,
      "ποσοστω": 7593,
      "αποτυπ": 7594,
      "συμβασεως": 7595,
      "##σμα": 7596,
      "##στιν": 7597,
      "τουρκια": 7598,
      "στοχευ": 7599,
      "γνη": 7600,
      "πρωτοβουλιες": 7601,
      "min": 7602,
      "συγκρου": 7603,
      "##ξω": 7604,
      "παραμει": 7605,
      "υποψηφιοτητας": 7606,
      "ασφαλιστικο": 7607,
      "διαστη": 7608,
      "φυλαξη": 7609,
      "μηχανολογων": 7610,
      "##ρακα": 7611,
      "τιθενται": 7612,
      "παραλαμβανει": 7613,
      "γερασι": 7614,
      "##ρνα": 7615,
      "ενε": 7616,
      "τιποτε": 7617,
      "ενθαρ": 7618,
      "##αρες": 7619,
      "πληρουν": 7620,
      "προχωρησουμε": 7621,
      "υφισταμενων": 7622,
      "ορισμο": 7623,
      "αντιπροεδρου": 7624,
      "συνδεσμου": 7625,
      "προσθηκη": 7626,
      "##τροπης": 7627,
      "δικαιουχος": 7628,
      "τελικο": 7629,
      "001": 7630,
      "παρασκευης": 7631,
      "θετικο": 7632,
      "ανανεωση": 7633,
      "αποτελε": 7634,
      "ελλειψει": 7635,
      "ελαφ": 7636,
      "οφειλων": 7637,
      "##μεσ": 7638,
      "αντιγραφα": 7639,
      "κανεναν": 7640,
      "αντιστα": 7641,
      "πολεμου": 7642,
      "δευτερολογια": 7643,
      "ανακατα": 7644,
      "προετοιμασια": 7645,
      "##ιακων": 7646,
      "##τιμο": 7647,
      "γμα": 7648,
      "ιρ": 7649,
      "comp": 7650,
      "επανεξε": 7651,
      "χρησιμοποιηση": 7652,
      "καθενας": 7653,
      "comm": 7654,
      "παρουν": 7655,
      "λειτουργιες": 7656,
      "βρεφονηπια": 7657,
      "φιλιππος": 7658,
      "ροδοπης": 7659,
      "βελτιωσης": 7660,
      "χρηματικων": 7661,
      "##τικον": 7662,
      "θετικα": 7663,
      "πολυγων": 7664,
      "πετρου": 7665,
      "189": 7666,
      "228": 7667,
      "συναφεις": 7668,
      "αναπλη": 7669,
      "##ελθει": 7670,
      "προισταμενοι": 7671,
      "##ληνης": 7672,
      "μεγαλης": 7673,
      "σαφως": 7674,
      "αναλογως": 7675,
      "αση": 7676,
      "μερικη": 7677,
      "##λογιαννης": 7678,
      "δωσετε": 7679,
      "αποτελεσματικο": 7680,
      "προοπτικη": 7681,
      "δειχνει": 7682,
      "προσαυξη": 7683,
      "προσφατα": 7684,
      "article": 7685,
      "μικρη": 7686,
      "απλη": 7687,
      "περιφερειακο": 7688,
      "##φας": 7689,
      "κοντο": 7690,
      "συνταχθηκε": 7691,
      "##τησε": 7692,
      "προοδο": 7693,
      "μερων": 7694,
      "θω": 7695,
      "υδατο": 7696,
      "##λικο": 7697,
      "φυλλου": 7698,
      "##φορου": 7699,
      "απορρε": 7700,
      "ζημιες": 7701,
      "δρυ": 7702,
      "δημοτικες": 7703,
      "θεσμικο": 7704,
      "συγκεντρωνει": 7705,
      "επιβαλλει": 7706,
      "καθαρα": 7707,
      "##γι": 7708,
      "##στος": 7709,
      "αποφασισε": 7710,
      "απολυτηριο": 7711,
      "παρανομη": 7712,
      "##λιως": 7713,
      "κερδη": 7714,
      "σπουδαστων": 7715,
      "οριογραμμη": 7716,
      "##τιζει": 7717,
      "αρχας": 7718,
      "νερο": 7719,
      "ιχθυ": 7720,
      "αντιμετωπιζει": 7721,
      "περιφερειαρχη": 7722,
      "αρχην": 7723,
      "παθη": 7724,
      "##if": 7725,
      "127": 7726,
      "αγωνες": 7727,
      "διεξαγωγης": 7728,
      "παναγιωτα": 7729,
      "ουσιων": 7730,
      "πολλους": 7731,
      "##πς": 7732,
      "αγια": 7733,
      "τελειωνω": 7734,
      "##βοη": 7735,
      "##αλυπ": 7736,
      "##ικοτητας": 7737,
      "λεγα": 7738,
      "κατασκευων": 7739,
      "any": 7740,
      "πευ": 7741,
      "καταρτιζει": 7742,
      "οδοντια": 7743,
      "##ροτητα": 7744,
      "σχολες": 7745,
      "αυτοκινητο": 7746,
      "##der": 7747,
      "αλλιως": 7748,
      "πε1": 7749,
      "εννια": 7750,
      "εγκατεστη": 7751,
      "γγ": 7752,
      "εμπορικη": 7753,
      "εκαναν": 7754,
      "πολιτης": 7755,
      "αερα": 7756,
      "ρυθμισεων": 7757,
      "##κιο": 7758,
      "χρηματοοικονομ": 7759,
      "##μηθει": 7760,
      "βλεπω": 7761,
      "μ2": 7762,
      "ολι": 7763,
      "μαρτυ": 7764,
      "αριστερα": 7765,
      "επιδει": 7766,
      "ανθρωπο": 7767,
      "απολυτα": 7768,
      "κοινοτητες": 7769,
      "πολη": 7770,
      "##προσ": 7771,
      "παρακαταθηκης": 7772,
      "στατιστικων": 7773,
      "εκδοσεις": 7774,
      "##τατο": 7775,
      "βρισκο": 7776,
      "165": 7777,
      "##γχαν": 7778,
      "οδος": 7779,
      "λαζα": 7780,
      "εκτελουνται": 7781,
      "##χιση": 7782,
      "οργανωσεων": 7783,
      "##ισο": 7784,
      "at": 7785,
      "##γειων": 7786,
      "αδειο": 7787,
      "προεδρειο": 7788,
      "υπαρχ": 7789,
      "εκατ": 7790,
      "καταργουνται": 7791,
      "##τυπου": 7792,
      "στοχοι": 7793,
      "εντελως": 7794,
      "παιχν": 7795,
      "τροπου": 7796,
      "επισκεπ": 7797,
      "γερμανια": 7798,
      "##ριω": 7799,
      "εφεξης": 7800,
      "intern": 7801,
      "εφαρμοζει": 7802,
      "απαιτησεων": 7803,
      "##βων": 7804,
      "ουσιαστικη": 7805,
      "ακτινο": 7806,
      "διορθωνεται": 7807,
      "##ερων": 7808,
      "ζωα": 7809,
      "πρωθυπουργο": 7810,
      "απαλλαγει": 7811,
      "φορων": 7812,
      "υφυπουργε": 7813,
      "απαλλοτριωθει": 7814,
      "αρμοδιος": 7815,
      "φαρμακευτικου": 7816,
      "αποδιδ": 7817,
      "φοιτητες": 7818,
      "##θους": 7819,
      "βασικη": 7820,
      "αριστοτελειου": 7821,
      "διατυπωθηκε": 7822,
      "ελευ": 7823,
      "##ταξιου": 7824,
      "##θεσιο": 7825,
      "μασ": 7826,
      "τοπικες": 7827,
      "##λανδ": 7828,
      "υπηρεσιακο": 7829,
      "αυτοτελες": 7830,
      "κλαδους": 7831,
      "οπωρο": 7832,
      "υποβαλλο": 7833,
      "τραγακης": 7834,
      "διαχειριζεται": 7835,
      "##χειο": 7836,
      "142": 7837,
      "εργαστηριων": 7838,
      "ψυχια": 7839,
      "εξαιρεσιμες": 7840,
      "oxi": 7841,
      "περιεκ": 7842,
      "ξενο": 7843,
      "μαυρο": 7844,
      "this": 7845,
      "προεδρια": 7846,
      "κριτηριων": 7847,
      "##ρουμενων": 7848,
      "##φερα": 7849,
      "εμμε": 7850,
      "συγκυ": 7851,
      "##κεται": 7852,
      "προγραμματισμο": 7853,
      "συναδελφων": 7854,
      "μειζον": 7855,
      "προνομ": 7856,
      "##ματισμου": 7857,
      "111": 7858,
      "αναδειξη": 7859,
      "προσδιορισμο": 7860,
      "##ly": 7861,
      "##τσων": 7862,
      "##ιωσης": 7863,
      "καταλαμβανει": 7864,
      "προκυψει": 7865,
      "διαφορετικη": 7866,
      "##ληθευ": 7867,
      "γειτον": 7868,
      "απουσιαζει": 7869,
      "##τελ": 7870,
      "##θηκα": 7871,
      "173": 7872,
      "μικρων": 7873,
      "παυλος": 7874,
      "περικο": 7875,
      "##λαιου": 7876,
      "συνεργεια": 7877,
      "##διαγραμμα": 7878,
      "176": 7879,
      "ποιοι": 7880,
      "επενδυτικου": 7881,
      "επαληθευ": 7882,
      "προσωρινης": 7883,
      "χασ": 7884,
      "συγκλη": 7885,
      "εκτακτης": 7886,
      "μονομελους": 7887,
      "εκπροσωπου": 7888,
      "επιλεξι": 7889,
      "εργολαβ": 7890,
      "αξιοποιησης": 7891,
      "συντομα": 7892,
      "##κτο": 7893,
      "σκεφ": 7894,
      "προβλεπομενη": 7895,
      "μετονομασια": 7896,
      "νοε": 7897,
      "κοσμου": 7898,
      "πινακι": 7899,
      "ηρθε": 7900,
      "##λημ": 7901,
      "καλουνται": 7902,
      "χερια": 7903,
      "ταξεως": 7904,
      "μισο": 7905,
      "βυρων": 7906,
      "##ber": 7907,
      "προοδου": 7908,
      "κρατικη": 7909,
      "τιτλου": 7910,
      "αποζημιωσεις": 7911,
      "προυπ": 7912,
      "τεχνης": 7913,
      "τουριστικων": 7914,
      "μυτι": 7915,
      "##υπασ": 7916,
      "ουσιες": 7917,
      "##χειας": 7918,
      "δημιουργησει": 7919,
      "γρεβ": 7920,
      "φακελο": 7921,
      "μανω": 7922,
      "##τασ": 7923,
      "φορολογια": 7924,
      "απογευματιν": 7925,
      "ταξινομη": 7926,
      "θεωρηση": 7927,
      "θωμα": 7928,
      "χρονοδιαγραμμα": 7929,
      "1958": 7930,
      "κωνσταντινο": 7931,
      "##ποιησεις": 7932,
      "συναρμο": 7933,
      "συνυπο": 7934,
      "τερματισ": 7935,
      "απαγορευση": 7936,
      "ομιλια": 7937,
      "καθημερινα": 7938,
      "αγγε": 7939,
      "##λαιας": 7940,
      "##est": 7941,
      "ορκω": 7942,
      "μικρομεσ": 7943,
      "αναλογη": 7944,
      "ανθυ": 7945,
      "##ther": 7946,
      "app": 7947,
      "πατερας": 7948,
      "μπενακη": 7949,
      "γεωργιαδης": 7950,
      "κατευθυνσεις": 7951,
      "##φυλακων": 7952,
      "απαιτουμενα": 7953,
      "αμοι": 7954,
      "ληξιαρχ": 7955,
      "αποδοχης": 7956,
      "μκ": 7957,
      "εκλεκτο": 7958,
      "κυριακος": 7959,
      "δειγματο": 7960,
      "##γγει": 7961,
      "γλωσσ": 7962,
      "##ποιησεως": 7963,
      "ενδιαφερομενοι": 7964,
      "ασφαλιστικα": 7965,
      "πιεριας": 7966,
      "##κτικων": 7967,
      "εκδιδονται": 7968,
      "περιορισμους": 7969,
      "##υντα": 7970,
      "πιστοποιητικου": 7971,
      "παρακαταθεση": 7972,
      "φακελου": 7973,
      "ελεγχοι": 7974,
      "μεταπτυχιακο": 7975,
      "##ρχο": 7976,
      "τροποποιησεως": 7977,
      "αξονα": 7978,
      "κεκ": 7979,
      "εγκρισεις": 7980,
      "καταναλωση": 7981,
      "ποσον": 7982,
      "φρου": 7983,
      "ανθυπασ": 7984,
      "ξεχω": 7985,
      "αριθμη": 7986,
      "##λογιων": 7987,
      "##σκου": 7988,
      "επαναληψη": 7989,
      "οικειας": 7990,
      "ιονιων": 7991,
      "##κηπευ": 7992,
      "νυκ": 7993,
      "κατοικους": 7994,
      "λεωνιδας": 7995,
      "εκλογης": 7996,
      "##στηρια": 7997,
      "σχεδιαζει": 7998,
      "καθηγητες": 7999,
      "περικ": 8000,
      "υπουργικου": 8001,
      "προτεραιοτητας": 8002,
      "επιβαρυνση": 8003,
      "συσ": 8004,
      "πυροσβεστικου": 8005,
      "##λογικες": 8006,
      "αυτοκινητα": 8007,
      "αμφιβ": 8008,
      "φυσης": 8009,
      "οικεια": 8010,
      "##τσιου": 8011,
      "πρωι": 8012,
      "ζωνες": 8013,
      "παιρνουν": 8014,
      "320": 8015,
      "##ζου": 8016,
      "οικογενειας": 8017,
      "σαββα": 8018,
      "τολ": 8019,
      "εκσυγχρονισμος": 8020,
      "##λωσης": 8021,
      "προκει": 8022,
      "φορολογου": 8023,
      "αχι": 8024,
      "προηγουμενες": 8025,
      "κυριων": 8026,
      "##ance": 8027,
      "παγκοσμιο": 8028,
      "επαγγελματικων": 8029,
      "##ετους": 8030,
      "διοικειται": 8031,
      "αρρενων": 8032,
      "προει": 8033,
      "φροντισ": 8034,
      "ιδιωτικη": 8035,
      "κτηματολογικο": 8036,
      "παραμε": 8037,
      "ενοτητες": 8038,
      "ερχομαι": 8039,
      "εφημερις": 8040,
      "μπε": 8041,
      "κεφαλαιαγορας": 8042,
      "φλωρινας": 8043,
      "συνδρομης": 8044,
      "##γνωση": 8045,
      "ανακυκ": 8046,
      "τοι": 8047,
      "λιμ": 8048,
      "ιππο": 8049,
      "λειτουργιων": 8050,
      "ζητου": 8051,
      "εξουσιοδοτη": 8052,
      "διδασκαλιας": 8053,
      "εμπειρογνωμον": 8054,
      "πον": 8055,
      "δωρεες": 8056,
      "2018": 8057,
      "4038": 8058,
      "οπωσδηποτε": 8059,
      "ημεδαπης": 8060,
      "ναυτο": 8061,
      "##πιας": 8062,
      "θανατου": 8063,
      "##rac": 8064,
      "ουδε": 8065,
      "διαταγματα": 8066,
      "νυχτε": 8067,
      "μισθοδοσιας": 8068,
      "πρωτοτυπα": 8069,
      "ανωτατης": 8070,
      "προγραμματισμος": 8071,
      "διαβεβ": 8072,
      "αποδειξη": 8073,
      "247": 8074,
      "παραμενουν": 8075,
      "κομο": 8076,
      "##ωνιας": 8077,
      "350": 8078,
      "αναφερομαι": 8079,
      "διοριστεων": 8080,
      "ρυθμισης": 8081,
      "υπερβολ": 8082,
      "κληροδο": 8083,
      "πρακτικου": 8084,
      "κινητρο": 8085,
      "συναδελφο": 8086,
      "##νατε": 8087,
      "αντισυντα": 8088,
      "πλειοψηφιας": 8089,
      "430": 8090,
      "τηλεορα": 8091,
      "προερχεται": 8092,
      "κομματι": 8093,
      "ευρυθμη": 8094,
      "τακτικων": 8095,
      "ημερησιας": 8096,
      "ολομελειας": 8097,
      "μητσοτακης": 8098,
      "επιβατων": 8099,
      "διαφθο": 8100,
      "παρουσιαζει": 8101,
      "χημικων": 8102,
      "πρυτανικης": 8103,
      "βερο": 8104,
      "ενυπο": 8105,
      "παρατα": 8106,
      "χωρη": 8107,
      "περιεχουν": 8108,
      "##διδο": 8109,
      "##μονται": 8110,
      "181": 8111,
      "##φωνα": 8112,
      "##σασ": 8113,
      "δασκα": 8114,
      "βρεφονηπιο": 8115,
      "μιλατε": 8116,
      "αλληλογραφια": 8117,
      "##ere": 8118,
      "##ty": 8119,
      "απαντησω": 8120,
      "κινηματος": 8121,
      "βαρυ": 8122,
      "##φιους": 8123,
      "κληρονομιας": 8124,
      "εγκαταλει": 8125,
      "κερδοσκο": 8126,
      "μερ": 8127,
      "μεγεθος": 8128,
      "θετει": 8129,
      "##θετησης": 8130,
      "διαφορο": 8131,
      "ζακυνθου": 8132,
      "εταιριας": 8133,
      "##χως": 8134,
      "εγκυ": 8135,
      "διαπραγματευσεις": 8136,
      "πληρεξου": 8137,
      "εξυγιαν": 8138,
      "εκπονη": 8139,
      "εκθε": 8140,
      "χαρι": 8141,
      "πτω": 8142,
      "##τεχνιτων": 8143,
      "πατριδα": 8144,
      "##ci": 8145,
      "les": 8146,
      "τριτον": 8147,
      "εποπτευει": 8148,
      "##ασεων": 8149,
      "##αινω": 8150,
      "επιφανειας": 8151,
      "κηρυξης": 8152,
      "προεκυ": 8153,
      "##ετιας": 8154,
      "ακρι": 8155,
      "αντιμετωπισης": 8156,
      "208": 8157,
      "συνιστωμενη": 8158,
      "##λθε": 8159,
      "οικογενειες": 8160,
      "εθνικες": 8161,
      "##ρινο": 8162,
      "ανασ": 8163,
      "ρυθ": 8164,
      "κληρω": 8165,
      "κινητη": 8166,
      "συνεργασ": 8167,
      "διεκπεραιωσης": 8168,
      "συντρεχουν": 8169,
      "ανταγωνιστικοτητα": 8170,
      "αριθμους": 8171,
      "διενεργει": 8172,
      "##la": 8173,
      "αλυ": 8174,
      "βελτιω": 8175,
      "ισοτιμιας": 8176,
      "πρεσβ": 8177,
      "2517": 8178,
      "##ωρο": 8179,
      "απλου": 8180,
      "##τινου": 8181,
      "φορολογικη": 8182,
      "υδατων": 8183,
      "παραγραφοι": 8184,
      "επιβαλλονται": 8185,
      "πινακων": 8186,
      "εξευ": 8187,
      "σεβ": 8188,
      "##ρινε": 8189,
      "αχιλ": 8190,
      "##τειχε": 8191,
      "ελληνα": 8192,
      "στει": 8193,
      "ρυθμιζονται": 8194,
      "##ριθμ": 8195,
      "τοπικου": 8196,
      "συμπαρα": 8197,
      "ες": 8198,
      "##προσθε": 8199,
      "βγ": 8200,
      "##ουλια": 8201,
      "επιτυχια": 8202,
      "λαν": 8203,
      "αποχωρηση": 8204,
      "270": 8205,
      "##αλου": 8206,
      "σοσιαλισ": 8207,
      "900": 8208,
      "εντολες": 8209,
      "τακτικα": 8210,
      "δημιουργηθει": 8211,
      "υποψηφιους": 8212,
      "υπηκο": 8213,
      "κοκκ": 8214,
      "προσοντων": 8215,
      "παρατασης": 8216,
      "##ord": 8217,
      "αναμεν": 8218,
      "διαπιστωθει": 8219,
      "οικοδομικου": 8220,
      "ηγεσια": 8221,
      "ξερει": 8222,
      "καθαριοτητα": 8223,
      "επιτροπου": 8224,
      "αναθεωρησης": 8225,
      "πληρωμες": 8226,
      "τετοιου": 8227,
      "##ποιιας": 8228,
      "χαραλαμπ": 8229,
      "επισυνα": 8230,
      "τεχνιτων": 8231,
      "ξεπ": 8232,
      "ζημια": 8233,
      "##λικων": 8234,
      "καταστατικο": 8235,
      "ιατρου": 8236,
      "##στοπουλος": 8237,
      "νηπιαγωγειο": 8238,
      "εξαγωγης": 8239,
      "κομοτη": 8240,
      "συμπολι": 8241,
      "ταξια": 8242,
      "ετοιμα": 8243,
      "##θωρα": 8244,
      "πρωτοβαθμια": 8245,
      "ληψης": 8246,
      "εξαλλου": 8247,
      "##ρινου": 8248,
      "##νοντας": 8249,
      "κατσι": 8250,
      "πρωτογεν": 8251,
      "αιτησεως": 8252,
      "αμπ": 8253,
      "##κονται": 8254,
      "##δαν": 8255,
      "εντασσεται": 8256,
      "διατηρητεου": 8257,
      "κομμουνιστικου": 8258,
      "υποβα": 8259,
      "##λαμβανουν": 8260,
      "μεταβολες": 8261,
      "##per": 8262,
      "υποκεινται": 8263,
      "υποδομες": 8264,
      "απολυεται": 8265,
      "υποκαταστη": 8266,
      "επανει": 8267,
      "##θεις": 8268,
      "##την": 8269,
      "συνεχιση": 8270,
      "οξυ": 8271,
      "τελους": 8272,
      "νομιμως": 8273,
      "γυμνασιο": 8274,
      "μαρκο": 8275,
      "αιτουν": 8276,
      "145": 8277,
      "ξεκινησει": 8278,
      "μουσικης": 8279,
      "αιτιολογια": 8280,
      "οδηγησει": 8281,
      "δρε": 8282,
      "σπιτι": 8283,
      "πετρελαιου": 8284,
      "ευρωπαικες": 8285,
      "καθηγητων": 8286,
      "διευκρινισ": 8287,
      "αποθηκευ": 8288,
      "μηχανισμο": 8289,
      "συμβουλο": 8290,
      "εξαιτιας": 8291,
      "183": 8292,
      "##μικ": 8293,
      "ευαισθησια": 8294,
      "πλημμυ": 8295,
      "##ινος": 8296,
      "επιλογες": 8297,
      "ecu": 8298,
      "υποκειται": 8299,
      "υδραυλ": 8300,
      "##πτει": 8301,
      "##γραψει": 8302,
      "επιπροσθε": 8303,
      "αγωνων": 8304,
      "μερικα": 8305,
      "ενδιαφερομενων": 8306,
      "ρι": 8307,
      "χειρουργ": 8308,
      "##κτικα": 8309,
      "αναφερθηκε": 8310,
      "συνεισ": 8311,
      "καλλιθε": 8312,
      "##λελευθε": 8313,
      "νομαρχιακου": 8314,
      "δασους": 8315,
      "##ωθηκαν": 8316,
      "πεμπτη": 8317,
      "τεχνολογικης": 8318,
      "εξοφληση": 8319,
      "κυβερνησεων": 8320,
      "οπωροκηπευ": 8321,
      "σχολια": 8322,
      "διαρκη": 8323,
      "παραμονη": 8324,
      "man": 8325,
      "αστε": 8326,
      "εκκλησιας": 8327,
      "αποστα": 8328,
      "##ομετρ": 8329,
      "αποσπα": 8330,
      "ιστοριας": 8331,
      "επιμορφωσης": 8332,
      "στ΄": 8333,
      "ορου": 8334,
      "εξαιρουνται": 8335,
      "αναμορφωση": 8336,
      "##λεν": 8337,
      "συγκεκριμενου": 8338,
      "##λειων": 8339,
      "συναλλαγμα": 8340,
      "παραδιδ": 8341,
      "εκεινους": 8342,
      "1972": 8343,
      "λεγο": 8344,
      "πρακτο": 8345,
      "βαρβα": 8346,
      "προληπ": 8347,
      "##δημο": 8348,
      "ρεθυμνης": 8349,
      "αδυναμια": 8350,
      "υπομνημα": 8351,
      "οροφου": 8352,
      "γεννησης": 8353,
      "αγκ": 8354,
      "σταθμευσης": 8355,
      "ομοιες": 8356,
      "οριζον": 8357,
      "πλω": 8358,
      "##καλλιεργ": 8359,
      "στρεμ": 8360,
      "ειρηνοδικ": 8361,
      "βπ": 8362,
      "εντυπωση": 8363,
      "εαυ": 8364,
      "##γιο": 8365,
      "προβαλ": 8366,
      "ολοκληρο": 8367,
      "βουλευτου": 8368,
      "συνεπαγεται": 8369,
      "αποθηκη": 8370,
      "ψηφισουμε": 8371,
      "αυτοψ": 8372,
      "πυροβολικου": 8373,
      "καταστει": 8374,
      "καθοριζ": 8375,
      "κινδυνος": 8376,
      "##τραπει": 8377,
      "τυπος": 8378,
      "δεκτες": 8379,
      "τεχνων": 8380,
      "##ven": 8381,
      "ορυ": 8382,
      "##ειγ": 8383,
      "##ιζομενης": 8384,
      "καταδικασ": 8385,
      "##τιθε": 8386,
      "sta": 8387,
      "φορτη": 8388,
      "υε16": 8389,
      "αφορουσε": 8390,
      "##ou": 8391,
      "ετησιων": 8392,
      "εφοδιασμου": 8393,
      "στρατο": 8394,
      "υποδομη": 8395,
      "λογοι": 8396,
      "##γραφια": 8397,
      "κριτηριο": 8398,
      "δασκαλ": 8399,
      "εμπιστευ": 8400,
      "εκλογων": 8401,
      "διακοσιων": 8402,
      "κωλυματος": 8403,
      "##τησουμε": 8404,
      "προκαλουμενη": 8405,
      "ανεξαρτητως": 8406,
      "μνημειων": 8407,
      "sa": 8408,
      "στρω": 8409,
      "συμπληρωσης": 8410,
      "δινουν": 8411,
      "εκπαιδευτικης": 8412,
      "συμβιβασ": 8413,
      "164": 8414,
      "##αρκ": 8415,
      "μοσ": 8416,
      "κουτσου": 8417,
      "εκπληρωσης": 8418,
      "me": 8419,
      "συγχωνευ": 8420,
      "μετακινησης": 8421,
      "σωτηρης": 8422,
      "καλυπτεται": 8423,
      "εκπροσωπων": 8424,
      "λευκαδας": 8425,
      "παιδικων": 8426,
      "##θενα": 8427,
      "ζητηθει": 8428,
      "χατζηγακης": 8429,
      "##φαρ": 8430,
      "εισπραξης": 8431,
      "ινστιτουτου": 8432,
      "αντιστοιχους": 8433,
      "λυκειο": 8434,
      "δεσμευσεις": 8435,
      "οικισμο": 8436,
      "φορους": 8437,
      "ζαχαρης": 8438,
      "##κατο": 8439,
      "acc": 8440,
      "se": 8441,
      "δημοσιευμα": 8442,
      "ελευσι": 8443,
      "##δεδειγ": 8444,
      "περιορισμοι": 8445,
      "συμφωνω": 8446,
      "καθηγητης": 8447,
      "συλλογος": 8448,
      "προσφυγων": 8449,
      "μω": 8450,
      "αποτελεσματικοτητας": 8451,
      "μεγιστη": 8452,
      "περας": 8453,
      "στεφανος": 8454,
      "διαγραφεται": 8455,
      "ζητειται": 8456,
      "ψαρου": 8457,
      "συμμορφωσης": 8458,
      "μαρα": 8459,
      "ασφαλιστικη": 8460,
      "##καμε": 8461,
      "κειμενη": 8462,
      "εδε": 8463,
      "κυριοτητα": 8464,
      "φαινομενο": 8465,
      "αντιτυπο": 8466,
      "αναγνωρισης": 8467,
      "κης": 8468,
      "σκανδα": 8469,
      "λαφα": 8470,
      "εθνων": 8471,
      "υποδοχης": 8472,
      "προσληψεων": 8473,
      "προσδιοριζονται": 8474,
      "##ελης": 8475,
      "στεργ": 8476,
      "εκπαιδευτικη": 8477,
      "εμενα": 8478,
      "υπηρεσιακη": 8479,
      "##αντι": 8480,
      "##σιους": 8481,
      "μεταποιη": 8482,
      "καταχωρη": 8483,
      "##ττακης": 8484,
      "es": 8485,
      "πτερυγες": 8486,
      "μηνυμα": 8487,
      "κοινοχρηστο": 8488,
      "πρακτικες": 8489,
      "παρισ": 8490,
      "##τατα": 8491,
      "ευθυ": 8492,
      "καταθεσω": 8493,
      "πολυτεκ": 8494,
      "προσχολ": 8495,
      "εκτο": 8496,
      "αγαθων": 8497,
      "επικρατεια": 8498,
      "εγγραφει": 8499,
      "427": 8500,
      "επιτευχθει": 8501,
      "θυμα": 8502,
      "ενσωματω": 8503,
      "ριζο": 8504,
      "ηλεκτρονικου": 8505,
      "ανωτατων": 8506,
      "υπολει": 8507,
      "##τροι": 8508,
      "δερ": 8509,
      "πυρκαγια": 8510,
      "γρεβενων": 8511,
      "παρασκευασ": 8512,
      "agre": 8513,
      "συζυ": 8514,
      "εναρμονιση": 8515,
      "συμβολη": 8516,
      "ενδειξη": 8517,
      "κυριοτητας": 8518,
      "αριθμον": 8519,
      "παραχωρησης": 8520,
      "υψηλης": 8521,
      "υλη": 8522,
      "διππ": 8523,
      "δημιουργουνται": 8524,
      "ηλεκτρονικα": 8525,
      "επικαιρο": 8526,
      "ερμηνευ": 8527,
      "γαλλια": 8528,
      "δημιουργιας": 8529,
      "πιθανο": 8530,
      "##φευ": 8531,
      "##ak": 8532,
      "υπαγωγης": 8533,
      "ενεργει": 8534,
      "##διαφυ": 8535,
      "προσωπικη": 8536,
      "υποστηριζει": 8537,
      "καταλληλοτητας": 8538,
      "ημερας": 8539,
      "2439": 8540,
      "σαλα": 8541,
      "##σκεια": 8542,
      "κανονικη": 8543,
      "##ern": 8544,
      "δημιουργειται": 8545,
      "περιπτ": 8546,
      "ανισο": 8547,
      "κοινοβουλευτικο": 8548,
      "διεκδικη": 8549,
      "συναλλαγες": 8550,
      "##τοις": 8551,
      "ξηρας": 8552,
      "συσταθει": 8553,
      "συζητησεις": 8554,
      "εγγραφως": 8555,
      "επιστημονικων": 8556,
      "παραδοσης": 8557,
      "ελπι": 8558,
      "126": 8559,
      "##λεις": 8560,
      "μηνυ": 8561,
      "εργαλεια": 8562,
      "διπα": 8563,
      "##επθ": 8564,
      "##ξιας": 8565,
      "μιλησει": 8566,
      "γνωριζω": 8567,
      "κινητρα": 8568,
      "νεοι": 8569,
      "βεβαιω": 8570,
      "##erv": 8571,
      "σεισμο": 8572,
      "γενε": 8573,
      "νι": 8574,
      "λογιστικης": 8575,
      "καταλληλη": 8576,
      "νικα": 8577,
      "εφορειας": 8578,
      "ακυ": 8579,
      "##γκαταστα": 8580,
      "δρομος": 8581,
      "κυβερ": 8582,
      "ναρκωτικων": 8583,
      "πυρην": 8584,
      "κεντρικο": 8585,
      "##ιστικης": 8586,
      "υπεπθ": 8587,
      "αντιπαρα": 8588,
      "τσαλ": 8589,
      "πηρε": 8590,
      "αγριν": 8591,
      "ετε": 8592,
      "##τσαλ": 8593,
      "προσφορες": 8594,
      "λοιπους": 8595,
      "σκεπ": 8596,
      "δινουμε": 8597,
      "δευτερα": 8598,
      "λεπτομερεια": 8599,
      "δυσκολο": 8600,
      "προβλεψεις": 8601,
      "2240": 8602,
      "απαντα": 8603,
      "δωμα": 8604,
      "ασχολη": 8605,
      "αθρο": 8606,
      "βαρε": 8607,
      "φορολογικης": 8608,
      "θυμ": 8609,
      "ανακαλειται": 8610,
      "αποδεκτες": 8611,
      "αναψυ": 8612,
      "συχνα": 8613,
      "##ργυ": 8614,
      "χρησιμοποιουν": 8615,
      "λεπτων": 8616,
      "αποτελεσματικοτητα": 8617,
      "221": 8618,
      "πρακτικης": 8619,
      "αποκτησεως": 8620,
      "οχ": 8621,
      "συντονισμος": 8622,
      "αγγελος": 8623,
      "εκπλη": 8624,
      "αλα": 8625,
      "##ατα": 8626,
      "αποσκο": 8627,
      "τουτων": 8628,
      "νεος": 8629,
      "κινηματο": 8630,
      "καρυ": 8631,
      "κυα": 8632,
      "284": 8633,
      "σταθμοι": 8634,
      "αποφασισει": 8635,
      "φιλοξεν": 8636,
      "φετος": 8637,
      "157": 8638,
      "συχνο": 8639,
      "ανακοινωσω": 8640,
      "κολο": 8641,
      "ανακοινωσεις": 8642,
      "δηλωσεων": 8643,
      "πολυγωνικη": 8644,
      "παρεχομενων": 8645,
      "##πουλε": 8646,
      "ψαρουδα": 8647,
      "συντομο": 8648,
      "προυπηρε": 8649,
      "##ist": 8650,
      "ξενα": 8651,
      "προφο": 8652,
      "περιθαλψης": 8653,
      "131": 8654,
      "νηπιαγωγων": 8655,
      "αντιθεση": 8656,
      "##τινη": 8657,
      "πακε": 8658,
      "##κτικη": 8659,
      "##σμενη": 8660,
      "γιαννης": 8661,
      "οδυ": 8662,
      "##γοι": 8663,
      "δομες": 8664,
      "αφαι": 8665,
      "##rans": 8666,
      "ναου": 8667,
      "συνταξι": 8668,
      "186": 8669,
      "γεφυ": 8670,
      "πολεοδομικης": 8671,
      "συνοδο": 8672,
      "δολ": 8673,
      "περιορισμος": 8674,
      "αρκει": 8675,
      "καταβαλλονται": 8676,
      "πιεση": 8677,
      "συλλογη": 8678,
      "λουτρο": 8679,
      "γνωριζουν": 8680,
      "επισημανω": 8681,
      "213": 8682,
      "σιδηροδρομ": 8683,
      "αισθαν": 8684,
      "ατομο": 8685,
      "##τεχνικη": 8686,
      "επιστημονικου": 8687,
      "πρν": 8688,
      "##σιμου": 8689,
      "καθισ": 8690,
      "ταξιδ": 8691,
      "that": 8692,
      "ευρε": 8693,
      "μερικες": 8694,
      "##ονας": 8695,
      "185": 8696,
      "γιωργος": 8697,
      "##εφαλ": 8698,
      "δινετε": 8699,
      "μηκος": 8700,
      "σφαλματος": 8701,
      "μιλησω": 8702,
      "συγχρηματοδο": 8703,
      "σταδιοδρομια": 8704,
      "ποσοστα": 8705,
      "υπερβαση": 8706,
      "4ο": 8707,
      "θυμισω": 8708,
      "προειδο": 8709,
      "ικανοποιηση": 8710,
      "σκαφη": 8711,
      "177": 8712,
      "οικονομου": 8713,
      "γνωμοδοτησης": 8714,
      "##me": 8715,
      "μετοχες": 8716,
      "γραμματειακη": 8717,
      "κεφ": 8718,
      "παραλια": 8719,
      "ανταλλαγη": 8720,
      "ιατρικη": 8721,
      "τροπους": 8722,
      "εκδηλωσεις": 8723,
      "438": 8724,
      "ξεις": 8725,
      "τεραστιο": 8726,
      "υπονο": 8727,
      "εκπληρωση": 8728,
      "παραπεμ": 8729,
      "αμι": 8730,
      "205": 8731,
      "440": 8732,
      "##γκερο": 8733,
      "προσθετη": 8734,
      "διαχειριστη": 8735,
      "τεχνολογικων": 8736,
      "σταθερη": 8737,
      "μεσου": 8738,
      "παγκοσμια": 8739,
      "αξιωματικης": 8740,
      "κεγκερο": 8741,
      "πλευρες": 8742,
      "ευγεν": 8743,
      "βιογραφικο": 8744,
      "προκαλει": 8745,
      "##µατων": 8746,
      "οικειων": 8747,
      "αποτελεσει": 8748,
      "διανοι": 8749,
      "θερμανσης": 8750,
      "ταυτοχρονη": 8751,
      "κεγκερογλου": 8752,
      "##ξο": 8753,
      "καθολ": 8754,
      "εντασσονται": 8755,
      "δυσκολη": 8756,
      "##καθ": 8757,
      "χορηγει": 8758,
      "##τρης": 8759,
      "δεκε": 8760,
      "κλασ": 8761,
      "παπαδημητριου": 8762,
      "πτυχιων": 8763,
      "παυλου": 8764,
      "κορινθου": 8765,
      "θεσπρω": 8766,
      "##ρεται": 8767,
      "αδι": 8768,
      "##λυν": 8769,
      "σεμινα": 8770,
      "##σμους": 8771,
      "μειωσης": 8772,
      "##ank": 8773,
      "καλυπτουν": 8774,
      "ανακατασκευ": 8775,
      "νομαρχιακων": 8776,
      "it": 8777,
      "τελειω": 8778,
      "161": 8779,
      "ολοκληρωσει": 8780,
      "επαγγελματιων": 8781,
      "ετησιο": 8782,
      "εκπροσωπη": 8783,
      "αντιμετωπισουμε": 8784,
      "χορηγουνται": 8785,
      "συνδεονται": 8786,
      "αντιμετωπισει": 8787,
      "φαρμακα": 8788,
      "εμφαση": 8789,
      "πολεοδομια": 8790,
      "ακουσαμε": 8791,
      "γονεις": 8792,
      "##θηκαμε": 8793,
      "μηχανηματα": 8794,
      "χαρη": 8795,
      "αλε": 8796,
      "1188": 8797,
      "επιταχυν": 8798,
      "##ψετε": 8799,
      "ιδιους": 8800,
      "ποσοστου": 8801,
      "ιταλια": 8802,
      "αναφορων": 8803,
      "εμπροθεσ": 8804,
      "εξαντλη": 8805,
      "θαλασσα": 8806,
      "διενεργειται": 8807,
      "μοντελο": 8808,
      "##ιακης": 8809,
      "εξακολουθουν": 8810,
      "μελισ": 8811,
      "λεγοντας": 8812,
      "ικανοτητας": 8813,
      "νσεων": 8814,
      "μεταπτυχιακων": 8815,
      "##γομενων": 8816,
      "3ου": 8817,
      "σημειω": 8818,
      "αιων": 8819,
      "##μπων": 8820,
      "υπερη": 8821,
      "διπααδ": 8822,
      "αμφιβολ": 8823,
      "ημερομηνιας": 8824,
      "υστε": 8825,
      "##io": 8826,
      "ασφαλιστικες": 8827,
      "εξασφαλιζει": 8828,
      "καραμανλης": 8829,
      "συμβει": 8830,
      "##ληξε": 8831,
      "προχει": 8832,
      "ζευ": 8833,
      "2019": 8834,
      "επιθυμει": 8835,
      "κοινες": 8836,
      "διευρυν": 8837,
      "##ιτης": 8838,
      "βασης": 8839,
      "συζητουμε": 8840,
      "παιδικου": 8841,
      "ενδεικτικα": 8842,
      "παραγγελ": 8843,
      "αποσυρ": 8844,
      "ανατιθεται": 8845,
      "πληροφορηση": 8846,
      "##τολογια": 8847,
      "##ιστων": 8848,
      "μικρες": 8849,
      "##fer": 8850,
      "##λογιο": 8851,
      "##φθηκε": 8852,
      "κεφαλλην": 8853,
      "τοποθετη": 8854,
      "τροπολογιας": 8855,
      "επιχειρησιακο": 8856,
      "δημοτικος": 8857,
      "##αριο": 8858,
      "παλαιου": 8859,
      "πολιτειας": 8860,
      "##τιζεται": 8861,
      "qu": 8862,
      "##νευ": 8863,
      "σταθμο": 8864,
      "πηγα": 8865,
      "190": 8866,
      "αερολι": 8867,
      "πολλαπλασια": 8868,
      "εγχει": 8869,
      "παγου": 8870,
      "προση": 8871,
      "##στεγα": 8872,
      "ειδικοι": 8873,
      "τιμολογια": 8874,
      "υποχρεων": 8875,
      "ανθρωπισ": 8876,
      "1892": 8877,
      "per": 8878,
      "μητερα": 8879,
      "επιχειρηματα": 8880,
      "αεπ": 8881,
      "##ρισεως": 8882,
      "##ικοκυ": 8883,
      "##γιων": 8884,
      "τονισω": 8885,
      "ωφελειας": 8886,
      "##βασι": 8887,
      "ne": 8888,
      "κρεμα": 8889,
      "απαλλαγη": 8890,
      "αιτωλ": 8891,
      "μικρα": 8892,
      "ημερησιο": 8893,
      "υπαρξουν": 8894,
      "βελτιωσεις": 8895,
      "νοικοκυ": 8896,
      "##κτων": 8897,
      "ορθοδο": 8898,
      "ποιον": 8899,
      "204": 8900,
      "##ζινα": 8901,
      "συγκεντρωσης": 8902,
      "φαινομενα": 8903,
      "##ομενες": 8904,
      "##σμων": 8905,
      "##βαλαν": 8906,
      "καθοριστει": 8907,
      "επεμβ": 8908,
      "ηλικια": 8909,
      "κατεδα": 8910,
      "230": 8911,
      "μητροπολεως": 8912,
      "##γεις": 8913,
      "γιου": 8914,
      "ιωαννα": 8915,
      "υλων": 8916,
      "κορων": 8917,
      "λοβερδος": 8918,
      "κωλυεται": 8919,
      "συμπερασματα": 8920,
      "περιουσιακων": 8921,
      "##ans": 8922,
      "ανοχη": 8923,
      "σαμα": 8924,
      "##δωσει": 8925,
      "γενικους": 8926,
      "ευστρα": 8927,
      "ομοφωνα": 8928,
      "εορ": 8929,
      "νατ": 8930,
      "οινο": 8931,
      "ηπα": 8932,
      "##μπε": 8933,
      "χρησεως": 8934,
      "ομαλη": 8935,
      "αντιδη": 8936,
      "τετραγωνικων": 8937,
      "ενθαρρυν": 8938,
[...]
