[PAD]
[UNK]
[CLS]
[SEP]
[MASK]
!
"
#
$
%
&
'
(
)
*
+
,
-
.
/
0
1
2
3
4
5
6
7
8
9
:
;
<
=
>
?
@
[
\
]
^
_
`
a
b
c
d
e
f
g
h
i
j
k
l
m
n
o
p
q
r
s
t
u
v
w
x
y
z
{
|
}
~
¡
£
¤
¥
¦
§
¨
©
«
¬
®
°
±
²
³
´
µ
¶
·
¸
¹
º
»
¼
½
¾
×
ß
æ
ð
÷
ø
þ
đ
ħ
ı
ł
œ
ƒ
ʺ
ʼ
ʾ
ˑ
˙
˚
˝
ͺ
΄
α
β
γ
δ
ε
ζ
η
θ
ι
κ
λ
μ
ν
ξ
ο
π
ρ
ς
σ
τ
υ
φ
χ
ψ
ω
ϟ
ϡ
а
б
в
г
д
е
ж
з
и
к
л
м
н
о
п
р
с
т
у
ф
х
ц
ч
ш
щ
ъ
ы
ь
э
ю
я
є
і
љ
њ
؉
᾽
᾿
‐
‒
–
—
―
‘
’
‚
“
”
„
†
•
…
‰
′
″
‹
›
⁄
⁐
ₒ
₤
₪
₫
€
₯
₰
₻
℆
№
℠
™
→
∂
−
∕
∙
√
∼
≈
≤
≥
─
│
■
►
●
◦
☒
♀
❛
❜
〈
脘
舃
ꞏ
##o
##l
##i
##d
##a
##r
##t
##y
##n
##w
##9
##5
##8
##2
##1
##4
##7
##α
##λ
##ι
##ν
##ο
##υ
##σ
##τ
##ρ
##ω
##0
##6
##3
##κ
##ς
##π
##ε
##ζ
##γ
##η
##µ
##φ
##μ
##δ
##v
##χ
##θ
##β
##e
##ξ
##m
##u
##g
##s
##p
##c
##΄
##h
##z
##k
##f
##ψ
##j
##b
##x
##q
##÷
##ß
##°
##∙
##€
##²
##ħ
##с
##о
##ц
##и
##а
##я
##∕
##е
##н
##д
##ϟ
##ˑ
##©
##¬
##ж
##в
##ꞏ
##®
##±
##м
##т
##р
##ы
##ł
##ш
##к
##¨
##˙
##з
##х
##б
##ъ
##´
##г
##ь
##ч
##þ
##¦
##і
##л
##у
##ð
##п
##─
##ø
##¥
##™
##º
##˝
##æ
##э
##³
##њ
##щ
##ю
##ı
##£
##×
##½
##ϡ
##−
##ф
##˚
##≥
##¹
##᾽
##œ
##᾿
##■
##ƒ
##≤
##¾
##є
##љ
##¸
##¼
##∼
##₻
##⁄
##│
##→
##đ
##◦
##❜
##ʺ
##ͺ
##₯
##ου
##ια
##ων
##ικ
##αι
##ης
##ει
##πο
##τα
##ρο
##ρι
##ρα
του
##τη
και
##το
##ση
##εν
με
##μα
##τε
τη
απο
##ον
κα
##τικ
της
##να
συ
##μο
προ
##ισ
το
##ργ
την
##ες
##ιας
##ιο
πα
##ιν
##ρε
##λη
##ται
##λο
επ
υπ
##αν
##με
##τι
##σης
να
των
δια
για
##λα
##λε
##μεν
20
που
##εις
##ρω
αρ
αυ
##ασ
πε
##ουν
##ως
δη
##ος
εκ
##ρη
τι
τα
αν
##ους
ανα
στο
##ομ
επι
##θε
##ολ
##αλ
##των
##ικη
περι
##ευ
στη
##θη
##ουργ
σε
##ρου
##σε
συμ
##ας
κατα
τις
εν
συν
##σι
##ικο
##τος
θε
##φο
##λογ
##χει
##χε
##φα
αρθ
παρα
κυ
##γρα
##εκ
##ικης
##μη
υπο
δημο
200
##ποι
19
θα
προσ
##ιναι
ειναι
##ρισ
##ταξ
στην
##μου
##δο
##ικου
##ριθ
##εται
##γκ
ει
δεν
αριθ
οι
##ικων
κο
##αρ
αλ
##σεις
εξ
##ερ
##θηκ
201
##νη
##ιου
τον
οτι
υπουργ
##ουμε
πολ
##τω
ευ
τους
##πα
τε
οπο
##εδ
διο
αυτο
διαταξ
##τρο
##ρων
αποφα
εργ
##στα
##ρια
##τητα
##θει
##τες
##σο
δι
απ
##υν
##σια
κοιν
##τικα
##φων
ελ
##δα
##φε
##τικης
##ποιη
##οι
##δη
##μμα
##ρον
νο
πο
##τυ
διαταξεις
σχε
##τικη
μη
##διο
##της
μετα
##σα
##ονται
##ηρε
οικ
αποφαση
##τικο
##ουλ
##ικα
##ματα
##ελ
10
##γη
##βα
##σεων
##κο
##θηκε
##τικων
δυ
##γο
δικ
##ονομ
καθ
##γω
οπ
καν
##γραφ
##τικου
γεν
υπηρε
##λει
εχ
##λευ
κυρι
στα
##κα
##του
πρα
διοικη
αριθμ
##ρυ
##στη
φεκ
συμφων
χω
##τηση
##ψη
αρθρο
##00
##ματος
γρα
199
πολι
##ξη
συμβ
αρθρου
##δια
τρο
ασ
##νο
λο
παρ
12
ενα
##ωση
οικονομ
##ριζ
προεδ
##ιζ
##τει
εχει
ως
##πει
##ιων
##μος
11
δημοσι
##σιας
αι
οπως
##ισμου
##χη
##χυ
##ειας
γε
νομ
βα
ση
##ματων
αυτη
##ειου
οποια
οργ
##ειο
πρω
##νω
##που
προσω
##βερ
##χο
##σω
##τους
##λην
##λος
##εργ
##τροπ
τροπο
ειδ
##λων
στι
ακ
##βερνη
ισ
##μι
εμ
μον
δικαι
##σεως
##πε
##ληρω
δε
##θυν
εγκ
##σει
##υπ
μια
##ριου
συμφωνα
χρη
επιτροπ
μα
οργαν
##ρος
κυβερνη
ευρω
##κη
##γγ
ελλην
##τητας
##τρα
##ρει
προβ
##στε
κοινο
ιδ
##μενων
##ιω
στις
##δικ
##μβ
##τισ
αντι
αναπ
πρε
##ταν
##φερε
μπο
φο
15
αλλα
##λι
##εων
##ρας
γεω
##μων
##οντα
##μενο
##φαλ
##ιος
##τερ
μας
πρεπει
συμβουλ
##εια
εργασ
αποφ
##ευθυν
##γραμμα
##λυ
##φη
α΄
αρμο
στον
ισχυ
##αιδ
##τουργ
##λαδ
λει
κανον
14
καθε
##ριο
τμη
##ρευ
εκπ
λειτουργ
##γμα
##αλλη
##ξης
εγ
λα
περιο
##παν
υπαλλη
νε
##τελε
χρον
επισ
σας
##κης
ελε
##εντ
##τικες
##μενα
γεωργ
##λες
##χα
αγ
αποκ
##επ
##λου
γραμμα
##ιστα
##βαλ
##ρες
αποφασ
##ανα
##ινη
##ικες
κρα
##ρχ
##λω
##ριν
υπαρ
13
##φορα
##θν
νομο
εισ
εχουν
γιν
##ρμο
##χαν
##ιες
##μενη
προς
οποιο
συνα
διευθυν
προσωπ
##ειται
προγραμμα
δημου
αρχ
ημε
##εβ
εφα
δυνα
##στο
περιφερε
##μενου
κυριε
##πτω
συγκ
##τον
##ολου
##τευ
ελεγ
##ζη
##σκ
εφαρμο
γραμματε
##γωγ
16
πλη
εκδο
προκ
στοι
##ποιηση
επιχει
##χν
βαθ
επιχειρη
γνω
υπηρεσι
##δων
##δε
##σιο
κοινων
18
##γεν
##τησης
περιπτω
##ισμο
##τια
βου
καθο
αξ
000
πισ
##κρα
##ρουπο
αναπτυ
ανω
17
χα
εθν
πολυ
φυ
##μβαν
30
21
δημοσιευ
25
##ωσης
δεκ
##ουνται
##λογη
##δυ
##μενης
23
προυπο
##πον
αναγκ
##ριων
##οδ
##τοι
αρμοδιο
λογ
ζη
δα
ευρωπα
##μια
198
24
##γα
υγ
##κτη
λε
##ριας
υποψη
##ειων
##σσ
οποι
συμβουλιου
παν
βασ
22
##χολ
##θουν
##γων
##σκευ
##χεια
2007
κλαδ
ολο
##χω
##λια
δασ
##ριση
##υπουργ
##αιν
##οντας
##δικασ
##μενες
υφ
##θεση
##τερο
##μερι
θεση
##τρε
##μαν
ποσο
δρα
ου
οικονομικων
##αιδευ
##αιο
βεβ
##θμ
##ρηση
εδ
πρωτο
31
##γου
αδ
εκπαιδευ
αθη
##πισ
στους
διαδικασ
μπορει
##ταστα
πραγμα
υπηρεσια
##κων
##θα
επιτροπη
υπουργειου
28
παρου
αυτα
##κου
##τητων
προβλε
ρυ
κω
μην
##ιδ
δαπαν
##λον
##ταση
συνε
καθως
δυο
επιτροπης
σχολ
##εντρω
##χρε
26
##λους
##τερα
αμ
γιατι
εργασιας
ιω
εργα
##γγελ
##τητες
##ρους
##ομη
##er
λοι
παρε
δημοκρα
σω
υποχρε
μονο
##on
ιωαν
2010
μηχαν
##ικος
29
27
εφη
##ιβ
00
##ετε
##λαμβαν
τροποποιη
αλλο
##χρι
##τημα
##μον
δευ
μεχρι
##κε
##θρω
##γραφο
βαθμο
κων
##δελ
κατο
##ρουν
βουλευ
##θο
περιπτωση
αποφασης
ελεγχ
##τιν
##ισμος
εφημερι
μου
διοικησης
συστη
ορισ
σημε
##μαρχ
συναδελ
35
##θυ
σα
αντισ
αθ
υπουργου
τεχν
##τρι
β΄
στοιχεια
##φαλισ
##ti
λογω
##σον
##χι
λυ
##λης
2011
γινεται
προυπολογ
ειδικο
αφορα
εται
λι
##μως
περιφερειας
επο
βο
##τουν
νομου
προσωπικου
προιστα
##θηκαν
υπηρεσιων
##μην
##τιας
κατη
εσω
υπαρχει
##χουν
κε
##ρεια
##ινων
προστα
##πι
##νης
οριζ
##τελεσ
εσωτερ
ομο
γραφ
##εκρι
32
2012
υφυπουργ
##τερω
##προ
θεμα
##λαι
##πη
κατηγο
##χης
τμημα
παρακ
δικαιω
οδη
αποκεντρω
##σουμε
##ιστη
##ντα
παραγραφ
##φυ
##λεκ
##ρικης
##εξ
##νας
2013
υπουργος
διαχει
κυβερνησεως
##σταν
σχετικα
εφημεριδα
κλαδου
ενεργ
χαρα
ερω
δικαιο
##φαν
συμπ
σημ
ομως
##λογια
χο
καθορισ
κυβερνηση
##χων
τρι
ιδρυ
αγο
δημη
##λαβ
πει
##θεν
προεδρευ
##σαν
##πων
εκδοθηκε
σημερα
δημοσιου
ισχυει
μι
πι
ιδιο
οχι
γενικου
ανθρω
οταν
##βο
##en
συζη
προεδρε
επικ
38
##βαση
ελληνικης
##es
##ζο
αυτες
αντιστοι
εξης
αυτης
2014
συνεργ
προβλη
νομοθε
##ρηγη
##σου
αξιο
απαι
##νων
##σας
2004
##τομ
υγειας
##συ
νικο
περιβαλ
πληρο
τυ
##γραφη
μεσα
##σταση
εμπο
προι
αλλες
δικαιου
παιδ
##an
κωνσταν
οικο
ολα
##κομ
σκο
λογο
λη
##για
##φερ
περιφερεια
περιβαλλον
πεν
αγρο
ψη
ημερο
##ρις
θεω
##σχε
αναπτυξης
ηταν
ιδια
εκτα
μισ
κατ
καλ
##10
τομε
##τρων
##ματο
##δου
εδω
εργων
παρο
##ρκ
παρον
ασφαλισ
##πουλος
##ημε
##αγγελ
αιτηση
πληροφο
##δες
υπηρεσιας
πλαι
ιδιω
νικολα
αλλη
μαρ
##λοι
τοπο
##ποτε
##γον
##δρο
εχουμε
μεγ
ατ
ηλεκ
##φερον
ακολου
##σουν
γραμματεα
συμπληρω
##γης
##πρα
2008
##οκ
##μης
2001
διοικητικου
συγκεκρι
αποτε
δω
καλυ
##δας
σχεση
λειτουργιας
εχοντας
προεδρευων
##ρισης
επισης
##φοι
##τοποιη
##μιουργ
##δικα
τμηματος
2006
197
αριθμο
##μες
εξο
##μους
ειση
κατε
##τισμου
##βολ
40
##τυχ
εκει
2009
##ωρα
##δει
εγκα
ημερομην
αυτου
##τερη
κωνσταντιν
εξα
##χισ
μονα
##μενος
δημιουργ
κεν
βεβαι
##σιμο
##τας
##κλη
##γωγης
2005
##ιζει
κου
εε
συνταξ
##σιου
εφο
th
##λιας
αυτων
##γωγη
εκα
εφαρμογη
τρα
ναυ
##διου
##σσαλ
##ιζουμε
##ωσεις
αρθρων
υπε
πρακ
υπερ
##28
κεντ
θεσσαλ
συνο
γεωργιος
οποιες
πανα
##in
ανωτερω
μελε
αντα
απαν
##χολη
αποτελεσ
διε
κυριοι
##θμισ
##τικος
εισα
στρα
ενημε
##καν
νομαρχ
ημερομηνια
θεσεις
##εως
εντο
2003
πληρω
##ζεται
##δης
σο
##νομα
βασι
αποφασεις
##μπ
##ζει
προη
##αιου
ελλαδ
νεα
##11
##δηποτε
##ar
##ενδυ
2015
απασ
2000
πραξη
αε
επενδυ
##τρω
αμε
τομεα
εξω
υπηρεσιες
πω
συναδελφοι
υπουργειο
##δασ
μακ
χαρακτη
συνεδ
##τρ
θεματα
οικονομιας
δημοσιευθει
##οντων
αττικης
##φορων
χωρις
##γιω
χι
κανονισμου
##ισχυ
νη
πυ
##τως
μελη
ηλεκτρο
κομ
λειτουργια
##κυ
αναπληρω
##φια
κινη
ενισχυ
συμβουλιο
κυρια
##μνα
##τησεις
αυτην
τοπ
μεταξ
τροποποιηθηκε
##φι
εθνικης
παναγιω
ετος
χωρο
##λλα
φυσ
βιο
##γει
##ρεις
κοινοβ
επει
##πιν
##μενους
δικασ
##λαδη
λοιπον
δηλαδη
συμμε
50
παρακολου
θεσ
δεκα
νοσο
πλο
##χαρισ
δημοκρατιας
νομοσχε
μεταξυ
ευχαρισ
συντα
ενο
##38
##επιστη
τρια
##ηλ
ζω
##ριζεται
##ρφ
τωρα
εγκαταστα
μετρα
εξε
εργο
##μαστε
##ρωση
χορηγη
##αιρε
2002
2016
ξε
προεδρος
δαπανη
συνολ
πριν
στε
##or
εσωτερικων
##δεκ
πανεπιστη
##λιο
##λεια
προηγου
μονι
αντικα
πολε
ια
##σσε
μει
κοσ
##φει
κη
##ουσα
##ωνυ
αντικ
ελληνικου
##νε
##ρισμου
εκτελε
##μενοι
μερι
στοιχει
διαδικασια
παι
προυπολογισμου
δυναμ
κυκ
the
αφο
##τηρη
αρχη
##μυ
βρισ
αφ
μεγα
τροποποιηση
##γνω
διευθυνσης
επιτρε
πολιτικη
##al
##12
εως
αποφασιζουμε
##κες
##τηματα
απαλ
παραι
##λεον
διαπισ
εκτος
##λουν
##πεται
##φερο
##θω
φορο
##σσο
##πεζ
1997
αντιμε
γεγον
##ελτι
εαν
μαθη
χει
πινα
αντιμετω
##χος
##λαχισ
ελλα
##διοικη
κρι
##σιων
34
##γραφης
##λειας
##χεται
##ζονται
μητρω
δυνατο
07
μο
υπαρχουν
χωρα
δημοσιας
ιθα
αθηνων
κεφαλ
01
εκπρο
μικ
εισηγη
δο
συνεδρια
ευρωπαικης
παρακα
σημαν
##μιση
##σων
ιωαννης
##πος
##τσι
##χες
##99
##ουλου
##ειμενου
χρονια
##ασια
ελλαδα
υπαλληλων
επιστη
ονομα
επαγγελ
##λειο
##γγυ
κοινωνικης
ιθαγεν
##αινει
χρονο
##μβριου
υπουργε
θεσσαλον
τραπεζ
##φισ
εγγραφο
##βλη
νομι
##δομ
στ
περα
##σιος
εις
κατασκευ
αθανα
##βολη
##ρουμε
33
90
αυτοδιοικη
##ξεις
εμεις
απασχολη
ωστε
εκπροσω
60
τελευ
##στηριο
διαταξεων
εκπαιδευσης
##χου
ενδια
βρισκ
αθηνα
##20
σελ
##λευθε
##κινη
##λογιας
γινει
ελεγχου
μεγαλ
βοη
καπο
κατω
εγκριση
αποκεντρωμενης
κανονισμο
δραστηριο
φορε
##24
##βασης
σχεδια
εργαζο
##θεσ
αποτελει
εξωτερ
νοσοκομ
δημοσιων
##tion
αλλοδα
γραφειο
χρησιμο
ομα
περιβαλλοντος
##is
τεχ
γενικο
##βι
##ικους
προσωπικο
αποστο
ταμ
##θεσεις
ετους
##ξει
παροντος
##τηρια
##17
##πης
πολιτικης
##θμιση
υποστη
πιστω
##θεια
##λλη
πιο
χωρας
διοτι
βαση
##νου
##90
προστασιας
##τυν
οφει
εργου
κλι
##χετε
χρησ
##τιο
υποβαλ
καταρ
##τεια
εναν
πλαισιο
παραρ
χρηματο
διατα
διαρκ
πιστοποιη
ετη
φι
ισο
παιδειας
παραγραφος
υλ
παπα
λεπ
##πουλου
βουλ
##δοτηση
βαρος
γεγονος
##84
ενω
δαν
##κληρω
εντος
ολοκληρω
καταργ
##ζημι
περιλαμβαν
δευτερο
δημοσιο
υπουργο
προκαλ
υποχρεω
υψ
εχετε
απολυ
92
οσον
πως
##52
36
##σετε
ιθαγενειας
##ταλ
ολες
καθα
συστημα
αποδο
##γραφων
##ινε
γυ
##14
αυξη
αρμοδιοτητων
ερ
περισσο
επειδη
##εδον
οπου
97
περ
ασφα
##χωρη
##μευ
##συν
αποζημι
ουτε
1999
##λεξ
##μακ
περιοχη
##ψης
αντικει
εδα
βιβ
μακεδον
##50
70
##ριες
ειτε
συγ
##πανω
ενος
περιε
##ειες
δικτυ
ρυθμισ
##ουλευ
02
λπ
##ρης
μελων
##σες
παραπανω
νικολαος
συνθηκ
##τειται
ερευ
νεας
συμβασ
37
##λειου
κοινη
χρονου
##μορφ
##λας
φω
καταστα
τιτ
κηρυ
κι
ετσι
παρουσα
ασκη
γι
προκειμενου
κει
υλο
θεσσαλονικης
καθη
ακινη
αστυν
εφοσον
98
εοκ
##γες
εκδοση
τεχνο
πεντε
##58
##βολης
##πεδ
προταση
εσ
αφορουν
αρθρ
##ικοινων
εγω
##30
διαφο
##λικη
οδηγ
99
αναπτυξη
##ριβ
ποιο
εντολη
πανεπιστημ
δεσ
αποτελεσμα
αγορα
νομοσχεδιο
ταυ
κοινοτητας
##μοι
##ur
##τριος
δημοτικου
##θηση
επανα
μεριμνα
εγινε
κτι
δημητριος
ειχε
##κος
εξετα
04
οκ
ευχαριστω
ηλεκτρον
##te
##λικ
συλ
##ροι
06
χιλια
##περι
##αιων
##32
##ρειας
αρμοδιοτητες
##γματα
94
ελευθε
##ιζεται
in
αναδασ
##τικους
##16
ναι
##τεχν
μακεδονιας
κωνσταντινος
##ριζονται
μπ
τακ
##τομμυ
##κηρυ
of
##φερεται
##ιση
κωδικα
1992
επωνυ
ενωσης
δικη
##θεσης
δημοκρατια
υπα
προμη
τουλαχισ
##18
##39
##τιου
κανει
γενικης
αθλη
εκταση
σπου
αντιπρο
συζητηση
##μηχαν
##βε
προσπα
αστυνομ
αναλογ
ηθε
##γγε
##ιζω
λογισ
ιδιαι
εδαφ
επαγγελμα
αλλων
υε
ερωτηση
εσεις
##ζι
03
##μαρ
σημειο
μπορουν
##49
##σμου
γεννη
κλ
τηρηση
##ποιησης
##αρια
κρατους
τουλαχιστον
ολων
απα
##μαι
αναγνω
05
##φρα
θρη
πανω
επιμε
##22
αρμοδ
##τυπ
γενικος
##ic
80
γεωργιου
αποσ
προβλημα
ενας
##πους
οσο
##λικης
##60
εκτελεση
##69
προγραμματος
αερο
ορ
κανονισμος
ομογεν
ολοι
1994
##κολ
μελος
08
μαλ
βουλης
σχεδιου
λαμβαν
κυριες
##πλ
##τουμε
##θυνη
βελτι
##πεδο
οργανισμου
υποστηρι
ουσια
##ρικη
διευθυνση
##εμβριου
09
##40
ελλαδας
##βαθμ
θρησκευ
φα
##ουλιου
κυβερνησης
##ενα
##68
τετο
βαρ
##ληψη
σταθ
ανταγων
τηλε
ειπα
γραμματεας
επιση
95
εκθεση
##τηρηση
δει
##θεω
επιβ
αμο
πη
καλα
##μιας
πρωθ
δημητ
βε
αιτησης
προτα
##ενεργ
πρωθυπουργ
οποιος
##ωτε
##ηντα
##ξια
##el
##φερονται
εξαιρε
ελεγχο
##ιως
##λογων
##πασ
##ρακ
αξιολογη
μερος
προσωπο
2017
μιας
οργανα
απαρ
τοτε
##κει
##23
##φορας
παραιτησης
διοικητικης
##λεται
δικαιολογη
παραγραφου
νομαρχια
διαχειρισης
39
##ψει
##σμο
διεθν
100
προγραμματων
##γματος
τελος
##μισ
πλειο
συνεργασια
οριζεται
##φυλα
φορα
στοιχειων
κυκλο
υφυπουργος
υπαλληλου
παρουσας
συμμετο
μητρωο
##τικοτητα
νσης
##χθει
αποκτηση
##τειας
αργ
πλεον
##γε
ελληνικη
ποσοστο
δυσ
##19
καθηκ
ηθελα
θεματων
##πυ
επιχειρησης
προιοντων
##χους
χρηση
κατηγοριας
συνολο
σι
εξου
##χρον
αναφερεται
##ρασ
an
εβ
85
βουλη
σωμα
αντικαταστα
##κι
ακριβ
κατασταση
ωρα
πλειοψη
εφαρμογης
οκτω
θεσεων
παναγιωτης
##τηριο
γνωριζ
##37
κατηγορια
συμβαση
κατασ
##27
ηδη
υποψηφ
δυνατοτητα
##ation
1995
αναγκες
καρ
γεωργιας
##ρισμο
διευ
96
##χον
##ανδ
δημοσια
κρατος
##ξεων
##σιν
μετρων
##ro
προκαλειται
γραμ
ισχυουν
##τροφ
εναρ
θρησκευματων
##re
εργασια
βουλευτες
##μενως
##τοτε
##λωση
υπολογ
##φθει
##πονται
χωρων
##νομ
ανε
φαρ
##τηριου
πολιτισμου
1998
ρυθμιση
απαλλο
γνωμο
##57
προσδιο
##στερα
αναδασωτε
##ινδ
κλη
ανθρωπιν
μισθο
διοικητικων
ανη
χορηγηση
επιστημον
##σιες
συγκρο
παραρτημα
αρθρα
##αριου
διενεργ
στελε
αδειας
στιγ
##δεικ
##τρια
ιδιοκτη
##στημα
ανδ
θελω
δημαρχ
##πια
αποδεκ
##47
ευρωπαικη
κρατη
βιομηχαν
1996
καθορισμος
διαρκεια
ταυτο
πλα
##it
γ΄
συνδε
##80
τιμη
##τζ
κυρω
##ποιειται
##λιου
τοποθε
τελευτα
##βασ
κερ
δεδο
καθηγη
##δι
##καλ
υπαλληλος
##13
προκηρυ
εσο
πολεοδ
αρχει
υπη
προστασια
αλεξ
ειχα
##ρακης
δεσμευ
##ισμων
παραγραφο
κυκλοφο
επε
βρισκεται
αδεια
##ινδυν
αναστα
87
49
εικο
αναλυ
απορ
διορ
διοικηση
αμοιβ
ειδικοτερα
##55
διακο
απαραι
υπουργων
συλλογ
δυναμικου
βουλευτης
αυτος
##ρισμος
κατι
##συνης
##τησει
χρεια
3528
υγει
απαλλοτρι
##θεσεων
κατεθε
επικοινων
σχεδιο
παραγωγ
93
de
μεσω
##πολι
ιδιωτικου
43
περιπτωσεις
αρισ
εποπ
διν
ανακο
αυτον
προτει
πιστευ
κρη
##τησεων
##ηση
σκοπο
εκτι
προβλεπεται
οργανωση
αναφερονται
##ικοι
προκειται
αιγ
##σαμε
συστα
##βαθμιας
περιεχο
##θων
##τικοι
##66
ιωαννη
συσταση
πολεοδομ
απασχολησης
ρο
κατοικ
εμβα
##ισταται
ανεξ
υγειονομ
επαν
δικαιωμα
μηχανικων
##λικα
##στικα
πρωτη
αναφορα
ρα
ατο
##νει
##διδ
δρο
διαθε
κλα
κλαδος
##ent
προεδρου
προβληματα
τοσο
πλειοψηφια
εχω
91
##τικοτητας
νομικου
εγκριν
επιχειρησεων
##υπηρε
θυ
##γραφα
γνωμη
##ρεας
##θεται
διαγραμμα
ικαν
εικοσι
ακο
νεο
προθεσ
##βαν
##τερης
47
##ελι
##πιση
διασ
##κατα
##ρουνται
τελευταια
στιγμη
οποιοι
##ψεις
##29
κυριο
θη
διαπιστω
συστηματος
σχετικη
διαχειριση
αθανασιος
οριο
##ολη
##γονται
απαντηση
##ρησης
σει
ωρες
##σατε
ζων
##δος
ιστο
πολιτες
ακομα
##αρτη
##15
συντον
##at
επιχειρησεις
##πτε
παροχη
συμπερι
φορεις
εξοπλ
φορολογ
εργασιων
νομοθεσιας
44
αποκλει
χωρες
θεοδ
εξυπηρε
##τογραφη
αντικειμενο
500
μαλιστα
ομι
προβλεπο
πανεπιστημιου
επιδο
τετρα
εξασ
μετο
προσωπου
οργανισμος
ενια
##κας
ανθρωπινου
περιοδο
μεταφορων
εταιρειας
λογαρια
ανατο
εισπρα
ασφαλειας
αρμοδια
##25
δεκτο
χρε
##τρος
προνο
ομογενους
δομη
##τρου
λεει
##67
##ριζα
διαταξη
μικρο
θεσης
ανωτα
κτη
ακομη
79
στηρι
υποδομ
##as
πραξης
εκτασης
ελλει
φρον
οικονομικου
αυτοδιοικησης
ενημερω
αυτους
##θου
##ρικα
κλει
προσε
δημοσιευση
ενεργειας
ευθυνη
καρα
re
ελεγχος
διπ
1993
προω
προυπολογισμο
αρχες
παρακαλ
γα
##γεται
δ΄
περιου
μεσο
##ταλλευ
αρχης
##σσεται
δικαιοσυνης
υποβολης
##63
ελλαδος
δημητριου
##τολογ
περιοχης
αφου
νομιζω
##εκα
##τηθει
κοινοβουλευ
63
εγγυ
καταθε
##μεταλλευ
μεγαλυ
##θειας
##γειται
συνη
πειρα
αναγκη
##ανου
πλευ
αριθμος
##λετε
##ρικο
προγραμματα
συριζα
ρυθμισεις
πολλα
βασει
ψυ
τεχνικων
##ed
καταρτι
45
ειδικου
ιδιως
καταλλη
επιχο
##γραμ
##χρη
εκμεταλλευ
σημα
##δυνα
αλι
συνδυ
148
##παρα
##ρειται
##ωσεων
κοινωνικων
ναυτι
##ισμους
εταιρεια
πρωτ
προο
χρηματοδο
εκλογ
αποκεντρωσης
##αρχ
77
ενωση
παρακατω
τος
διαστημα
##ζουν
παρουσια
βεβαιως
##νια
κατανα
##ξε
χειρο
##ις
λυση
αποφασεων
ικανο
μεταβι
οικονομικης
επιπεδο
προβλεπονται
##ιδης
κατευ
τριαντα
γεννηθηκε
ειμαστε
μαζι
γενικη
μηνες
χρηστος
ii
co
ψηφισ
σπυ
##αινεται
ιε
γραφειου
##τομμυρια
φερ
οικονομικη
αναπληρωτη
48
νικολαου
πολιτισ
υπουργικη
αγορας
συνδυασ
δρχ
ζα
ιουν
βρε
##ιζονται
δηλω
αναφερ
##44
αρα
57
προυποθεσεις
επιχειρηση
κατευθυν
αποδεκτη
χρημα
επωνυμια
θεωρη
αρχαιο
55
λεπτο
##υκ
οποιων
υπερω
##ταξη
πολιτογραφη
##καταστα
τρεις
εκασ
##στου
##ch
δικαιωματων
δικαιωματα
νοση
πολιτων
##πευ
##le
##οδου
ολους
ακου
ανακοιν
ξεν
##χονται
##τεκ
επιπ
κανουμε
αγροτικης
προκυπ
##μας
ελληνικο
##βαια
εξελι
περιορισ
##ρωνει
##διων
##ποιουνται
αρχι
υφυπουργου
κεντρο
τεσσε
κατοπιν
παραγωγης
##ρικου
75
προνοιας
διαπιστων
##φορες
διαδικασιες
μαρια
υπευθυν
διευθυντη
επιχορηγη
##νομη
χωροταξ
προιοντα
διδα
υπολοι
##τουνται
ορους
φορεα
##03
τροφι
##ναν
συμφωνη
σχολης
89
ημερες
##ξεως
##ικον
φε
σπουδων
κινδυν
ειδους
##νυ
##στων
##65
προστι
##τυπα
πολιτικων
γλω
αμυ
##αρμο
##τερες
##χοι
διεκ
οχη
##τηριων
κριση
εφ
εισο
παρακολουθηση
συνεδριαση
κτημα
##δικο
αντων
τμηματα
απε
λεω
παυ
##γιαν
καλλι
##μεια
επιβαλ
##ing
σου
διαρ
88
διευθυντης
οριζονται
δηλωση
αυτοι
κλιμα
##σοκ
εξι
##θος
##ρινη
σταυ
##ρικων
##θαν
θεοδω
to
##και
εγγραφ
##ριζει
ζητημα
προα
##οδευ
μελ
χιλιαδες
πασοκ
##ρεπε
συνεπ
επα
##οντος
αυξηση
κεφαλαιο
φυλα
αποκαταστα
κλπ
γραμματειας
μεταφορα
##λονται
δαπανων
##ασιας
##ριος
##ra
αυτοκινη
αιγαιου
##τρικης
δισ
αρχιζει
κατεθεσε
μαν
ευα
δαπανες
ποιν
δεκεμβριου
πραγματικα
βουλευτη
εγγραφα
φροντι
ημερα
τελει
##43
##48
κοινοτητα
πτυχ
μορ
##ροσ
δυτικης
ποσου
##ζαν
ενδιαφερο
επεξ
εγκρι
id
ορια
##κουν
νοσοκομειου
λογους
γιαν
1991
επεξεργ
##δρομ
δικηγο
υπερωρια
νομοθεσια
παρακαλω
μελετη
67
##ρικ
41
##στικη
πινακα
αλεξανδ
προβολη
συμβασης
περιοχες
κωδικ
##δον
μπορου
επικαι
##λιων
εταιρει
επεκ
##μει
υψος
ελα
νομος
ειπε
χρισ
συμφερον
οργανων
δημαρχου
δημοτικης
ακολουθ
κωνσταντινου
ευρυ
χαλ
χορη
ημερων
ανταγωνισ
συμμετοχη
42
δεκτη
μιχα
εμβαδου
βεβαια
εισηγηση
κρατικου
οργανισμο
εθνικο
ηρακ
τμηματων
1985
ιδρυση
οικογεν
διαγραφης
τυπου
στρε
διαγων
παραδο
υπηρ
διαβ
ον
86
εργαζομενων
επτα
διακ
##τιω
οικοδομ
αυτοδικα
κυριως
καλυπ
ειχαν
##ομενων
##γορευ
69
σαν
αυτοδικαια
##περ
ιδιαιτερα
πιστοποιητικο
ελεγκ
λυεται
##λουμε
εντα
απαιτειται
ηλικ
##λως
δημιουργη
πραγματο
λιγο
ακριβως
αλληλε
εννο
##πω
διεξ
##ιωμα
κανα
προσωπα
##λαν
##δομη
and
πρωθυπουργου
υποχρεωσεις
περιπου
##ζα
νεων
ενισχυση
συγκεκριμενα
επισκ
περισσοτερο
καθαριο
τελων
δημιουργια
οποιου
##ρετε
δοκ
εδρα
υπουργοι
κομμα
επρεπε
μηνα
τροπολογια
##45
προεδρο
μεγαλο
τοπογραφ
αναδασωτεας
##τερου
επιτρεπεται
##62
προσθε
διαμε
θελετε
θρακης
παραδει
εγκαταστασεων
αναφερο
τροφιμων
πτε
δυνατον
στρατιω
αλληλεγγυ
βλε
##83
1990
αιγια
χαρ
πτερυ
καμια
υδ
εισοδη
γενικα
κανετε
αντιπροεδ
αντιμετωπισ
κεντρικης
##il
χαρακτηρισ
ναυτιλιας
μιλα
##ul
κηρυξη
δασικη
##ιζουν
διαφορε
ιωανν
παρασκευ
μνη
καταναλω
ιουνιου
µε
πλοιο
καταβαλ
μηχανο
##τευσης
χαρακτηρα
##ρεα
##ποιει
ιανου
μεγαλη
συμφωνια
σχετικων
##γκο
##τζη
επικρα
παρακατα
τυχον
πραγματα
κοινης
σημαντικο
διοικητικο
##ευμα
γνωστο
πρακτικα
μιλη
λιμεν
ευθυν
##et
##βη
εισαγωγ
φορ
συντηρη
αγα
κατασκευη
##τηγ
σοβα
400
καμ
σχετικες
καλυψη
υπαλληλους
συνταξη
δοκι
απαγορευ
δημοτικο
αγων
##δικαι
μοναδων
ενημερωση
##δεικνυ
κλιμακ
##ωθει
κυκλοφοριας
##μαρχη
αρμοδιοτητας
##ρυν
ρε
συμβαλ
διορισμου
ταμειο
58
δασων
καθοριζονται
##λειος
ιδιου
κοινοτητων
μπορουμε
σωματος
συνεργα
##μηση
εκτε
##µα
συνεπως
53
καθεσ
υποχρεωση
ολοκλη
65
##κρο
##στικο
ιουλιου
καποι
αποθηκ
##πες
ακολουθη
καποια
##ol
βασιλειος
εφε
διαδικασιας
##τυχως
ειδικων
αδειων
συγκεντρω
επιπλεον
χρησης
λετε
κρητης
νομαρχη
αυτοδικαι
χωροταξιας
διαδικασιων
εγγραφων
##πεδου
υπαλληλικη
εξουσιο
ταμειου
επιτε
πρωτοκολ
απαλλα
προισταμενος
διαφαν
##θενται
τουρισ
##ιοι
βελτιωση
##ουλιο
##ενη
διεξα
λογιστικου
συνεχεια
τευ
κακ
διαπιστωνεται
κυριος
εκφρα
ολη
διαθεση
##ερχεται
ενεργεια
ορο
φαινεται
##ευση
βοηθη
επιχειρημα
νομικο
59
##ρρυ
μερους
##64
εκατον
##ρηγο
δημ
περιλαμβανει
ζητη
μελετων
##λογο
αντικαθ
κον
αξιωμα
##us
δου
αο
##ραι
##ατε
πολλες
προε
##ληση
χειροκρο
συναδελφ
γινονται
##γγελος
ειδικα
διατηρη
##70
βλα
δραχ
υψους
οργανικη
εγγυη
68
##τυχια
σπυρι
ημερη
προσοντα
##ανε
διακυ
αναθεση
τελευται
##στει
βαθμι
θαλα
##τηκε
φοι
##ment
##oυ
υστερα
προσωπων
στρατηγ
οκτωβ
##ραν
λου
##ομαι
γον
##ξαν
βιβλιο
πολιτογραφησης
##ιβασ
τεχνολογ
αντιμετωπιση
φιλο
δικαιολογητικα
ειδικη
παρων
##μω
83
συνεχ
ανοι
195
αναγκασ
##ter
αλβαν
πιστευω
ασκηση
εγκεκρι
πρυ
##λισ
εμπει
γραμματεια
αντιπροσω
##θουμε
ιανουαριου
160
ισχυου
ρυμο
υλοποιηση
καθορισμο
##χια
εκδιδ
διορθ
γρηγο
αλληλεγγυης
αμυνας
χρονικο
ζητηματα
νοσοκομειο
ας
νομαρχης
εκτακ
συναλλα
σελι
γυμνα
λαρισ
##χρο
οποιαδηποτε
σημει
παροχης
διδακ
προτασεις
μειωση
##αμε
##ινο
νοσηλευ
χειροκροτηματα
κανεις
τσι
σταθε
ψηφο
υπερβ
μυ
κρατων
μισθ
##21
μελλον
μορφη
εκατο
ξερετε
εκπαιδευση
##τιων
εθνικου
συμβασεις
συνοδευ
αντιστοιχα
νηπια
οποιας
##νηση
##γενε
δευτερης
διαπρα
παρεμ
##θυμ
προανα
ανο
##os
##μορφωση
καθηγητη
πραγματι
κλαδο
αιγιαλου
παραλαβ
ασφαλ
πατρων
λυκ
σεπτε
λεπτομε
μιχαηλ
υψη
αποφασισ
ορθο
αποψη
κυβερνητικα
χρυ
καταρτιση
ασφαλισης
αντικατασταθηκε
##81
γνωμοδοτηση
##τευση
##νωση
##ec
συμβασεων
μισθολογ
ιδρυματος
βεβαιωση
##βου
##ην
δημοσιονομ
ψηφ
καθηκοντα
οδηγιας
εκπο
1988
ξεκ
υπαλληλοι
διαχειρισ
επιθεω
αυτοδιοικηση
διακυβερνη
συνδυασμο
συμμετε
μουσ
con
αστυνομιας
σειρα
καθοριζεται
54
τεκ
υλικων
χαραλα
ανεργ
##σιμων
υποβολη
##61
δευτερη
καταστασης
κριν
##ιδας
ορων
πραξεων
##ριδης
φεβ
υποβλη
μεταρρυ
οριων
πενηντα
επισκευ
κοστος
ποτε
τετραγων
εκαστοτε
ρω
καθαριοτητας
##σσας
μαιου
ηρακλειου
διατυπ
φαρμα
αορισ
ταχυ
προσλη
αρχιτεκ
νηπιαγωγ
ληψη
λεπτα
##πεια
##87
αντιπολι
##33
συνθηκες
##βουλ
δομησης
ενδε
##δοτησης
ακα
##id
ειχαμε
οδηγια
φρα
##ρινης
σπυριδων
συνταξιο
##ημα
εξασφαλ
ιι
οργανωσης
εξωτερικων
##ποτα
χαν
ταξης
κοινοβουλιο
εσοδων
##μολογ
πλαισια
εναρξη
προκυπτει
συμπληρωθηκε
νση
αναγκα
##γουν
συντηρηση
ισχυος
βασιλειου
εθνικη
υποδομων
τευχος
ευρωπαικων
απορρι
αποστολος
πτερυγα
ερευνας
προχωρη
ρυμοτομ
υποθεσεων
χρειαζεται
##κους
ευρωπη
αμεσα
αποζημιωση
συμπληρωση
επαρ
##τσας
στοιχειο
αναγκων
οργανω
τηρει
##τροφη
μηνων
πεντα
πραξεις
κεφα
κοινωνικη
##77
αναλογα
αρχειο
κωλυ
μαρτιου
οκτωβριου
απρι
αλβανια
##γραφεται
διεκπερ
##31
προκηρυξη
τσα
απαιτου
##πολε
μερη
καταρτισ
υφιστα
σχολειου
κεντρου
##νοη
φορεων
τουρισμου
ασφαλισεων
εισαγωγη
λαβ
προσπαθεια
κωδικο
χιλιαδων
##μματων
##τεθει
πρωτοβουλ
προσαρμο
υποστηριξης
καταστη
##αινουν
156
τιτλο
##ταται
1989
##26
ειδικοτητα
μεσ
επιμελη
##τιες
περαν
1986
81
εδαφιο
ειδικης
υδα
##νομης
αναθεω
84
##ταρ
ενοτητας
ευρωπαικο
##ποκ
μοναδες
καταλαβ
δημος
ερευνη
σκ
##σμος
μπορε
περιουσια
##κληση
πεζ
καταργηση
περιφερειακης
πραγματοποιη
ευαγγελ
αξιολογηση
##γλου
ακινητων
ειδικοτητας
##τησεως
υποστηριξη
προισταμενου
πειραια
##ωσε
τοπικης
ευρωπαικου
παναγιωτη
##λαμβανει
αφη
##μανης
ανωνυ
φυσικα
##τυπων
ειρη
##ιζο
##ιε
##εναν
##υρω
δελτι
δωδεκ
τυπο
46
##κοσιων
θεσσαλιας
μεταγενε
διαπραγμα
ειμαι
αρχιτεκτον
te
εκειν
απασχοληση
οσα
σαρα
μετ
##λευσης
δημοσιευθηκε
αποζημιωσης
δραστηριοτητες
επιχειρησια
τοπικη
προμηθει
τριων
επενδυσεων
διαμερισ
σημαινει
εργασιες
δυναται
##µο
βαλ
##35
δυστυχως
πατρος
εφαρμοζονται
ασθεν
παραγωγη
##χαιας
##ωσει
αρμοδιες
##προθεσ
κεφαλαιου
ποια
ετων
αναπτυξια
φεβρου
αλλοδαπης
##05
##ce
αποτελουν
##αισ
εμμα
μεταφορας
απαραιτη
##χωρηση
ευαγγελος
##τηματος
δισεκα
##34
πληροφοριες
κοινοβουλιου
##γκα
δευτεροβαθμιας
βρισκονται
##θουσα
παιδια
##πλο
##ποννη
κειμενο
##τερων
##λοποννη
##τυπο
##σσα
μεσων
##ματισ
εγκυκ
εμμανου
νομιμα
κυρωθηκε
σης
78
εισηγειται
##λαια
##οδο
μεταβιβαση
προθεσμια
χρονος
επιλογ
παρεμβ
αρμοδιοτητα
επικοινωνιων
ισχυς
αθλητισμου
##νουν
καθορισμου
ισχυουσες
αντιθε
αποδει
##υπο
πληροφορικης
γενικων
συμφωνιας
αοριστου
##δρα
πορων
εκδη
πανεπιστημια
χωρου
##un
περαι
##γκοσ
##φερει
##ανη
λοιπα
συνταγματος
εσωτερικης
##θευ
οδο
φορες
##τερας
##βαθ
σερ
σχεσης
συμπεριλαμβαν
##χθηκε
τραπεζα
πελοποννη
οτε
πειθ
##γραφονται
76
σεπτεμβριου
εμφαν
τιμες
##ταξης
ουσιαστικα
120
##71
παλι
κοινωνια
##φεια
μηχανη
συγκεκριμενο
αντικαθισταται
κοινοχρη
παραλιας
ολυ
σαραντα
παρεχει
κακλα
ανεξαρτη
χωρους
αθανασιου
συσκευ
##κκ
pro
παραδειγμα
74
χρησιμοποιη
συνεχισ
μετρο
σελιδα
προστατευ
καταβολη
παρακολουθει
συνταγμα
κανουν
μεν
ρη
εξοπλισμου
##βια
##θες
##πλα
κοστους
μπα
επενδυσης
κριτηρια
εμμανουηλ
μολ
δικτυων
ευκαι
λοιπων
αιθουσα
ενδιαφερον
καθυ
στελεχ
αλλοδαπων
εναντι
ειδικες
φθ
##τωση
ανθρωπ
51
σχολειο
##ri
52
##μουν
θελουμε
πλοιου
μονιμου
γενει
διαφορα
πληροφοριων
αδυνα
πειθαρχ
βαρυν
καθυστε
συνολικου
παιρ
παρακολουθη
νομιμο
##τεραιο
διοικητη
αποτελεσματα
πρωτοδικ
κτιριων
πολιτη
απριλιου
νεου
αλλους
προτεραιο
ιατρ
υπαλληλο
πελοποννησου
##ta
αποκατασταση
κειμενες
εκατομμυρια
συνθηκη
υπηρεσιακου
αδια
ιωαννινων
νοεμβριου
τας
λαρισας
##σσονται
προσφυ
αιτιο
73
##τακης
διεκπεραι
παραλλη
αναγκαια
επομενως
##08
ασφαλεια
κυρωση
##καθα
##ληπ
##λαιο
1979
##υμο
υπογραφης
χατζη
ελαχισ
107
αλη
3852
πλευρα
en
καυ
λειτουργει
οδου
παροντα
64
αξιολογησης
##τσα
##59
τομ
3838
##πουν
συγκεκριμενη
##ερχο
πιστωσεις
πρακτικο
γεωργια
μελους
προδια
τετοια
ιον
παραγ
πρωτα
νεες
διατη
δευτε
αντιμετωπ
##ονο
##σδηποτε
ολοκληρωση
αποθε
##μηνο
φεβρουαριου
εο
απαιτησεις
##δομα
ηλεκτρονικης
ειπατε
##συγ
ατομ
κτηματολογ
οικονομια
οροι
ταυτοτητας
βιβλια
κενη
υποχρεωσεων
ενδεχο
προηγουμενη
ατομα
σχεδιων
ποι
##λογρα
απου
καταργη
##στικης
τιποτα
δαπανης
εκπληρω
οδηγη
κτηνια
λεμε
βεν
διακυβερνησης
καλλιεργ
λια
##07
μετε
προισταμενο
ex
χιλιο
ρυθμ
εννοια
συνημ
διαταγμα
##αρων
δρομο
##αισθη
μετατα
##ωμα
λευ
ακολουθα
εκπροσωπος
##ολογ
##om
αεροπο
##κελ
##σιω
##δικη
δουμε
##σως
##ρονομ
χη
κατευθυνση
αισ
1980
γαλα
πν
δοθηκε
##51
νομοσχεδιου
υπογραφη
ανασυ
επιστο
##συγχρον
αιτησεις
##τιθεται
ποσα
ιν
αχαιας
εκτελεσης
αποσπασ
διενεργεια
##μενει
σκα
##τσ
στοχο
γαλ
παρατηρη
##ομενα
56
χρηστου
κανονες
χαραλαμ
εκτελεσ
προβλεπει
επικου
θητεια
δελτιου
συμπληρωμα
συγκροτηση
ποιοτητας
εκσυγχρον
ελλη
πειτε
##ικονομ
αλλου
τεταρ
στατισ
σκε
πρωην
ενημερωσης
εκκαθα
τριτο
δημοτικων
μισθοδο
##ρικες
φαρμακ
καθηκοντων
##92
νομικων
σαφ
διαφορων
ηλικιας
εκανε
##στες
δρασης
##μπια
2503
##54
αναπληρωτης
μορφ
μαγ
##88
par
υπαρξει
γερ
117
##φιας
αντιγραφο
δραστηριοτητων
πρωτοβαθμιας
ταξ
φωτο
1η
εξακ
πολιτικες
ταυτοχρο
τρε
τεχνολογιας
επιλογη
συνολικα
ελληνων
οχηματων
##γραφει
υπουργικης
##σπασ
τιμων
περιφερ
θελει
εβδομα
ανταλλα
ασυ
θεσμ
κακλαμανης
ζωη
αξια
υπερωριακης
μεθο
πλοια
πολλοι
κυριου
απαντη
##διας
##λοπουλος
γυνα
δικτυου
##ονη
300
καλο
διατηρηση
τελ
δυτικα
αναστασιος
κανω
##46
μοναδας
##ξουμε
δημοτικη
εσοδα
##φθουν
##προστα
1983
##πτυχια
σχολικη
οποιους
τεχνικου
διασφαλ
##τεθηκε
ανηκουν
ξανα
βορ
##λογιες
πωλη
πολιτικο
εγκατασταση
##82
συνισ
##τοιμα
##ξουν
υλικου
επιτευ
δομ
##th
ειδο
##τητος
κολ
εγκαταστασεις
παγκοσ
##στρα
sh
συντηρησης
αυγου
επικρατειας
ομαδα
εταιρειες
##τριας
##97
##ργαν
σχο
##ts
##μορ
##ερχονται
νομαρχιακης
παντα
τομεις
διευκολ
ανταποκ
ικα
σχετικο
ζητει
##ενων
μαυ
##σσει
ομαδας
μοναδα
82
καθεστως
μισθω
παπαν
τροπος
οικονομικα
3584
στελεχωση
εμπορευ
βρυ
##01
παρελ
κανονισ
ενεργειες
καβα
αναζη
δικαιολογητικων
διπλω
συνδρο
διευκολυν
##μιων
##δικων
πραγματικοτητα
σφαλ
επιβαρ
71
επωνυμο
ανδρεας
αλλαγη
##ισμα
καταλογ
αικα
υπηρετουν
##τονται
ξεκινη
μεταγενεστερα
εμποριου
##αρης
or
χριστο
##σις
πρακτικων
##93
χρηματοδοτηση
υδρευ
##νος
παραιτηση
##ρινα
τεσσερις
ηπει
τελικα
ονο
αμοιβη
εφαρμοζεται
συνεργασιας
απευθυν
επιλε
##μονης
τυπ
ψηφοφο
τροποποιηθηκαν
περιλαμβανονται
κοι
αμεσως
σχεδιασμου
ελληνες
##γματων
προισταμενους
καταγγελ
γινουν
στυ
διορισ
##νεται
δασικης
προφαν
ερωτημα
επιβαρυν
##am
αικατε
επιφαν
συγχρον
##ζανης
αποδεικνυ
αναπο
##42
κοριν
##ενας
ωστο
ωστοσο
998
περιοδου
##μιες
τηλεφων
κατανομη
εκτασεων
τοποθετηση
εφοδια
διαρθρω
καθιε
μετανα
ανανε
διοικ
βρα
ακολουθως
τοπογραφικο
##γερ
βορεια
εγκρισης
προγραμματισμου
οποιοδηποτε
##τροφης
διαφανειας
##98
πληθυ
υλοποιησης
eur
##δοτη
μεταρρυθμισ
τεχνικης
σχετικης
ολυμπια
πρωτης
πρυταν
am
τερασ
εργαζομενους
συνεται
ζωης
ανεξαρ
εξωτερικου
αρνη
ανθρωπινων
εμπ
αλλαγης
καμμια
συναδελφε
##ροσβε
καταρτισης
ταμεια
αυτοδικαιη
μητρο
1987
διοριζεται
for
##ag
ορισμενες
ποιος
##λειται
κορυ
επικαιρη
ανταγωνιστικοτητας
##02
##θιας
λαο
υπαλληλικης
147
##ριζουμε
εγγραφης
3299
εγκαι
1558
ντη
##πεν
καταχω
##συνη
επιλυ
υπουργειων
διδασ
αυτε
οικονομικο
οικογενεια
ελενη
περαιτερω
αυτοτε
κανενα
##ψε
ερευνα
γραφεια
μεταπτυχια
οικισμου
συστηματων
μετακινη
καλη
εγκλη
137
δεδομενων
εξοδων
θεοδωρος
εξηντα
αλιευ
διω
##36
καπ
##ισει
##τειου
σταμα
τεσσερα
γερμαν
επιτροπων
αθηνας
##ir
περιεχομενα
τηλεπ
διαφορες
νοτια
εκδηλω
##94
μηνια
##ειδικ
##ταμε
προγραμματισ
##αυ
αναγνωρισ
οργανικων
πληρη
δωρε
αβ
##αινε
##χειου
αυτοκινητων
συνεπεια
λειτουργουν
πανεπιστημιο
μπου
βαθμου
##ρωνεται
ελεγχει
εγκρινουμε
συντο
##000
προσπαθει
##νεα
##ξελ
λαος
##ομενης
1982
ερχεται
μπορουσε
οδηγιες
##ion
##ζουμε
ακουσα
##λακης
χαμη
un
προιον
62
##ισταν
##τιθενται
συμβου
γραπ
ορισμενα
##ψεων
βυ
εξεταση
σχολικων
εμπορικης
ραδιο
γλωσσας
παρει
γραμμη
ειστε
επιχορηγησης
εξη
217
δανειων
σημεια
##στι
γνωση
χρηματα
θερ
εξωτερικο
##κιδ
προυποθεση
##θι
συγχων
υγεια
##διω
γνωριζουμε
λυκειου
εξαι
##ov
3200
οτα
##ad
αξιοποιηση
##οδος
πυροσβε
χημ
καε
ισοτι
ενισχυσης
##ωθηκε
επιλογης
επεκταση
δικαιωματος
προμηθειων
##ιναν
##ευσης
επιφυλα
κατεχει
συντελεσ
συμμετοχης
τηλεπικοινων
##θης
δικτυο
154
αναγκαιο
προιοντος
66
πελα
προισταμενη
συζητη
συνεν
ασκησης
##γος
##νιας
συμβολ
φακελ
σχολη
δελ
##γραφες
αλλοδαπου
εξαιρεση
τουτου
##ριθει
ερε
επιτο
διαπραγματευ
##τσης
μητρωου
δασικων
στερεας
θεωρειται
προεκ
σημερι
υπευ
κατασκευης
δημοπρα
μισθωσης
επιβα
τελωνεια
ρυμοτομικου
αποτελειται
θεο
εξειδικ
προωθηση
##σκα
μαγνη
##τσο
απολογ
κωδικας
συμβαλλο
εικον
προσωποπα
##στελ
72
κεντρα
κοινου
##all
##μορφωσης
ζωων
εξελιξη
ευχαριστουμε
μετατασσεται
ευαισθη
μαζ
ανατολικης
##τουμενων
##ωφε
ζωνη
εκδοσης
απεναν
αμα
ευβο
επεξεργασια
##πουλο
##τυχη
μιλαμε
##κρι
σταδιο
γει
##ρχη
αξιας
κατοχου
στηριξης
πυρ
δισεκατομμυρια
##ac
##τζης
μονιμο
αρχαιολογ
εργατων
##56
αποδε
μεγαλυτερη
δασαρ
ανατολικα
##λευση
##αινο
2190
αντιστοιχων
##ειδη
κοινοτικου
##γασ
εκπαιδευτικων
##γκρο
βρυξελ
ιδρυμα
γνωμοδο
καταλη
εγιναν
πετρε
##χωρησης
##νται
πορεια
##τοποιηση
##φης
προμηθεια
##04
βουλευτων
νομικα
φυσεως
φαρμακευ
κατασκευασ
##ig
διοικητικη
##δους
κατοικει
υπερβαινει
λειτουργη
ειδικ
αποστρα
νομων
ιδιωτικο
##φορικα
##ψουν
κρισης
##χθουν
σκοπι
εννεα
κατηγοριες
επιπεδου
προσεγγ
com
αργο
επιστημων
επιτροπες
εξασφαλισ
πινακας
##παγγελ
##θον
##ζω
επιβλε
βημα
ar
##νουμε
εντε
##γδ
χειρισ
ενδει
πειραι
##μεων
αιτημα
##θεντων
##σπον
εκκλη
##στευ
απεναντι
εξακολου
νικη
##ενε
εξεδ
αποχε
ευκαιρια
συγκεντρωση
υποψηφιων
σχετι
αγγ
επομενη
υδρο
γη
βλαστη
πουμε
συνολικο
##σκο
ακαδη
εισαγωγης
αρμοδιας
##χωδε
##κια
καβαλας
στεφαν
χανιων
ωφε
##λογικη
reg
περιουσιας
ενημερωνει
##σθε
κοινωνικο
λογαριασ
αυγουστου
ανασυγκρο
πειραιως
##ασεις
##τροπη
ασε
ηπειρου
διατηρητε
ανηλ
1984
δινει
κλιμακα
##θαλ
μελετης
ηνω
##θησαν
σταθμου
εκατομμυ
αγαπη
σερρων
ολομε
αρκε
τραπεζας
καταβλη
ενοτητα
προσκομ
πλαισιου
αλλοι
ξερω
πλην
λοιπες
κεφαλαια
be
##ινου
μεσση
πληρωμης
λογαριασμο
τεχνικη
υφυπουργο
δημοσιευσης
γραμματεων
##τασης
ισως
61
##ττ
ιπ
αποστολη
##qu
##ποιουν
δωσει
πολης
γνωστικο
κτιρια
αποφασεως
επιτα
φυλ
υπηρχε
υπαγονται
παρακολουθησης
##tin
##αιες
ευβοιας
θανα
150
ξη
##φισβη
##θηκη
ερχ
##φυλ
λαου
τροπολογιες
φυσικου
##im
εξοδα
απαιτουνται
κτιριου
επιπτω
ληξη
ορισμενων
σκοπος
εθε
υπαι
βιομηχανιας
ετησια
οριζει
σημαντικη
σεβασ
συνολικη
προηγουμενως
καποιες
πορ
δανει
σημασια
μνημον
##ενο
επαγγελματικης
τουτο
διεθνους
υδρευσης
οικειου
αμεση
##μπα
γυμνασιου
κληρονομ
##λαβε
τρικ
απασχολ
ειδων
θεματος
1977
μελετες
##ate
παει
ιερα
δευτερον
κατωτερω
vi
πιε
περιεχομενο
προσο
πλοιοκτη
##φιση
μειω
προσφα
προεδρευουσα
ανερχεται
εξαρ
##ιωτης
εταιρειων
βρυξελλες
παραρτηματος
υπευθυνη
σπουδασ
αντιπροεδρος
al
εκλογες
αγιου
αληθεια
##41
πιθαν
εισφορες
ιατρικης
##ετια
απλως
ιδρυματων
τομεας
αιτω
αναπη
##βαλε
υγι
ευρωπης
##σιμα
##ιτη
επιδιω
αναβα
σιδη
υππο
##ξα
πρ
τουρκ
υποθεση
σωτη
##λιπ
οργανισμων
##σιμες
εμπειρια
γονεων
διασφαλισ
υποδει
##θετηση
υφυπουργων
##πολης
αρχων
εκκ
συστηματα
ταυτοχρονα
μηχανηματων
διαταγματος
##θηκης
προβληματων
διαβι
ερευν
συζ
στρεμματων
ρολο
εκπαιδευτικου
πασης
ειδη
αρχειου
πνευμα
##ιζε
εφαρμογων
κοσμο
##δισ
διευθυνσεων
βρεφ
##δω
χορηγειται
as
μεθ
μεταλ
##αλων
αυτεπαγγελ
θεωρω
##μωντας
γραφειων
φαινο
περιοχων
ενταλ
αριθμου
ποσοσ
##and
καταστρα
μερα
##op
δυσκο
εποπτεια
τραπεζες
εξεδωσε
410
διεκπεραιωση
αποφασιζει
πεζικου
##ιτων
##τηκαν
θαλασ
πληροφορια
εεττ
##ρισεις
αποβλη
μεγε
αναδο
πιστωσεων
προκατα
##γιου
ιστορια
σημειων
##85
110
καποιος
##στικου
τεκμη
ασεπ
ρου
##κριν
οποτε
αγωγης
ενσω
ιδε
##ποιουμε
##ειτε
152
##ρησεις
χορηγησης
ιδρυματα
εβδομη
δεη
καρδι
##θεισα
##ρεου
ανηκει
συνημμενο
προεδρικο
διαλυ
##σους
la
παραστα
##πιπ
τερ
##ξου
iii
δημων
ακρο
στυλια
##tic
##σσουμε
αδειες
##καρ
ενταξη
πρασιν
##τινα
ηλιας
##ρκω
αυξαν
κτηνο
##ub
διεθ
παπαδο
φερει
τριτη
σκοπους
##φορ
προμηθευ
πυρκα
χαραλαμπος
κερκυ
παραλληλα
γεωπον
##ομενου
εκπροσωπο
κεπ
διορισμος
##ξεν
προσληψη
κομματα
##ουται
λαβει
ηλεκτρονικων
##72
ακολουθει
μπορω
no
δικο
##89
καταπολε
λαμπ
##ay
2081
παραγρ
##ανατο
μεγισ
μεθοδο
ξαν
ομαδες
εγκαταστασης
τει
προσβαση
εποπτευ
επιθυ
is
βι
θερα
εκμεταλλευση
δραχμες
επενδυσεις
στηριξη
ομοφων
ανθρωποι
συνταξιοδο
γεωργικων
αλιειας
ατομων
##γδοντα
νοσοκο
πλοιων
διαβα
ογδοντα
οποιον
εγκρινεται
##πεδα
##em
##λιση
ανταγωνισμου
κλιν
πυρο
προτι
μονον
σοβαρο
σκυ
##σκε
παρασκευη
βιου
συμφεροντα
εγκριθηκε
αναποσπασ
210
τελειων
υπαγωγη
φορεας
σταυρος
φλω
λογικη
εκτιμωντας
επιμερους
##ran
επαναλαμβαν
##ess
οικοπεδο
##μεσα
διορθωσεις
πηγ
##ιδου
##76
προθεσμιας
λογος
αικατερινη
κοινοτικων
αναδασωτεα
σκοπιμο
χερ
μαγνησιας
εμπισ
αει
le
αξον
πισω
πρωτοκολλου
τιμης
διπλωμα
##λογου
χθες
##ιδα
##ψηφισ
αναθε
πρωτου
ομιλιας
##φου
οργανισμους
##πιον
##λιω
##um
πινακες
νικ
συνολου
αδα
##κιου
συντελε
##γαλ
##ληψ
οδηγων
ναυτικου
εξαμηνο
φυσικη
##μορφων
##λογηση
χρηματοδοτησης
##μελους
##ia
εγγραφη
μηχανικου
υποβαλλονται
προαναφερ
αρμοδιου
ειδος
ερωταται
καλυφθει
ομοιο
##ματικα
##θιου
επισημη
κοινωνικου
##ρειτε
##ιδη
δραστηριοτητα
280
επαρχ
σταθερο
κομματος
κυκλοφορια
παπ
##μνη
συμβα
μαθητες
μεσσηνιας
##ματας
επιβολη
προσδιορισ
δημοσιες
μερες
ανωτατο
αναφε
σχεσεις
δεκαπεν
##ιους
αντιστοιχες
##θηκων
##τριων
κωδικος
εξυπηρετηση
οργανικες
οριζομενα
επιτρεψ
##οινων
κανατε
λεσ
ηλια
περισσοτερα
##λακη
3284
κεντρων
αναποσπαστο
εστω
αιτησεων
αναφορας
δοθει
προετοιμα
παραλαβη
υγειονομικης
γνωριζετε
απολυτως
ελεγα
αγορες
οριογραμ
πληρως
εργαστηρια
συγκοινων
συνεταιρισ
υιο
αριστοτε
ανοικ
παρεκκ
προστιθεται
τροποποιησης
ξεκα
ιδιοκτησιας
##στικων
παμε
τιτλων
νος
δωδεκα
τετοιο
εξοφ
μολις
ομοσπον
υγειονομικου
ελεγχων
εβδομηντα
δυνατη
ασκει
##79
##ιστανται
οδων
προσβασης
διοικητης
αλληλογρα
επηρε
καταλληλο
##περασ
##ers
σοφια
ορισμενου
χαρακτηριστικα
κοζανης
καλυτερη
##ελλην
μπορειτε
##ληψης
ιδιας
αννα
προφανως
φυσικο
4009
ψα
τζ
αποκλειστικα
ενιαιο
ελλειμμα
συγκεκριμενες
μονιμη
σχη
διεθνη
##86
εισοδημα
τελευταιο
διαρκειας
##ικι
##ρχου
οργανο
πρωθυπουργος
##τεων
159
κλαδων
επιβεβ
##τσου
##ανο
συναν
##θεντα
νοσοκομεια
υποκ
θεσπ
##θετη
πτυχιο
εγκυκλιο
##pp
αναγνωριση
ελπ
600
μεγαλες
οπω
πρωτον
εκτασεις
##ρρο
##εστε
ενωπιον
ε΄
προβει
συνταξιου
##τακη
αναφορικα
υπερωριακη
##ρακη
επιχορηγηση
νω
εκκρε
βρεφονη
προτασεων
φιλιπ
οσοι
φροντιζει
##φερουν
δεδομενα
ληξεως
ανθ
1ο
##φαι
προεδριας
αναστο
αποχετευσης
συναδελφους
συμπλη
αγροτες
θεσσαλονικη
##ρυνση
δασος
##μοκρα
τριτων
##ut
##οικονομ
##δουν
σχεσεων
βιω
##53
##κω
##ισης
##μονη
σταυρου
1970
##ab
αντιστοιχη
ξεκαθα
##πτικη
φροντιδα
απογ
ανεπ
ιδρυσης
αντικειμεν
##τερος
χρησιμοποιουνται
εκλε
υπαρξη
ανακληση
τηλεο
υλικο
λαθος
##στης
ολ
##μιο
συνεργαζεται
νου
αργυ
αμφισβη
εκθεσης
ανακαλ
απαλλοτριωση
κτισ
4024
ac
συντελεστη
βαθμιδα
βαθμιδας
101
περιφ
προστεθηκε
##λουνται
κοινωφε
##υλ
υπευθυνος
σιδηρο
βαρυνει
λεπτομερει
εναλλα
χρηματισ
παιδιων
παρουσης
εκλογη
##πουμε
επιβαλλεται
ανακ
συναδελφος
μεγαλυτερο
1981
μπροστα
##λαβει
κλιμακιο
παρεμβαση
διορθωση
##μπο
ταξη
διευκριν
αθην
προτεινο
σγου
προσδιοριζεται
ευθυνης
##τωντας
114
##στιτου
##od
##st
πλου
##χαλ
ακινητα
250
πασ
##γακης
οφε
ec
##ρευει
ποροι
##ωσω
εισοδηματος
δυναμει
##νετε
παλαιο
κεντρικη
ινστιτου
συνθεση
απαραιτητα
εργαζομενοι
ωρων
οικονομικες
σωστη
καθιερωση
περιπτωσει
κανονων
διεθνεις
ανασυγκροτησης
##ζετε
ναυπ
##96
στοχους
εκδοθει
αλεξανδρος
επιστολη
πρωτοβουλια
##πλη
πορους
##τρας
επιτρο
αναλυση
επιτελους
ανθρωπους
παρελθον
##δαγωγ
ανακοινωση
διαφων
##θρο
χρω
st
πληρωμη
εθνικων
##λιδης
##oc
υποψηφιο
γεγονο
##γραφου
πια
##στασεις
αλλαγες
##α΄
αυριο
inter
##υγ
κρατικο
γαλακ
συναινε
ερωτησεις
##τειο
πεμπ
πτυχιου
επικοινωνιας
γεωργιο
##ρατε
κατατεθει
##πως
καθημερι
##σιμη
##κοσια
##υρωση
##ινα
υποχρεουται
παλαι
##φραγ
νομισμα
συστασης
##οντες
ζωνης
υποβαλουν
αναδια
##ποιηθει
απουσια
##δικου
πατρωνυμο
νομους
διοικητικες
##τωσης
συνεδριασης
αντικατασταση
αγροτικη
##αντα
εναρμον
σχεδιασμο
λενε
θεσμο
σχολεια
παραλαβης
προκηρυξης
##ριζουν
διακινη
πρωτοδικειου
δασαρχειου
ακινητου
##μορφω
λιμενικου
εκμεταλλευσης
περιμεν
αντιπολιτευση
##νι
επισκευη
δυναμεων
σημερινη
##ρωνονται
εδρας
1α
σαβ
μετοχων
στοχος
##κις
απω
γλωσσα
##ρως
καταβαλλεται
υφυπουργους
ημερησια
υποβαλλει
κηρυσσουμε
κατοικιας
επαγγελματος
λαμβανει
θεμε
αναθεσης
δανεια
δραση
ηγε
##πδ
αμοιβης
υποβαλλεται
βλαβ
κρυ
τρικαλων
δειχν
παρατηρησεις
τσε
καρδιτσας
ψυχο
δουλεια
αγγελ
επιλεξ
ψηφιση
οριστε
##ιστικο
αντ
βασιλικη
##ρινες
προκλη
##στηκε
δραστηριοτητας
ητοι
αντιστοιχουν
δεικ
##νοι
##σσαρων
υπηρξε
##φω
καποιο
δεκαπεντε
διορθω
παραβια
προυπολογισμος
προισταμενης
απαγορευεται
##κοπουλος
##λοπουλου
λαμβανονται
ερμην
παραταση
##τοπουλος
εμας
ανεγερ
υπηρετει
παιδαγωγ
τακτικη
μαθησης
σημαντικα
##οπουλος
επισημαν
υγιει
παγ
##τροφων
περισσοτερες
ελαχ
περιθω
δεπ
μεταβολ
ανακα
αναρ
βιβλιων
νησιω
αποσυ
ανεξαρτητα
νηπιαγωγειου
##τερους
αποψεις
εγκεκριμενου
τροποποιειται
κατοικια
τροποποιησεις
εκεινο
εξαγωγη
υποθεσεις
130
καθαρισ
##περα
φτω
σχολειων
προωθη
καταστασεις
μακρο
ταχυδρομ
επαρκ
##μαχ
βοηθεια
##βαθμια
ειδοποιηση
σκου
##ετη
ag
ηλειας
κτιριο
δικαστικων
συνεχη
διαθετει
αγορων
ενσωμα
ψηφοφορια
on
σπι
κατσα
##μησης
##ρωνουν
φυσικης
ποιοτητα
προισταμενων
σχετιζονται
##ιστικη
καθεστω
αντιπολιτευσης
##βος
σουρ
αντιπροσωπευ
πολιτικου
επιθεωρη
800
παπανδ
##iv
ηρ
προκα
##τιδας
οφειλει
##θαρ
##ρχης
μαθημα
iv
συντασσει
βελ
φακε
αποστελ
ιδιοκτησια
θεα
σφα
δειτε
##λογος
συχ
παπανδρεου
εξυπηρετησης
δυνατοτητες
ενδεχομενως
χαι
##μς
περιθαλ
οα
##τανη
πιστωση
##95
##υμα
περιφερειες
εναρξης
ξενοδο
προδιαγραφες
διαβιβασ
δραχμων
πραγματικη
ενοπ
επομενα
υπερασ
καλλικ
υποδομης
ανησυ
##ενος
140
δανειο
ειχατε
αντωνιου
απογευμα
##υχ
##ενηντα
##τυπαει
regul
##γιαννη
πληρωμων
αναδει
πατρι
##δεδ
απλα
##τικως
καλλικρα
θελουν
κουδουν
καποιοι
##στουν
##κοι
τηρησης
διαφη
##τινο
πληρης
κατανε
γκ
μηχανικος
αρμοδιων
##ιρε
σπο
δρασεις
##λογικων
καθοριζει
θερμο
##417
##ξι
τηλεπικοινωνιων
εξειδικευ
ροδου
βαθμος
ξερουμε
υποψηφιοι
κανενας
διαθεσης
##ολης
ζητα
γενικοτερα
προσωρινη
διασυν
λασ
κουδουνι
διαγωνισμου
υπηρεσιακων
ενενηντα
ανδρεα
αθηναιων
##ιστικου
δυσκ
γης
μεγαλα
προχω
1955
εξηγη
##νακης
##χευ
##ριστα
σια
ιονιου
διδασκαλ
συνασ
ευαγγελου
λεσβου
σωστα
προκυπτουν
##μαρτυ
σχολων
αναστασια
ενιαια
ιατρων
ωραριου
ενεργειων
εσωτερικο
αποβλητων
ομαδων
##ζον
διαφορετικα
διαβασ
##ρασι
ιδιος
συνθηκης
ρεθυμ
αδικ
συμμετεχουν
ομογενων
##φορο
##τισμο
εργασι
χαλκιδ
κερκυρας
##μετρ
αντωνιος
1180
εσας
αιτια
εξαλ
σφαλματων
##δεν
κοινωνιας
εσφαλ
##ονυ
φθιω
##ell
σταθμων
στελεχη
προερχονται
απει
γενικες
νικης
141
φορου
περιεχομενου
εκεινη
ευθυνες
αντιρ
δημαρ
πολιτικα
τροποποιηθει
υπολογισ
μειων
δυναμεις
συνεπει
συμπερασ
εκπονηση
##ληφ
λογια
##στ
ευδο
σγουριδης
εξαγωγ
##ποιου
αρχαιοτητων
##91
δωδεκανη
τεσσαρων
##τζα
παρεχεται
διορισμο
0022
εισφορων
μισθολογικο
##μετ
103
##λογιαν
επεξεργασιας
επικινδυν
τιθεται
συμβολαιο
εκανα
##γεω
καταγωγης
##λωστε
περιγραφη
ικανοποιη
επιτρεπο
βλαστησης
δεδομενου
##ζας
διαπιστωτικη
συµ
κτυπαει
ετοι
εσυ
χωρος
θεσπιση
καλυπτει
δηλωσεις
αλλωστε
αποδεικνυεται
συμβαινει
1975
συνιστω
##ομενο
καταστηματων
περιοδος
2ο
συμπληρωθηκαν
ομιλη
εκθεσεις
##κοπη
##ψηφ
καταθετει
##γειου
ελληνικος
κωλυμα
επισημα
αεροποριας
##λαδων
λογιστη
λαμβανοντας
κυκλου
ελαιο
##τειων
κατατα
##ματικη
εγγε
##γειο
##γκου
αυστη
γεωγραφ
ασφαλιστικων
συνδρομη
ch
παραβαση
προβλεπομενα
θετικη
##μετα
ιδιωτικων
πολεων
κατεθεσαν
##ting
ξερ
##τεται
ακαδημα
συζηταμε
αποδοχων
κιλ
υφυπ
δυναμικο
κλιμακας
##κοσιες
νοσηλευτικης
απαρα
ποσων
ατυχη
κοινοκτη
δασμολογ
δυσκολ
διαμαρτυ
εγγραφου
ιδιαιτερη
διακρι
συνελευσης
λεων
διακηρυ
143
προσαρμογη
αποδοχες
μορφης
αποτελου
εκατομμυριων
τιμο
πραγματοποιειται
κοινοτικο
στρ
μαθηματα
δηλων
τσ
εγγεγραμ
δικαιουχους
regulation
οικοπεδου
δραμας
σκαν
##οδρο
ληξια
##μηνου
##εβη
κοινοβουλευτικος
##πας
πληρωση
επερω
ποσοτητα
##74
δειγμα
##ip
##ωνει
εκδιδει
##ονδ
αποδοση
προαναφερο
104
διαδρο
##ith
προσοχη
διονυ
φυσικων
επιφυλαξη
οφειλουν
εμποριας
αιρε
κρεα
##γους
μνημ
απαλλοτριωσεων
τω
##ιδιο
στεγασ
122
επιστροφη
διεθνων
σημασιας
##ement
ενισχυσεων
κρινεται
περιφερειακη
##πδδ
εξετασεις
##αινονται
βασικο
παση
ελληνικα
νπδδ
πρασινου
δημαρχος
τιτλος
μητσο
εκτιμηση
παπαδη
προηγουμενης
στρατιωτικων
πλημ
δικαστηρια
138
##σθει
καταβολης
απορρο
υποκει
τετραγωνικα
σουρλας
υλικα
##λικου
##πειας
ελλειψη
υπολοιπα
##ψουμε
τριτους
σιγου
##λλας
κακο
εντυπ
διανομης
πρακτικη
παντοτε
διοργαν
μεταρρυθμισης
κυβερνησεις
συνειδη
πιστοποιητικων
τοπου
περιστα
ειδα
περιφερειακων
διεξαγωγη
##ορ
υπαιθ
πεδιο
σχεδον
##fic
##φους
δασο
κομματων
προσφορα
κρητικος
οργανισμοι
εργοδο
πρωτοκολλο
##ενης
##τση
κοινοκτητο
επιφανεια
τεκμηρι
τσο
δρασεων
καταργειται
πρου
##τηρων
ισπαν
διδ
ρευ
κονδυ
mar
αρχιτεκτονικη
υποχρεωτικα
πλευρας
δωρεαν
##φες
1824
180
θι
##78
et
συνταξεων
##ργου
μεταβιβασης
προκυ
εμπιπ
αα
προτεραιοτητα
105
θεοδωρου
##μισω
##στικες
εξουσιας
αναπροσ
μεταναστευ
##πιο
οσους
αυθ
επαγγελματικη
θμιας
##ωντας
##εισ
συντονισμου
μηχ
αντιδρα
##κοπουλου
εξουσιοδοτηση
ενεργο
εφεδ
υποβληθει
ετα
πορτο
##φηκε
τελε
ακολουθες
β2
νεκ
εναλλακ
αντιστοιχο
ζητησει
αφε
ποικι
ελεγχους
##ραμε
εφετειου
κουβ
απαραιτητη
##ομενη
αντιλαμβαν
σκλη
##73
βια
τελη
κομμουν
shall
προσωπικα
κεφαλαιων
160417
##γαν
κρε
συγχωνευση
παραγωγικης
##τεχνικων
νομαρχιακη
αεροσκα
πρυτανη
διαταγες
##75
αποσπασμα
αρχισ
φαση
αναβαθμιση
βοηθειας
διαμορφων
αναπροσαρμο
αλλης
κινησης
πολιτεια
##γραφικο
εισαγωγικο
διαβουλευ
##τιος
εργοστα
δημιουργει
συλλογου
μεταβ
ορισμος
##ικως
##ρισμα
134
1ης
##τριου
ποσοτητες
προεδρ
ζημιων
συνδικ
αυθαιρε
κρατικων
κυκλαδων
##λιες
##πτ
φερουν
νομικη
παρεχο
γιω
##νακη
ενδεικ
μονη
βενιζε
ερθει
ημα
##ιμο
α1
συνεδριασεις
εισηγητης
##ιστηκε
αποστολου
des
##μβα
τονισ
αξιων
συντε
ηλεκτρονικη
κοινοτικη
##τεις
##ιζετε
πρεβε
φπα
αποτελεσματων
ευστα
αναθεωρηση
αναφερθω
1923
αξιοπισ
κοινοχρηστων
βλεπουμε
δικαστηριο
##χωριου
καναμε
στρατου
##λιν
απευ
κτηνοτροφ
1268
σοβαρα
μαθητων
112
απαραδεκ
102
κληρο
στρατηγικη
pl
ενταξης
κτηνιατρ
##παι
ποτα
##γιας
θεωρουνται
ad
διαδικ
σφραγ
εκκαθαριση
##ιδιοκτη
3049
δασικου
1ου
##ωνεται
παρακαταθεσης
##βιο
αδικη
διεπ
οποιονδηποτε
153
αλλος
ακυρω
##αντ
ενδιαφεροντος
##ληφθει
πολεοδομιας
εξασφαλιση
συνιδιοκτη
δοκιμα
παραγον
##σκευασ
πανελλην
παντως
επιστημονικα
εκατοστα
ασκ
εγκρινει
ταμειων
απαντησεις
επαρχια
διαδο
δημοσιονομικης
εγκλημα
by
επιτρεπει
αχ
##ψυ
επηρεα
εβρου
χιου
ψηφια
κοκ
δεσμευση
συνδικαλ
αγροτικων
τεχνικες
ερωτησεων
θεσπισ
β3
αστυνομια
ελαβε
πληθυσμου
1971
δικα
##μβριο
εκδιδεται
στοχων
μηχανικο
εξουσιοδο
αναφερει
παραμενει
προσπαθειες
αφαιρε
λεπτομερειες
θεωρηθηκε
καταθεση
ναυτικων
νεους
επισκε
ρυπ
διευθυντρια
##γεωργ
καλυτερα
##παρ
##ψιν
κωδικοποιηση
επαναλαμβανω
λιμαν
οφειλο
υποκατα
εγκατα
##av
τηρουνται
συνηθ
διεθνες
επιστρε
##πλοια
ανελ
καλλικρατης
##uc
παρεκκλιση
ειλικ
στελεχων
αργοτερο
ψυχ
μετρου
συνισταται
χορηγηθει
παραχωρη
##τηματων
εμβαδον
προηγουμενο
δευτερου
καραμαν
αναμεσα
παντε
νομοθετικη
διασφαλιση
109
##ψεως
κατωθι
διαμορφωση
##μενουν
##ταγ
##βας
διαταξης
##γγελε
##σιως
##γεια
εξουσια
##µου
πιστευουμε
κιλκις
220
κριτικη
επικοινωνια
διαγωνισμο
αυτοδικαιως
##τοπουλου
##λογησης
απαραιτητο
δωδεκανησου
δικαστηριων
113
τσου
κενων
συμβουλιων
παρανομ
ελαχιστο
##αιω
αριστερας
επιχειρησιακου
παθο
γρηγορα
τετοιες
υπολογιζεται
κερδο
ημεδα
κοινωνικες
επιτυ
βασιλειο
υπεβαλε
##γραφουν
γραμματεως
##λεπ
μετονομα
συνεπειες
νηο
υπογραφει
λεκ
πολιτογραφηση
ευδοκι
ξυ
λιαν
ονοματος
υδε
προτεινει
δεχ
##δικης
συγκεντ
ηθ
αναλυτικα
532
ερευνων
απευθειας
##ουλης
παραδοσια
οριστικο
υπουργεια
εισερχο
κινημα
λακων
ιθαγενεια
μονιμης
νυχ
αποτελεσματικη
βορειου
οξ
ειδικοτητων
καταπολεμηση
##γορας
πετρος
αντιστοιχει
##ap
##ξετε
ειπαμε
επιλυση
καινο
##τησω
συνθηκων
##πεδων
κατανομης
##ire
##ρινας
υδρα
αποφοι
##ειδων
μηπως
υπολοιπο
##πολεως
ευκο
##τηθουν
##δακης
διαμονης
επιδομα
δικαστηριου
πραγματοποιηση
σοβ
##σφαι
διευθυνσεις
απεικον
συντρε
##θια
δωσουμε
οριου
δικαστικης
λειτουργου
διαδικτυ
βοηθων
ροδο
##γουμε
182447
συμμετεχει
##δακη
ζαχ
χρονικη
φαρμακων
σωστο
επιτυχ
προχωρησει
δικαιοσυνη
επικυρω
υποχρεωτικης
κορινθιας
ανθρωπων
αποδοχη
εποχη
ολομελεια
αυτ
ειδικοτητες
παρεχονται
διερευ
δικαιοδο
##ικια
νοτιου
αγαπητοι
εσωτερικου
##ασει
εκκλησια
δεσμευτικος
συνεδριασεων
##τεπων
καταλογο
φραση
kg
##tr
νησων
αναγκης
νομαρχιας
κινδυνο
μεταβα
μαριας
λειτουργων
δανειου
μισθοδοτουμενων
ακινητο
επιπτωσεις
##χθη
παρεμβασεις
οδηγιων
παρατηρηση
τελικης
εξοπλισμο
λαμβανεται
α2
τεθει
πανε
αγιος
οικοδομη
συνθε
##τειες
ελευθεριος
αποκαταστασης
κινηση
κατοικων
ιχ
##γνωμον
##μπου
νερου
##χρηματο
ασχολ
καλω
##λαβα
φων
καταγραφη
εικονα
εμποριο
εκτακτων
απομακ
λεξη
προσεγγιση
ελληνικων
διαμερισματος
χρεος
##γραφιας
συναψη
αμυν
ξεχ
ζαχα
πιστοποιητικα
μετρη
ιδιες
στενο
χαρτη
εδαφιου
προσανατο
παραγωγων
τελικη
υποχρεωτικη
εξαιρετικα
θεωρουμε
ερχονται
παραπε
διαβιβα
##θανα
τηρη
αρκα
προβαινει
φωτει
146
ονοματεπων
υποψηφιος
##ζε
414
καταστραφηκε
πελλας
##τοφυλα
υψηλο
res
αλλογ
προσκληση
χαλκιδικης
ποιες
ma
προσαυ
στρατολογ
υπευθυνο
##ναμε
καταβληθει
δικες
συνταξης
αισθη
μηνος
αφορου
περιλαμβανεται
συνελευση
γκα
πυρη
εκεινες
125
##09
νομικης
700
##αλυ
ποινικου
διατυπωση
συναφων
νησια
μετοχ
ελεγκτικου
αγμς
εμπορευματων
with
επειγου
##ιστικα
ανεργιας
121
##ant
σχεδιασμος
συμφωνιες
155
γειτο
αρχικη
sp
συμπεριλαμβανομενων
2020
πρυτανης
σταδια
πολεμ
παραδοση
##ωσεως
gr
αναστασιου
λογαριασμων
τιμολογ
ξανθης
ασφαλως
συνοδευει
καθυστερηση
τοπικων
εξαντ
στρατηγικης
παιδεια
ιδιοκτητων
συνασπ
αποδεικ
##κισ
διαμερισμα
αναφερω
##µη
μοντε
κυνη
su
##ich
δυτ
εισαγγελ
παρεχουν
ανευ
πετρελαιο
εξελιξης
συζητησης
φθιωτιδας
##ie
κοστο
τζα
οικονο
διαλογο
ενιαιου
οδηγει
κενες
βολου
##νανιας
##λογικο
αποσταση
εστια
απαντησει
ισχυουσα
περιβαλλοντικων
συζητησουμε
γες
αναγκαιες
##γουνται
αρχειων
ασφαλιση
##μιου
δεκαε
119
κυπ
γραμματεις
##ted
κερα
##επι
##ιζοντας
πολυτεχν
##πετε
##κιδας
τoυ
##περιφερε
εργαστηριου
##ερο
##κυν
προσφορων
τρεχον
υγιεινης
##γυ
συμβουλευ
116
τραπεζων
κανονισμους
επιτευξη
αρθρον
πρωτοδικειο
εκτιμη
οικοδομικων
σημαια
συνολικης
λογαριασμου
θο
λιγοτερο
υπεχωδε
##ττα
240
118
λευκα
αρε
προελευσης
wh
##ρθρω
σχολικης
##δαλ
αθλητικων
υποδο
μεταχει
πδ
προυποθεσεων
πωληση
108
εργαλ
δημαρχο
μαγει
γυρω
υφισταται
δυνανται
καυσιμων
καταστασεων
πιστωσης
στρατιωτικες
ολοκληρωθει
κοινοποιη
δημους
3463
εισαγωγες
##ενους
συνταξεις
ασκουν
δημοσιευματα
αναγκαστικη
διαπιστωση
ηλεκτρ
τακτικου
βενιζελος
εκτελει
κανονισμων
δικτυα
αναγκαστικων
τεχνη
επομενο
συμβουλου
ανωτατου
καθεστωτος
λακωνιας
##χερ
##ψαν
ομοια
εγκαιρη
διοικητικα
τασ
139
προσλαμβαν
##our
##μινα
##οταν
αναγεν
παρεμβασης
ναυτιλια
αεριου
κυρωσεις
χαμηλο
##λογικα
εδαφος
λειτουργησει
διορθων
ιιι
συνταξιοδοτησης
ανωνυμη
βοι
ελεγε
τεχνικο
σπα
1599
αναστολη
1974
περιληψη
οικειο
##μονω
απολυτη
##εριας
##θεντος
ιδιωτες
λασι
αντικειμενου
εκτασεως
προσωριν
αρτας
εισοδου
κεδ
γιαννα
τιμω
σημειωμα
διπλα
##φτα
επιβλη
οδον
μεταφο
εκπαιδευτικο
συμφεροντων
ορθη
παραγραφων
συνεδριου
εγκριθει
πωλησης
123
απλο
κατηγοριων
διαθεσιμο
##λαμε
ηλεκτρολογων
##θηκατε
δικαιουται
βεβαιωσης
οφελος
τακτικο
ναυπη
##ρουργ
παραβασ
περιφερειακου
##ow
οποιασδηποτε
δε1
περιλαμβανουν
##τιαδης
##ζοντας
οφειλε
χρυσο
κοινοτικης
##γοντας
τεραστια
##ουμενη
1969
##πιστω
2083
δικαιουχων
διαχω
κατσαρος
δεξα
κανονιστικες
γραμμες
##ort
πιστοποιησης
περιφερειων
τουριστικης
##ot
αξιωματικων
αρχικα
λαμβανουν
διαμαν
115
απελευθε
ορος
καταθεσει
αξιολογ
##στηκαν
3549
χονδ
προσληψης
##δρομια
αναλαβει
βη
γου
pr
εθελον
αναληψη
εμπιστο
##ργος
##γιαννης
##τεστη
##ρεων
χριστοδου
θητειας
περιπτωσεων
συμμορφωση
καστο
κοινοποιηση
ληφθει
##ελε
##ity
##ii
##δικες
εξαρτη
##ud
##λοα
ποινη
μεταβιβασ
μειο
εποπτειας
χρειαζονται
ελαχιστη
ιδιοι
##ζων
ουσιας
149
συντονισμο
##μευσης
παπαδοπουλος
μαζικης
##μηνα
οριστικη
δημητρα
αρση
1978
μητροπολι
εξισ
οχηματα
παρακαταθηκων
αναπαρα
##ιον
χρησιμοποιειται
151
συντελεστης
συγγ
δημητριο
διαφανεια
ναρκω
καλυτερο
εκχερ
προτεινεται
τοπος
εγγυηση
εκδηλωσεων
προσφορας
αποζημιωσεων
τεχνικα
μεταφρα
παρομο
χωροι
σταση
132
εθνικα
29α
υποβαλλουν
δακ
βιομηχανια
φαντα
φαρμακο
##ξιο
μονιμων
##χθηκαν
παραμονης
128
εμπρα
νιας
πτη
εισαγγελε
##ματικο
μεταρρυθμιση
λασιθιου
επιστημης
δημοσιευεται
νομιμη
εκσυγχρονισμο
μοι
προσανατολ
καταλληλα
ιβ
επιμελεια
αναπληρωτων
##ision
υποθηκ
ταξιν
##ph
παραγραφους
##τισμος
ειδικος
προηγουμενων
εξελιξεις
##τησουν
##λοακαρ
εισπρατ
προισταται
##ργα
αντιπροεδρο
εκπροσωπους
διαφημισ
ιεραρχ
##ιστικων
##ρουπολης
##τροφες
τοις
##ιστες
επιπεδα
ευθυμ
ζωο
##πτεται
επιστημονικη
βορειο
εισπραξη
καποδισ
ολοκληρη
ιτα
δυναμη
ιερας
επιθεωρησης
συναινεση
καταστροφη
αναγραφεται
υποχρεουνται
##τειτε
2ου
καθολου
ευνο
1973
απονε
##ρχαν
αιτωλοακαρ
ειδικευ
ενοπλων
106
συνεχως
##φος
καιρο
##κοπ
σαμου
##φιβ
αεροδρομ
φτα
ενδειξεις
αναπληρωτες
καθενα
ανταποκριν
##06
διαφ
1976
αντιληψη
απαραιτητες
ειρηνη
οικισμων
ιγ
τρομοκρα
μονιμος
υγειονομικη
υπουργικες
πατρα
##ine
προξεν
##ρωσης
εκπροσωποι
ψευ
προδιαγραφων
καταναλωτη
##πολη
διδακτικου
##φαση
203
εκλεκ
νικητας
##χιας
##ισα
αντε
ετησιως
επισκευης
##ens
πετυ
διασκε
ονομασια
ολοκληρωσης
εμπορικων
αναγραφονται
##ουσας
πρεσ
σιου
μετατροπη
αιτιολογη
τιτλοι
χρησεις
οαεδ
εβδομαδα
διευθυντες
μητρωα
##κομων
προαγωγη
κινδυνου
##τεινεται
προληψη
διαθετουν
ελευθερια
δηλωσης
παιρνει
##ue
κρινει
εξετασεων
προβλεφθει
μεριμ
επιβλεψη
τοπικο
αυτεπαγγελτως
0010
ληγει
##ρειων
φιλοσο
συμπληρωσεως
μιλ
##δευ
προβληματος
ικανοτητα
ελπιζω
σοσια
αναδρομ
φερο
##ρισε
##ard
προβλεψη
##ties
στρεμμα
##λογικης
##ακης
προβλεπομενων
απολυση
αποδοσης
##χολου
οργανωσεις
ανακοινων
καθοριζουμε
μαθηματων
γνωριζει
εκθεσεων
περιγραφονται
απορροφη
τροποποιουμε
##δεις
διακοπη
##ινης
##χυν
φυτο
##ne
νησιωτικης
αγροτων
αναλω
πολιτιστικων
συστατικης
μπενα
πηγες
φροντιδας
αγωγ
πεχωδε
νοσοκομειων
τριτες
ενταξ
αποκεντρωμενη
ελευθερη
αποφυ
επισημ
συρ
προσωποπαγη
σπη
##τιδης
##κασ
κοσμος
καλαματας
κριθηκε
αρκετα
ειρηνο
δηθεν
εκπληρωσει
εργαστηριο
προμηθειας
##τζο
επικυρωση
αναπληρωτρια
ευρισ
##λανδια
μεγιστο
κατανοη
ενδιαμε
τμ
##end
μεση
136
οκτα
αιθου
πεζοδρο
##og
##χεστε
##λογικου
συναλλαγων
κιν
υπεν
πιστοποιηση
αναδιαρθρω
επανεξ
##ηλθε
απαντωντας
βοιω
διατιθενται
μπορεσει
προτυπα
γνωσεις
υπομνη
λαμπρου
1000
παροχων
νοτιο
προβλεπομενες
αναγεννηση
##τεα
απαιτει
παραλει
υπηρχαν
υπουργους
ανεγερση
ακολουθο
οσων
αιτηματα
πραγματικης
συνασπισμου
αλεξανδρου
ουτως
ιατρο
υποβαλει
##νοπουλος
πολεοδομικου
χοι
##oς
αντιθετα
τυπικα
επιτελειου
ονοματεπωνυμο
##λιος
ερωτηματα
εσφαλμενο
μερει
εταμ
κωστα
135
##σος
##χομαστε
σημαντικες
ολου
διασυνδε
λεωφο
χειριστων
##ational
χρεη
##ations
δικαιουνται
νομιμες
προσπαθη
εισηγητη
πολεοδομικων
λοιποι
390
##μενον
σταθμος
β1
2971
##λατε
##θερα
εμπειρο
λυσεις
επιτρεψτε
σαφη
λιμενα
θεμελιω
γυναικων
ερωτησης
διατυπων
##τρους
αντιστοιχης
αναλαμβανει
λεξεις
πιστο
συνεπα
συζητηθει
δωσω
##γκας
δημοτων
κυριακες
συμβουλων
εταιρια
προακ
υπολογισμο
σχετικου
αποστολης
μεσοπροθεσ
στηλη
187
μεταβολη
γειτονας
παραπο
καλυψης
υποσχε
##τωνται
##τριες
##μητριου
μηδεν
2218
124
ομοσπονδια
μπει
χρεους
περιφερειακες
κεντρικου
2469
ισολογ
πρεβεζας
##xi
εξακολουθει
αντικειμενα
οψιν
##νοηση
εκεινα
τοσα
ακριβεια
αμοιβες
θορυ
καταταξη
1968
ενηλ
##αινετε
κρεατος
νομοθετικου
τεταρτο
##τηθηκε
πληρε
##πλασια
απαλλοτριωσης
##φεις
γραμμης
ενισχυσεις
βασικες
συντεταγ
αιτωλοακαρνανιας
επενδυση
εξυ
##γκος
θεραπευ
περιεχει
αποκλειστικη
##ματικων
##κατε
αποκοπη
226
δικαιουχου
δελτιο
##πληρω
πλει
σαφες
μαλλον
διαρθρωση
οποιουδηποτε
εσπα
ζητουν
κοινοβουλευτικη
ηνωμενων
αδελ
κοινωνικα
artic
αλλαξει
2α
συλλογικων
##πιων
καιν
εφημεριδας
περιορισμων
συνδεσης
ξενων
ληξης
##γας
##θασ
ζακυν
φυλακων
εδωσε
αποστρατεια
ειδικους
411
##tiv
##πικου
##ικοτητα
μεγαλων
προκαλε
προωθει
ριζ
3205
μπορουσαν
συνιδιοκτησιας
εκεινων
##ονταν
εναντιον
##παξ
προσκλη
θερμαν
καποδιστρια
##ριδα
εδαφους
##αδ
##ροπουλος
νησου
καινουργ
##νονται
συμβουλια
##for
οφειλεται
παρακρα
κορ
##ρωνουμε
δικαιουχοι
##ρικαν
ιδιωτικης
προτασης
προσφερει
##εντα
απορριμματων
κοινοβουλευτικης
ρυπαν
αδιαιρε
rep
##ρχος
##ge
βαθμους
πληρους
ανεργια
ιδιαιτερο
επιστροφης
178
γρε
φορολογιας
επεκτα
ευαγγελια
ανικ
πορτογαλ
βιας
ενδο
##µε
γεωργικης
δικηγορων
αγιας
χιλιοστα
βοιωτιας
διαστα
ενεργη
επιμελητων
διενεργειας
αναλυτικο
167
##οδους
##ελου
αλλογενους
φασ
συμβουλος
##λησης
επιμελειται
129
οργανωσεως
συμφωνουμε
κλιματικης
συγκεκριμενων
##δικος
προηγουμενου
σταθμ
αναγκαιων
αρω
απουσιας
περιπτωσης
προηγουμενα
αρρ
αναφορες
απευθυνεται
υπαγεται
σπυριδωνα
εσωτερικη
##lic
εγγ
οργανικης
3ο
##μελες
au
κατοχυ
##ζομενων
ατε
αρχισει
##μπη
ηλεκτρικης
καστοριας
καταναλωτων
επικουρου
χρηματοπιστω
συμπεριφορα
##ριδη
κοντα
φτια
βεβαιωσεις
συνιστα
οργανου
##νες
##ill
##ποιησει
511
##ιωτη
ξενοδοχεια
ηλικιω
χαρακτηρισμος
καταναλωσης
πολεως
εισφορα
πληροφορησης
γνωμα
δινεται
πραγματοποιηθει
συγχρηματο
##μεται
τεχνολογων
καταστηματα
##τυπη
##μισθ
προθεση
αριστει
ισοδυνα
νικολ
κανελ
χρησιμοποιει
εφαπαξ
cont
παραχωρηση
διδακτο
##κυκ
περιορισμο
εκπροσωπει
##ik
γιατρων
##λιεργ
ντο
υιοθε
πολιτιστικης
θεωρει
αρκαδιας
φαινονται
##τεθουν
δισεκατομμυ
περασει
μεταβιβα
εξετασης
αναθεωρη
417
λογιστηριου
##ζομαστε
καταστατικου
συνδεση
πυροβολ
ιδιοτητα
πληροφορουμε
δεον
υπηρεσιακες
ανακλη
γραμμων
##mp
νικολαο
βουλγ
θεοδωρα
ντα
γλυ
κυριας
##ure
διατηρει
##λαου
ανοιχ
αντιστοιχου
γραφειοκρα
μπορεσουμε
εμβολ
πραγματων
λοβερ
επισυ
διανε
συστασεως
κτηνιατρικης
διαμορφ
βιοτεχν
μεταταξη
βαμβα
συντονισ
δακτυ
##ανος
προμηθειες
παπαγεωργ
συμπληρωσει
163
dec
μεμονω
γαλακτος
καλυπτονται
διακινηση
φου
κυρωσεων
πραγματοποιουνται
στεγα
δικαστικη
φορολογικων
##ομαστε
κτηματικης
##χαλης
170
γυναικες
παραγοντες
133
ημαθιας
τεταρτη
διαιτη
αγροτικο
παρακολουθουν
ισορρο
τριανταφυλ
1577
##θμη
εξοπλισμος
συνορευει
##ικας
αργολ
ληφθουν
##αινουμε
προοριζονται
αλληλογραφιας
##ριακων
αποφευ
ορα
μετατρε
μεταφορες
γεγονοτα
διανομη
δηµο
γρηγοριος
βασικα
αδιαιρετου
αρχεια
λεφτα
προσληψεις
συνοχης
ποσοστω
αποτυπ
συμβασεως
##σμα
##στιν
τουρκια
στοχευ
γνη
πρωτοβουλιες
min
συγκρου
##ξω
παραμει
υποψηφιοτητας
ασφαλιστικο
διαστη
φυλαξη
μηχανολογων
##ρακα
τιθενται
παραλαμβανει
γερασι
##ρνα
ενε
τιποτε
ενθαρ
##αρες
πληρουν
προχωρησουμε
υφισταμενων
ορισμο
αντιπροεδρου
συνδεσμου
προσθηκη
##τροπης
δικαιουχος
τελικο
001
παρασκευης
θετικο
ανανεωση
αποτελε
ελλειψει
ελαφ
οφειλων
##μεσ
αντιγραφα
κανεναν
αντιστα
πολεμου
δευτερολογια
ανακατα
προετοιμασια
##ιακων
##τιμο
γμα
ιρ
comp
επανεξε
χρησιμοποιηση
καθενας
comm
παρουν
λειτουργιες
βρεφονηπια
φιλιππος
ροδοπης
βελτιωσης
χρηματικων
##τικον
θετικα
πολυγων
πετρου
189
228
συναφεις
αναπλη
##ελθει
προισταμενοι
##ληνης
μεγαλης
σαφως
αναλογως
αση
μερικη
##λογιαννης
δωσετε
αποτελεσματικο
προοπτικη
δειχνει
προσαυξη
προσφατα
article
μικρη
απλη
περιφερειακο
##φας
κοντο
συνταχθηκε
##τησε
προοδο
μερων
θω
υδατο
##λικο
φυλλου
##φορου
απορρε
ζημιες
δρυ
δημοτικες
θεσμικο
συγκεντρωνει
επιβαλλει
καθαρα
##γι
##στος
αποφασισε
απολυτηριο
παρανομη
##λιως
κερδη
σπουδαστων
οριογραμμη
##τιζει
αρχας
νερο
ιχθυ
αντιμετωπιζει
περιφερειαρχη
αρχην
παθη
##if
127
αγωνες
διεξαγωγης
παναγιωτα
ουσιων
πολλους
##πς
αγια
τελειωνω
##βοη
##αλυπ
##ικοτητας
λεγα
κατασκευων
any
πευ
καταρτιζει
οδοντια
##ροτητα
σχολες
αυτοκινητο
##der
αλλιως
πε1
εννια
εγκατεστη
γγ
εμπορικη
εκαναν
πολιτης
αερα
ρυθμισεων
##κιο
χρηματοοικονομ
##μηθει
βλεπω
μ2
ολι
μαρτυ
αριστερα
επιδει
ανθρωπο
απολυτα
κοινοτητες
πολη
##προσ
παρακαταθηκης
στατιστικων
εκδοσεις
##τατο
βρισκο
165
##γχαν
οδος
λαζα
εκτελουνται
##χιση
οργανωσεων
##ισο
at
##γειων
αδειο
προεδρειο
υπαρχ
εκατ
καταργουνται
##τυπου
στοχοι
εντελως
παιχν
τροπου
επισκεπ
γερμανια
##ριω
εφεξης
intern
εφαρμοζει
απαιτησεων
##βων
ουσιαστικη
ακτινο
διορθωνεται
##ερων
ζωα
πρωθυπουργο
απαλλαγει
φορων
υφυπουργε
απαλλοτριωθει
αρμοδιος
φαρμακευτικου
αποδιδ
φοιτητες
##θους
βασικη
αριστοτελειου
διατυπωθηκε
ελευ
##ταξιου
##θεσιο
μασ
τοπικες
##λανδ
υπηρεσιακο
αυτοτελες
κλαδους
οπωρο
υποβαλλο
τραγακης
διαχειριζεται
##χειο
142
εργαστηριων
ψυχια
εξαιρεσιμες
oxi
περιεκ
ξενο
μαυρο
this
προεδρια
κριτηριων
##ρουμενων
##φερα
εμμε
συγκυ
##κεται
προγραμματισμο
συναδελφων
μειζον
προνομ
##ματισμου
111
αναδειξη
προσδιορισμο
##ly
##τσων
##ιωσης
καταλαμβανει
προκυψει
διαφορετικη
##ληθευ
γειτον
απουσιαζει
##τελ
##θηκα
173
μικρων
παυλος
περικο
##λαιου
συνεργεια
##διαγραμμα
176
ποιοι
επενδυτικου
επαληθευ
προσωρινης
χασ
συγκλη
εκτακτης
μονομελους
εκπροσωπου
επιλεξι
εργολαβ
αξιοποιησης
συντομα
##κτο
σκεφ
προβλεπομενη
μετονομασια
νοε
κοσμου
πινακι
ηρθε
##λημ
καλουνται
χερια
ταξεως
μισο
βυρων
##ber
προοδου
κρατικη
τιτλου
αποζημιωσεις
προυπ
τεχνης
τουριστικων
μυτι
##υπασ
ουσιες
##χειας
δημιουργησει
γρεβ
φακελο
μανω
##τασ
φορολογια
απογευματιν
ταξινομη
θεωρηση
θωμα
χρονοδιαγραμμα
1958
κωνσταντινο
##ποιησεις
συναρμο
συνυπο
τερματισ
απαγορευση
ομιλια
καθημερινα
αγγε
##λαιας
##est
ορκω
μικρομεσ
αναλογη
ανθυ
##ther
app
πατερας
μπενακη
γεωργιαδης
κατευθυνσεις
##φυλακων
απαιτουμενα
αμοι
ληξιαρχ
αποδοχης
μκ
εκλεκτο
κυριακος
δειγματο
##γγει
γλωσσ
##ποιησεως
ενδιαφερομενοι
ασφαλιστικα
πιεριας
##κτικων
εκδιδονται
περιορισμους
##υντα
πιστοποιητικου
παρακαταθεση
φακελου
ελεγχοι
μεταπτυχιακο
##ρχο
τροποποιησεως
αξονα
κεκ
εγκρισεις
καταναλωση
ποσον
φρου
ανθυπασ
ξεχω
αριθμη
##λογιων
##σκου
επαναληψη
οικειας
ιονιων
##κηπευ
νυκ
κατοικους
λεωνιδας
εκλογης
##στηρια
σχεδιαζει
καθηγητες
περικ
υπουργικου
προτεραιοτητας
επιβαρυνση
συσ
πυροσβεστικου
##λογικες
αυτοκινητα
αμφιβ
φυσης
οικεια
##τσιου
πρωι
ζωνες
παιρνουν
320
##ζου
οικογενειας
σαββα
τολ
εκσυγχρονισμος
##λωσης
προκει
φορολογου
αχι
προηγουμενες
κυριων
##ance
παγκοσμιο
επαγγελματικων
##ετους
διοικειται
αρρενων
προει
φροντισ
ιδιωτικη
κτηματολογικο
παραμε
ενοτητες
ερχομαι
εφημερις
μπε
κεφαλαιαγορας
φλωρινας
συνδρομης
##γνωση
ανακυκ
τοι
λιμ
ιππο
λειτουργιων
ζητου
εξουσιοδοτη
διδασκαλιας
εμπειρογνωμον
πον
δωρεες
2018
4038
οπωσδηποτε
ημεδαπης
ναυτο
##πιας
θανατου
##rac
ουδε
διαταγματα
νυχτε
μισθοδοσιας
πρωτοτυπα
ανωτατης
προγραμματισμος
διαβεβ
αποδειξη
247
παραμενουν
κομο
##ωνιας
350
αναφερομαι
διοριστεων
ρυθμισης
υπερβολ
κληροδο
πρακτικου
κινητρο
συναδελφο
##νατε
αντισυντα
πλειοψηφιας
430
τηλεορα
προερχεται
κομματι
ευρυθμη
τακτικων
ημερησιας
ολομελειας
μητσοτακης
επιβατων
διαφθο
παρουσιαζει
χημικων
πρυτανικης
βερο
ενυπο
παρατα
χωρη
περιεχουν
##διδο
##μονται
181
##φωνα
##σασ
δασκα
βρεφονηπιο
μιλατε
αλληλογραφια
##ere
##ty
απαντησω
κινηματος
βαρυ
##φιους
κληρονομιας
εγκαταλει
κερδοσκο
μερ
μεγεθος
θετει
##θετησης
διαφορο
ζακυνθου
εταιριας
##χως
εγκυ
διαπραγματευσεις
πληρεξου
εξυγιαν
εκπονη
εκθε
χαρι
πτω
##τεχνιτων
πατριδα
##ci
les
τριτον
εποπτευει
##ασεων
##αινω
επιφανειας
κηρυξης
προεκυ
##ετιας
ακρι
αντιμετωπισης
208
συνιστωμενη
##λθε
οικογενειες
εθνικες
##ρινο
ανασ
ρυθ
κληρω
κινητη
συνεργασ
διεκπεραιωσης
συντρεχουν
ανταγωνιστικοτητα
αριθμους
διενεργει
##la
αλυ
βελτιω
ισοτιμιας
πρεσβ
2517
##ωρο
απλου
##τινου
φορολογικη
υδατων
παραγραφοι
επιβαλλονται
πινακων
εξευ
σεβ
##ρινε
αχιλ
##τειχε
ελληνα
στει
ρυθμιζονται
##ριθμ
τοπικου
συμπαρα
ες
##προσθε
βγ
##ουλια
επιτυχια
λαν
αποχωρηση
270
##αλου
σοσιαλισ
900
εντολες
τακτικα
δημιουργηθει
υποψηφιους
υπηκο
κοκκ
προσοντων
παρατασης
##ord
αναμεν
διαπιστωθει
οικοδομικου
ηγεσια
ξερει
καθαριοτητα
επιτροπου
αναθεωρησης
πληρωμες
τετοιου
##ποιιας
χαραλαμπ
επισυνα
τεχνιτων
ξεπ
ζημια
##λικων
καταστατικο
ιατρου
##στοπουλος
νηπιαγωγειο
εξαγωγης
κομοτη
συμπολι
ταξια
ετοιμα
##θωρα
πρωτοβαθμια
ληψης
εξαλλου
##ρινου
##νοντας
κατσι
πρωτογεν
αιτησεως
αμπ
##κονται
##δαν
εντασσεται
διατηρητεου
κομμουνιστικου
υποβα
##λαμβανουν
μεταβολες
##per
υποκεινται
υποδομες
απολυεται
υποκαταστη
επανει
##θεις
##την
συνεχιση
οξυ
τελους
νομιμως
γυμνασιο
μαρκο
αιτουν
145
ξεκινησει
μουσικης
αιτιολογια
οδηγησει
δρε
σπιτι
πετρελαιου
ευρωπαικες
καθηγητων
διευκρινισ
αποθηκευ
μηχανισμο
συμβουλο
εξαιτιας
183
##μικ
ευαισθησια
πλημμυ
##ινος
επιλογες
ecu
υποκειται
υδραυλ
##πτει
##γραψει
επιπροσθε
αγωνων
μερικα
ενδιαφερομενων
ρι
χειρουργ
##κτικα
αναφερθηκε
συνεισ
καλλιθε
##λελευθε
νομαρχιακου
δασους
##ωθηκαν
πεμπτη
τεχνολογικης
εξοφληση
κυβερνησεων
οπωροκηπευ
σχολια
διαρκη
παραμονη
man
αστε
εκκλησιας
αποστα
##ομετρ
αποσπα
ιστοριας
επιμορφωσης
στ΄
ορου
εξαιρουνται
αναμορφωση
##λεν
συγκεκριμενου
##λειων
συναλλαγμα
παραδιδ
εκεινους
1972
λεγο
πρακτο
βαρβα
προληπ
##δημο
ρεθυμνης
αδυναμια
υπομνημα
οροφου
γεννησης
αγκ
σταθμευσης
ομοιες
οριζον
πλω
##καλλιεργ
στρεμ
ειρηνοδικ
βπ
εντυπωση
εαυ
##γιο
προβαλ
ολοκληρο
βουλευτου
συνεπαγεται
αποθηκη
ψηφισουμε
αυτοψ
πυροβολικου
καταστει
καθοριζ
κινδυνος
##τραπει
τυπος
δεκτες
τεχνων
##ven
ορυ
##ειγ
##ιζομενης
καταδικασ
##τιθε
sta
φορτη
υε16
αφορουσε
##ou
ετησιων
εφοδιασμου
στρατο
υποδομη
λογοι
##γραφια
κριτηριο
δασκαλ
εμπιστευ
εκλογων
διακοσιων
κωλυματος
##τησουμε
προκαλουμενη
ανεξαρτητως
μνημειων
sa
στρω
συμπληρωσης
δινουν
εκπαιδευτικης
συμβιβασ
164
##αρκ
μοσ
κουτσου
εκπληρωσης
me
συγχωνευ
μετακινησης
σωτηρης
καλυπτεται
εκπροσωπων
λευκαδας
παιδικων
##θενα
ζητηθει
χατζηγακης
##φαρ
εισπραξης
ινστιτουτου
αντιστοιχους
λυκειο
δεσμευσεις
οικισμο
φορους
ζαχαρης
##κατο
acc
se
δημοσιευμα
ελευσι
##δεδειγ
περιορισμοι
συμφωνω
καθηγητης
συλλογος
προσφυγων
μω
αποτελεσματικοτητας
μεγιστη
περας
στεφανος
διαγραφεται
ζητειται
ψαρου
συμμορφωσης
μαρα
ασφαλιστικη
##καμε
κειμενη
εδε
κυριοτητα
φαινομενο
αντιτυπο
αναγνωρισης
κης
σκανδα
λαφα
εθνων
υποδοχης
προσληψεων
προσδιοριζονται
##ελης
στεργ
εκπαιδευτικη
εμενα
υπηρεσιακη
##αντι
##σιους
μεταποιη
καταχωρη
##ττακης
es
πτερυγες
μηνυμα
κοινοχρηστο
πρακτικες
παρισ
##τατα
ευθυ
καταθεσω
πολυτεκ
προσχολ
εκτο
αγαθων
επικρατεια
εγγραφει
427
επιτευχθει
θυμα
ενσωματω
ριζο
ηλεκτρονικου
ανωτατων
υπολει
##τροι
δερ
πυρκαγια
γρεβενων
παρασκευασ
agre
συζυ
εναρμονιση
συμβολη
ενδειξη
κυριοτητας
αριθμον
παραχωρησης
υψηλης
υλη
διππ
δημιουργουνται
ηλεκτρονικα
επικαιρο
ερμηνευ
γαλλια
δημιουργιας
πιθανο
##φευ
##ak
υπαγωγης
ενεργει
##διαφυ
προσωπικη
υποστηριζει
καταλληλοτητας
ημερας
2439
σαλα
##σκεια
κανονικη
##ern
δημιουργειται
περιπτ
ανισο
κοινοβουλευτικο
διεκδικη
συναλλαγες
##τοις
ξηρας
συσταθει
συζητησεις
εγγραφως
επιστημονικων
παραδοσης
ελπι
126
##λεις
μηνυ
εργαλεια
διπα
##επθ
##ξιας
μιλησει
γνωριζω
κινητρα
νεοι
βεβαιω
##erv
σεισμο
γενε
νι
λογιστικης
καταλληλη
νικα
εφορειας
ακυ
##γκαταστα
δρομος
κυβερ
ναρκωτικων
πυρην
κεντρικο
##ιστικης
υπεπθ
αντιπαρα
τσαλ
πηρε
αγριν
ετε
##τσαλ
προσφορες
λοιπους
σκεπ
δινουμε
δευτερα
λεπτομερεια
δυσκολο
προβλεψεις
2240
απαντα
δωμα
ασχολη
αθρο
βαρε
φορολογικης
θυμ
ανακαλειται
αποδεκτες
αναψυ
συχνα
##ργυ
χρησιμοποιουν
λεπτων
αποτελεσματικοτητα
221
πρακτικης
αποκτησεως
οχ
συντονισμος
αγγελος
εκπλη
αλα
##ατα
αποσκο
τουτων
νεος
κινηματο
καρυ
κυα
284
σταθμοι
αποφασισει
φιλοξεν
φετος
157
συχνο
ανακοινωσω
κολο
ανακοινωσεις
δηλωσεων
πολυγωνικη
παρεχομενων
##πουλε
ψαρουδα
συντομο
προυπηρε
##ist
ξενα
προφο
περιθαλψης
131
νηπιαγωγων
αντιθεση
##τινη
πακε
##κτικη
##σμενη
γιαννης
οδυ
##γοι
δομες
αφαι
##rans
ναου
συνταξι
186
γεφυ
πολεοδομικης
συνοδο
δολ
περιορισμος
αρκει
καταβαλλονται
πιεση
συλλογη
λουτρο
γνωριζουν
επισημανω
213
σιδηροδρομ
αισθαν
ατομο
##τεχνικη
επιστημονικου
πρν
##σιμου
καθισ
ταξιδ
that
ευρε
μερικες
##ονας
185
γιωργος
##εφαλ
δινετε
μηκος
σφαλματος
μιλησω
συγχρηματοδο
σταδιοδρομια
ποσοστα
υπερβαση
4ο
θυμισω
προειδο
ικανοποιηση
σκαφη
177
οικονομου
γνωμοδοτησης
##me
μετοχες
γραμματειακη
κεφ
παραλια
ανταλλαγη
ιατρικη
τροπους
εκδηλωσεις
438
ξεις
τεραστιο
υπονο
εκπληρωση
παραπεμ
αμι
205
440
##γκερο
προσθετη
διαχειριστη
τεχνολογικων
σταθερη
μεσου
παγκοσμια
αξιωματικης
κεγκερο
πλευρες
ευγεν
βιογραφικο
προκαλει
##µατων
οικειων
αποτελεσει
διανοι
θερμανσης
ταυτοχρονη
κεγκερογλου
##ξο
καθολ
εντασσονται
δυσκολη
##καθ
χορηγει
##τρης
δεκε
κλασ
παπαδημητριου
πτυχιων
παυλου
κορινθου
θεσπρω
##ρεται
αδι
##λυν
σεμινα
##σμους
μειωσης
##ank
καλυπτουν
ανακατασκευ
νομαρχιακων
it
τελειω
161
ολοκληρωσει
επαγγελματιων
ετησιο
εκπροσωπη
αντιμετωπισουμε
χορηγουνται
συνδεονται
αντιμετωπισει
φαρμακα
εμφαση
πολεοδομια
ακουσαμε
γονεις
##θηκαμε
μηχανηματα
χαρη
αλε
1188
επιταχυν
##ψετε
ιδιους
ποσοστου
ιταλια
αναφορων
εμπροθεσ
εξαντλη
θαλασσα
διενεργειται
μοντελο
##ιακης
εξακολουθουν
μελισ
λεγοντας
ικανοτητας
νσεων
μεταπτυχιακων
##γομενων
3ου
σημειω
αιων
##μπων
υπερη
διπααδ
αμφιβολ
ημερομηνιας
υστε
##io
ασφαλιστικες
εξασφαλιζει
καραμανλης
συμβει
##ληξε
προχει
ζευ
2019
επιθυμει
κοινες
διευρυν
##ιτης
βασης
συζητουμε
παιδικου
ενδεικτικα
παραγγελ
αποσυρ
ανατιθεται
πληροφορηση
##τολογια
##ιστων
μικρες
##fer
##λογιο
##φθηκε
κεφαλλην
τοποθετη
τροπολογιας
επιχειρησιακο
δημοτικος
##αριο
παλαιου
πολιτειας
##τιζεται
qu
##νευ
σταθμο
πηγα
190
αερολι
πολλαπλασια
εγχει
παγου
προση
##στεγα
ειδικοι
τιμολογια
υποχρεων
ανθρωπισ
1892
per
μητερα
επιχειρηματα
αεπ
##ρισεως
##ικοκυ
##γιων
τονισω
ωφελειας
##βασι
ne
κρεμα
απαλλαγη
αιτωλ
μικρα
ημερησιο
υπαρξουν
βελτιωσεις
νοικοκυ
##κτων
ορθοδο
ποιον
204
##ζινα
συγκεντρωσης
φαινομενα
##ομενες
##σμων
##βαλαν
καθοριστει
επεμβ
ηλικια
κατεδα
230
μητροπολεως
##γεις
γιου
ιωαννα
υλων
κορων
λοβερδος
κωλυεται
συμπερασματα
περιουσιακων
##ans
ανοχη
σαμα
##δωσει
γενικους
ευστρα
ομοφωνα
εορ
νατ
οινο
ηπα
##μπε
χρησεως
ομαλη
αντιδη
τετραγωνικων
ενθαρρυν
##αιοτητα
δικηγορου
##νεια
ασκησεως
##πιε
διαπιστωθηκε
1929
##χαι
φωτεινη
ευδοκιμως
παραγωγους
περιοδικων
εγγυησης
επιθυμ
166
λιγα
αλλως
ομολογ
διευρυνση
βιομηχανικων
καλου
αναζητηθει
##ικογλου
κρατησης
δεσμευονται
ιδιων
297
471
##ies
αξιοπ
ab
##οπουλου
194
απεικονιζεται
μεταγενεστε
##τηλε
θεωρηθει
εγκρ
2882
εκτ
πολλων
απωλεια
επεκτασης
απαιτηση
ειπαν
πυς
μεταναστων
συγκροτειται
##τουσε
##δεδε
κεφαλληνιας
επιβεβαι
πηγη
τιτλους
προσφυγη
##ιστικες
βερ
τεως
πληρωνει
##θρα
χε
κρου
##tions
καταλογος
σεβασμο
βγαλ
χυ
ενστα
ζητησε
1953
συνορα
ομοφωνη
πλαν
μεγαλου
συνεβη
μεριμνας
ετ
προστιθενται
προαγωγης
καθαριστριων
βλ
τεχνολογια
ευρυτερη
ασθενων
βρισκομαστε
μαλα
ενταλματων
3208
κασ
ομοιως
επικαιρων
σωτηριος
##αζεται
συγκρι
διοικησεως
##σοπουλος
περιγραφεται
γεωργα
καθυστερη
παυλοπουλος
καινοτο
συνδεεται
##ax
λαικου
κατοχος
παρετε
οριζουμε
αγγελικη
ημερολογια
χρηματιστηριο
σουφ
επερωτηση
υλοποιη
καταναλωτες
βοηθητικου
μεθοδους
αμερικαν
λαικης
διοριζονται
ηλικιωμενων
144
υπολογισμου
αγωγη
πλεονεκ
##τινων
καλης
φορος
##γιαννακης
συνεντευ
σοβαρη
##ect
προτυπο
##βουν
σουη
απαιτουμενων
##μενω
αλεξανδρα
##διευθυν
επιθυμουν
τριτης
2362
επιστημονικης
νοσοκομων
τηλεοπ
απορρεουν
τετραγωνου
χρησεων
μικροτερη
εγκριτικη
αρχηγου
αεροσκαφων
τσια
μεταβολων
##ωνια
ανακαταν
τοπογραφων
συνεργειων
du
υπογραμ
φοιτητων
##ps
σιγουρα
ελενης
ελευθεριου
πρωτος
##κιων
158
##λεκο
εκτελουν
συγχρο
διοικητικος
κυριαρχ
##γεγραμ
##ib
τραγ
κριθει
καλλιο
ψηφου
διασκεψη
αυξ
##εβλη
σταθμους
χρηστες
οντως
αντιμετωπιζουν
εκρη
υλες
καταταξης
##πινα
εθ
πλατους
διακριν
ευθυμιου
εξαμηνου
κυριακου
καποιους
διεπεται
αγνο
διαγραμματα
gu
υπογραφουν
##χουσες
αρμοδιους
ιδιωτικα
##θηκες
ανανεω
λαμ
δικιο
αξιες
##γωγων
απαιτουν
απαξ
δδ
εκεινοι
βιωσιμο
ιατρικων
##ιαν
λογου
##τεο
αναφερομενα
φται
δημοτες
αστικων
στενογραφιας
ορε
αντιτυπα
συνταξιουχων
##ιδες
προσκομισ
##ποιωντας
καταστημα
μουσικων
##μελη
επιχορηγησεις
450
προσφερουν
##θειτε
βουληση
επιβολης
υπερβαινουν
πλεονασ
συνεδριο
##απ
παρουμε
απεργ
εβδομαδια
##συστη
χρυσου
μνημονιο
διοργανωση
αργολιδας
προληψης
##μικου
κωδ
ερευνητικου
δημοτικα
εμπιπτουν
##ροπουλου
##μιευ
μπορεσουν
πραξεως
γνωμης
ψυχα
αποκομ
παραβα
λουκας
αλκο
χαρακτηρισμο
ψηφοφοριας
237
ανανεωσης
δοκιμων
ιερου
##μισι
τεθωρα
##ξατε
κηδε
δεσποι
λιανικης
θωμας
ro
##μικη
μιλτιαδης
φυση
μειοψη
συγκροτησης
δικαιολογ
χριστινα
tr
πολυδω
ριζοσπασ
τεθωρακισ
ενδιαφερομενου
##μπαν
##ληψιας
επανειλημ
ανταγωνισμο
πρωτοδικων
εγκεκριμενο
γερασιμος
cons
βαρους
εισπραξεων
##αριας
δημητρης
δημοσιευσεως
αγωνα
κατατεθηκε
εκπαιδευτικα
καπη
τεχνικος
λαικων
αυτονοη
##au
ρουμαν
υποδειγμα
εξωτερικης
ραδιοτηλε
προακτε
παπαγεωργιου
δυσκολιες
εξαταξιου
στυλιανος
θορυβος
##iz
πεντακοσιων
επιπτωσεων
οπωροκηπευτικων
εγγυησεων
##ian
σωτηριου
##σμενο
κοινοτικες
##ξτε
ναυτικης
διαμορφω
ελεγκτων
214
σοβαρες
##χειων
λιγες
##ρεσκεια
βγα
εργατικης
##ργη
πληθω
συμβουλους
αντιρρηση
αρειου
κατηγορη
πληρωσει
διοικησεις
΄αρ
##ιτσας
εργασιακη
ραδιοφων
κρισεων
πρι
εισι
χαιρο
υπερβει
οριστικης
βρη
γαλακτο
διακοσια
##πτο
κεδικογλου
σλο
εισπραξεις
τουρισμο
γ1
προσδιοριστει
σημειωση
do
υγρα
μοιρα
αποτελεσματικα
κινητων
ομιλητες
κηδεμον
σκοπου
διατεθει
διαλογος
πετσαλ
αναφερομενων
μερια
προυπολογισμων
##ρακτη
other
πλατυ
##ma
εξαλει
κινδυνους
εκλεκτορικου
##ιακη
μηκους
ορισμου
κατεχουν
ται
σιουφας
206
χρησιμοποιηθει
τοπογραφικων
##ινγκ
πατε
νικολοπουλος
παραπτω
decision
εμπιπτει
αγροτικου
μαι
πρωτευ
μπαλ
θεσπρωτιας
λανθασ
αυξησης
βλαστηση
παροχες
κρεας
##πιου
α3
ββ
##απο
εκπαιδευτικοι
ερευνητικων
428
οχηματος
πληρουνται
διενεργη
ορει
εξυπηρετει
ακινητης
αμοιβων
##ρητο
απρο
ενταξει
οσες
πετσαλν
υ10
ισπανια
δακτυλογρα
μονοπω
##ζης
περιβαλλοντικης
ενδιαφερομενους
κυριακη
εκτακτη
ηθελε
αποκεντρωσεως
αναβαθμισ
##und
συμβασιου
κοινοβουλευτικου
εξουσιοδοτησης
αναλυσης
##βρυ
κασταν
ανατρε
μετακινηση
σαλ
δ12
ενταλματα
ακτο
περισσοτεροι
επαφη
επιτρεπουν
ενδιαφερει
trans
μεθοδων
στοιχου
ευχαριστησω
μεταφερονται
νικολαιδ
αξιοποιη
αφενος
περιθωριο
##διες
αζ
πετρα
βιβλιου
περιοδους
υπολογιστων
βυζαν
διερευνηση
##τρικη
νομαρχιακες
δουλευ
βασικων
διαφορετικες
ατομικης
διαγραφη
φοροδιαφυ
δεχεται
υποπαρα
εκτακτες
φωτιου
φυσιο
ιση
##ass
προστιμο
1337
ανακοινωσης
ελευσινας
ολοκληρου
πολιτικος
αναπηρια
419
μπορουσαμε
επιλεγει
ντης
##ωμενη
##λαβη
επενδυτικων
235
##ιακου
##γαλε
προεδρικου
αντικατασταθηκαν
κουζινα
αφετερου
αγρινιου
καλλιτεχν
θεσει
##χαια
ελληνικες
χρυση
λαμιας
χρειαζομαστε
εμπορια
υποβληθηκε
τριτου
γεωπονων
συγκοινωνιων
μειον
δημοσ
πρωτοτυπο
##ρακας
bo
λεβ
δελτια
αφι
243
ιδιοκτητες
εκκαθαρισ
prov
##εα
εντοπ
εξασφαλιζεται
παιδι
υγρων
κανονα
αιτηματος
απαραιτητων
σαε
μεταφερ
212
232
βαλκαν
τηρειται
βοο
εγγυησεις
ερευνες
ανθυπο
ετησιου
##ματολογια
επιβεβαιων
εκκαθαρισης
ρευστο
εντυπο
χρησιμοποιηθουν
συνεκ
περισσοτερων
αναδοχου
κατατασσονται
οφειλουμε
πραγματικο
καθιερω
258
εισφορας
ξεκαθαρισ
##ide
κατειχε
##ναυ
διαδικτυο
##πιταλ
ανεφερα
περνα
μεινει
##ομενος
μηχανογραφ
καταφυ
αρχιτεκτονων
αμεσης
οδηγου
επιστημονικο
τοπογραφο
##ublic
δοσεις
τελευταιας
δημοσιους
ass
μεσολογ
168
##ff
καλως
ανετη
μορφες
##de
ασφαλισμενων
μανια
##τεθηκαν
κατασχε
##ομενοι
προεδρικη
σκευ
δημοπρασια
ωραριο
παυει
μεταδο
ειδαμε
βενιζ
φθαν
χρηστο
420
χορηγηθηκε
λιμανι
pre
σχ
τρυ
κκε
επηρεαζουν
αστυνομικης
συγκεκριμενης
γνωστοποιηση
##μανη
παραδειγματος
εκαστου
νευ
αναπτυξιακη
σιτηρων
συμπεριλαμβανομενης
δεξια
αδιεξ
##λευσεως
αρχηγος
στελεχος
εκφραζει
191
418
καθηκον
##τοποιησης
πολυδωρας
##ερια
δημοκρατικη
στοιχειω
καταλαβαινετε
ωδ
ημουν
ζηση
μιλαει
ηλεκτρονικο
διαπραγματευσεων
δραγασ
αστικου
προοπ
δρεττακης
432
υποχρεωσης
συντονιζει
κειμενων
ελληνας
1966
εμβολια
νατο
πρωτες
δασικες
αντισυνταγμα
συνοδευονται
επισημανση
##ριθουν
ανθρωπου
επιστρα
σφραγιδα
εισηγησεις
καταγγελια
##σελι
ενσωματωση
εφαρμογες
##εριου
τινων
703
καλε
εφαρμοστει
##µατα
τακτικες
εκτυπ
καταθετω
##ign
el
μικροτερο
διμε
εδρευει
δεκαετια
μπη
ομοιοβαθ
υπολοιπες
##ary
##λιους
λεγεται
ελληνο
192
τεμαχ
συνοδευεται
ανεφερε
τεθωρακισμενων
##χοντες
sec
ελληνομα
##περιφερεια
επαναλαβ
##ai
##μουμε
εργοδη
περιστε
δημιουργουν
ηγου
σκοπων
##τιμη
αποθηκευσης
βρο
λυν
εγκαιρα
σχηματισ
##ουμενες
προσελ
απονεμεται
αφαιρεση
##ach
παραρτηματα
υεθα
επαγγελματων
χρεων
νοειται
καταλληλες
##ξαμε
πολυτεχνειου
αμπε
νομοσχεδια
αναπροσαρμογη
συνηθως
συγχρονες
##στους
##μετρα
zz
ελληνομαθειας
επιθεωρηση
inc
##μαχια
ανθρωπος
παντου
προχ
##ang
κλε
653
##βετ
ιδιωτικες
κανονικα
υγειονομικων
δρομου
φταν
##ιστο
νομιμοτητας
##ys
στελ
ρολος
καπιταλ
##αιολογη
διαι
καλειται
διεθνης
εκατοντα
προσωρινα
προσαρ
συμβαλλομενα
διευκολυνση
δικαιουχο
επιτρεψετε
εξοφλη
παγιων
καθισταται
ινστιτουτο
car
εα
δισεκατομμυριων
αρχικης
αλλοδαπους
σταματησει
##ψα
ανωνυμος
ειπω
μακροπροθεσ
βαλει
αυτοτελους
231
εξοικονομ
βασιλης
χρονικα
αλιευτικων
περιμενουμε
ψυχαγωγ
##δαπ
φοιτη
απασχολει
αναφερομενης
εξειδικευση
169
καποιον
##φορος
διαφορετικο
μηνιαια
##ιστει
μιχαλης
##δαρης
τοξ
εργασιμων
εντοπισ
##μευση
παιχνιδ
προηγη
##rom
θωρα
χαρακτηριστικο
παρατη
περιθωρια
##βλε
ποινες
καποδιστριακου
συμφωνει
ανεκ
απασχολου
προσαρμογης
επιδοματα
τομεων
##χουμε
αντικειμενων
259
##µατος
##γηση
550
υφιστανται
υπηρξαν
179
συναρ
εκπομπων
2ης
λιβα
ελευθερων
προοδευ
επιδοτηση
υπηρεσιακης
λογιστικη
προθεσμιες
χαρτο
##χομαι
εισαγγελεα
πληρωματος
σειρας
αναγκαιοτητα
314
γραπτως
πληροφορη
δικης
so
παρασ
λαμπρουλης
παγια
μπουν
1943
ασχολειται
διαπραγματευση
σημειωνεται
μετοχικου
επειγον
ξεκινησε
εοφ
νησιων
ποδο
οπλων
προσχολικης
συμπληρωματικη
τροφο
ανατ
γραμματιων
καλυμ
μιλησε
οδικου
κολλια
αβρα
##πονη
γεα
εξελ
##ρχων
γιαννοπουλος
ελεγκτικο
ξεπερ
επιδοματος
αποθηκης
καλοκαι
##αιος
χαραλαμπους
##ρουχα
εντυπα
εργαζονται
ειλικρινα
προσδο
εντεκα
τονους
2527
ασκειται
κηρυσσεται
μετεχουν
εφεδρειας
οριστικοποιηση
172
##ειον
λαβουν
επιμελητηριου
a΄
##σαφη
##φρο
ηρακλειο
πετσαλνικος
εμποδ
κτηματολογιου
##λειτουργ
175
φυλακες
ανατιθενται
αμετα
συμμετασ
international
αποφυγη
πληρωνουν
καλυψει
τελειωσει
ενταχθει
not
αποκτησει
στεφανου
συνηγο
χαλυ
διανοιξη
κυκλω
υπευθυνοι
##εδει
βρουμε
##ρωντας
αναληψης
##ριζω
ελπιδα
υφε
θελαμε
συντεταγμενες
οπλι
ισα
υπαρξης
πληροφοριας
γεωπονιας
ετοιμο
επιτροπε
nat
αυτοκινητου
παραχω
##τσιω
ελευθερα
κρατικης
αναδιαρθρωση
750
σκυλλα
εμπλεκο
##ite
καλαν
εξοδου
ανατεθει
λυματων
ελευθεριας
νεκρο
δημοκρι
τελευταιες
μαρκογιαννακης
διαγωνισμων
λαθ
##μικο
επικυ
κοινοτικα
##θετει
ανικανο
υποδιευθυν
επιδρα
συνεννοη
αστυ
αντιπροσωπεια
μεταχειριση
εξωτερικη
##βεν
##τρικων
δημιουργηθουν
##φυλλων
ανεξαρτητων
##τανιας
412
διακριση
κονδυλια
2683
contrac
συγχω
ιωαννου
φορολογικο
αυξανεται
λογαριασμους
σωματων
##iss
πορισμα
εντυπων
κυβερνητικη
ευρωπαικα
gre
##κοπης
254
γεωργικη
δημοσιευτηκε
επομενες
κειμενα
σπ
##ματικου
which
γεννηματας
βηματα
##ωv
##ρονται
αστυνομικων
καταργησης
##λαβαν
απαντησετε
γραμματεασ
απαλλοτριωσεις
162
ισοτητας
αμει
κεφαλογιαννης
ολης
ξηρο
μανολης
εισηγητες
φθο
αναθετουμε
αγορη
φορτιου
ογκο
##6α
θερμοκρα
εμπορικου
διαφορους
ορισθει
ατμο
##ματικης
οργανωνει
αργοτερα
βεβαιωνεται
διατροφης
επιτυγχαν
χαριν
φυλλο
εγχω
ασθενειας
βεβαιωσεων
δν
πολιτειες
φερνει
207
εκδιδο
αντωνης
αναγκαστικης
πανεπιστημιων
λειτουργικες
καταλυ
κρινονται
1967
ενδεχεται
διδακτη
244
ερμηνεια
βγει
πανδη
τεχνολογιων
##form
σωκρα
αδικαιολογη
εξαιρεσιμων
##τσος
##ονομιας
διακυβερνηση
ρυθμιζει
##to
εφερε
παρακαλε
##βιομηχαν
##ρεση
##πτονται
σχημα
τριακοσιων
υδατα
κληρονομιες
κουρακης
ανεξαρτητη
πειραιας
ασχε
υπενθυ
δεδ
διονυσιος
σκαφων
ερχεστε
ατομικων
εκλεγει
κατανεμονται
##κοντα
προεδρων
ειρηνης
εισοδο
τo
τουν
193
θεσμοθετη
πληροι
##ele
##μονα
##μοπουλος
##αννου
προκαλουν
καταλαβαινω
συλλογικη
υποθεσης
γιο
διασταση
εκπτω
δικηγορικου
συνεργατες
παραδειγματα
προσδιορισμος
απολογισμο
ιδρυσεως
πλειστηρια
αλογο
συνεχισει
ενωσεις
παρεμβασεων
παπου
##κανον
πορισ
δασμων
σαρ
κρο
εισοδηματα
1954
τσαλδαρης
αστυνο
υλης
επαγγελματικου
παραστατικων
δυνατοτητων
κατοικοι
##λογηθει
ευαρεσκεια
##isch
λυκου
διατηρητεο
μαρου
##κωνσταν
θυγα
μεταναστευσης
ψηφισμα
εμπιστοσυνη
διαταγματων
260
νομοθετικο
ζωνων
επιχειρησιακων
χαρακτηρισμου
λιβ
υπηρεσιακα
λαρισα
συσσω
ακουστε
ενεργειται
ακρα
συναδελφου
εγγραφονται
209
προτιμη
εγκεκριμενων
ζωικης
δημοσιονομικων
αναδρομικα
ενοτητων
ρητα
συμπληρωματικα
ξεκινα
797
υιοθετη
αξιοπιστια
##ζομαι
δικηγορος
τριμελους
μπαρ
##ψω
174
συντασσεται
βλεπετε
fran
δς
##πτη
εισηγησεων
κατασκευες
οτου
επιβληθει
υποεργ
αποκεντρωμενες
επεμ
ογα
##lo
μαχη
προσανατολισμου
ολυμπιακων
χαιρομαι
καθαρο
6ης
υπερα
διακοπης
τελειως
πανεπιστημιακης
ψε
φερνετε
αποστρατευ
νικαιας
αντικαθιστανται
επικιν
αρχιτεκτονικης
χρονων
1960
##γορα
##ματικες
βασιζεται
οικοπεδων
αντιπεριφερεια
εφημε
καποτε
περισσοτερους
ολγα
διακινησης
τελωνειακων
χαλκιδας
απομακρυν
αθανασια
δοκιμη
συμπρα
εργατικου
περιβαλλοντικη
##σασταν
υπογραφεται
ενιαιας
285
τροφιμα
διαφυλα
προσκυ
ιδεολογ
οφειλες
ενστασεις
εργατο
αντιθετη
καθοδη
##λισης
##mo
br
323
παρατεινεται
περιθαλψη
ωρο
αποτυπων
συμβουλοι
γραμματιο
εκπομπ
##τελευ
νικολαιδου
εμφανιζεται
τπ
αυξησεις
επαγγελματιες
ακαθα
επιστημονες
κρισιμο
ξεπερα
##ξιν
πολυμε
μιου
συνεχιζει
##στασιο
κοιταξ
ακροα
χαιρε
πυργου
καινου
συναγερ
##ικολαου
κτ
ολοκληρωστε
τσαρουχα
συνεννοηση
αρχικο
338
επικει
φθασ
423
ιστορικο
υπολοιπων
ανταποκρινεται
289
καλλιεργεια
καταβαλλει
##τεροι
προσφυγες
εκπροσωπειται
συλλογων
υποβαλλομενα
συνθεσης
προθεσεις
##κτικο
αλλον
φωτογραφ
καταχωρηση
γιατρους
καταθεσης
χαλα
διατηρουνται
οικον
211
μορφο
cas
239
##γοντα
εντολης
δομικων
απροσ
γνωμοδοτησεις
πηγων
λαφαζανης
δενδρο
πετρο
λαικη
##γν
##ial
τοποθετειται
φορολογικες
τζι
##σωση
πρωτων
εκφραση
κωνσταντινα
παραστατικα
βαθος
μουσειο
επικαλ
##τουλης
mon
ονομαστικη
ηλ
δ1
επωφε
us
##εε
λατομ
προτυπων
σπαρ
222
μητρωων
αριστειδης
εκχερσωση
##τουσαν
##χθησαν
διαταγη
τουριστικη
νομοι
##κυστη
ποδοσφαι
πιστωτικων
ρυπανσης
1β
agreement
μειωνεται
ιωνιας
ορθ
580
αναπτυξιακο
##ωρη
##pos
422
παραβασεις
λυθει
παπαδοπουλου
1920
κτηματολογιο
υποστει
##σιοι
##σσουν
οτ
225
στατιστικης
γκε
αλογοσκου
196
αγρονομ
φωτοαντι
hell
απελευθερωση
επειτα
##ρικος
μεταρρυθμισεις
δημοπρασιας
καταλληλων
διαμερισματα
##πιδης
μειωθει
στυλιανου
καλλιοπη
εκπαιδευτικες
λιμενος
αχαρ
συμφωνιων
πατρας
##φερουμε
##µεν
κοιμη
ταξεων
κινδυνων
λυσης
βιβλιοθηκη
συνεργατων
εργαλειο
188
φοβα
προσωποπαγεις
ταξεις
##μεθα
ποινικη
βαρυνουν
0004
εγκρισεως
ουσιαστικο
ιππικου
εκδικα
μετακ
##φερετε
φυτων
μερα25
φυτικης
προσθετων
##νους
προχθες
αρχηγειου
υποβληθουν
ασφαλισεως
##res
αναν
##ριδου
βρετ
απαιτουμενες
ανι
συγκλητου
##ονα
επικεφαλ
##φυλακ
μοτο
ανθο
##γιες
ραδιοτηλεο
##παιδευ
δραγασακης
νομαρχες
παραταξη
ιδεα
##χασ
αργυρης
ασκουνται
αθανασιο
μπουρας
χρησιμοποιου
238
##eral
αναλαβ
347
ερτ
αρσ
εκτελεσεως
##καστρου
συνδεδε
καταστροφης
αυξηθει
κατακ
διαλυση
συντελεστες
εργαζομενος
##υμβ
##ρευση
εφημεριδες
αγροκτη
##χιες
κυβερνητικων
184
##ζανη
συνταξιοδοτηθει
αμερικης
συνοπ
αμοιβαια
νυκτε
5ο
##σαι
διαβουλευση
συμβαλλομενο
vii
##μακης
σηματος
πολυε
καταλαβα
##ιζα
συντονιστη
ποινικης
καλυφθουν
συμπερασμα
υποθε
φακελων
δεικτες
κατοικου
##ψατε
δημοσιονομικη
##igh
πνευ
εξαρταται
συμπληρωσε
mg
φωτιος
ευρωπαι
αλλαζει
lt
χονδρικης
συγχα
ονομαστικης
εισαγονται
##ρμη
εμπραγματα
επιτρεπονται
νομιμοτητα
##λιδη
3199
οδυσσε
αναλογια
αναπηριας
πλοιοκτητες
επιστρεφ
##ek
λιμεναρ
δομων
##li
τοποθετουνται
ενδιαφερομενος
συμβαλλει
##0006
##que
##ωρου
ληξι
πειθαρχικο
1418
βεροιας
παιδικος
διαστασεις
καθι
τυπογραφ
ληξιπροθεσ
ενοχ
γενικοι
βιομηχανικη
##δειας
πευκης
παραμεινει
εξακριβ
συμπληρωνεται
490
τροποποιησεων
##φασ
αμφι
πειθαρχικου
αστικης
ακερ
##φυλακης
##ρεμπο
χρηματικη
##tific
##πιστα
απλουστευ
##προσω
ιδιοκτητη
μμε
τελεσι
gen
##ιδια
ταιν
ελευθερο
σαββας
δολα
τηρουν
ερυ
ζυ
διαβεβαι
δεσποινα
##κακη
αναπτυξιακων
##ρινος
νομοθετικες
φωτισμου
##ments
βραδυ
ter
προυπολογισμους
προοριζεται
εσυε
σκοποι
ασπρο
##duc
καταστρε
γρ
επιμ
χαρακτηριζεται
##λισεις
263
λεκτο
δαμα
ονοματα
parties
διενεργουνται
ζητω
δημοψηφισ
##τωνιου
ενεκ
παντος
κλησεων
καταψηφισ
αναργυ
εργατης
##λακος
πληθυσμο
διακανον
ph
προστιμα
ακατα
κινδυνευ
δημοκρατικης
##tis
παπαιω
δημοι
γκου
δρι
εκκρεμο
ωρι
ισογειο
ευσταθ
##ρειου
προνοια
αχιλλε
συνταχθει
αναψυχης
##τμη
234
ασφαλιστικης
αμπελ
ευελ
μετακινησεις
υποβληθηκαν
πελατες
συνοδος
βλεπε
υπηρετουντων
ενσταση
αφηστε
συμψηφ
λαυ
ελγα
απαλλαγης
ανεργων
σταθεροτητας
καθοσον
αναρω
υποτροφ
τριπολης
φραγκος
μεχρις
αποστολιδης
κατερινης
εμμεν
καλλιεργη
ανηλικων
συσκευες
πορειας
ενδιαφερομενο
##ms
ευθυνεται
##φανη
επιμορφωση
εκτιμα
ελλειψεις
ακαδημαικο
##tive
ευχε
##ish
πολιτιστικη
επεξεργασ
χρεο
ανοιγμα
αρχαιολογικων
αδελφων
γρηγοριου
συσκευων
ετησιας
σημερινο
κατοχη
καταψηφ
εκχερσω
σκυρο
διαλογου
πουθενα
διανυ
μηχανισμου
σεις
χρηστων
παναγιωτοπουλος
μετω
425
καζ
ελλειψης
συγχρονως
λαθη
προσθετα
μειονο
κλεισει
υπερασπισ
συνομο
αλυσι
δωσουν
ριζοσπαστικης
αναμ
κλεισιμο
μπαινει
νιωτης
##εας
##λικως
νουμε
επαι
προσχωρησης
δασολογ
μαυρου
προτεραιοτητες
δειχνουν
αποζημιωσεως
πελατων
αχαρνων
εθνικος
παπαιωαννου
ακριβη
συλλογικες
γαλακτοκομ
ετερου
##σιμης
χρηστη
παφι
κυρωσεως
προεκυψε
συνοδου
##λαιπω
εμπιστοσυνης
##ελλα
ιδιωτων
αιτειται
οψει
μαθηματος
δανειστες
διοε
εντου
θυματα
μισθοδοσια
πληρωματων
μακρυ
γραπτη
προκηρυξεων
γινοταν
λω
##ληφθουν
εμφ
αιτου
360
mm
αξιωματικοι
κυριακων
πορτογαλια
βοηθησει
τσιπ
κενα
ζουν
κουβε
οριογραμμων
##af
ενιαιος
υποβοη
συνειδηση
##ρχες
κατανο
ηλεκτρομηχαν
ξερουν
λιπασ
δεκαετιες
επικινδυνων
##θεντες
##min
γνωματευση
2307
299
δρομους
ζηταμε
κουρ
εφαρμοσ
##κωνσταντινου
προεδρικα
ελεγχεται
ανθρωπινο
αναλωσιμων
οδηγουν
φυλλα
##age
καινοτομ
αρτε
περιφη
νοσηλευτων
λαλ
##χημα
##φον
##τιδα
επομενου
συνεργειο
βρει
δ2
224
ιδιοσκευασ
κερδ
κομοτηνης
γνωστη
##χρεω
χρηματικα
##κωστα
προσθετες
εγγραφες
##σεται
τακτικης
μεταλλευ
μενα
ορισμενοι
μαρι
ποινης
##ποιηθηκε
αττικη
εργαλειων
ζαφει
ζητηματων
##di
##γετε
αιωνα
##χνο
εποχια
κρατικες
##up
χαραλαμπου
αναμενεται
οσε
παραλληλη
ανθυπασπισ
##στια
εκδοσεως
μελι
σκεψη
διαγωνισμος
##μπινγκ
##ομετρικο
ιταλ
##ψι
θεσμων
προαιρε
πλητ
διδασκαλια
λεγατε
μακεδονια
τσιπρας
##co
οικοσυστη
απασχολουν
παρακαλεσω
serv
επαρκη
φυλαξης
ουσιω
προσλαμβανεται
ταλαιπω
##λανδιας
καταλαβει
μορια
λυπα
22ας
ουγγ
ρον
μουσειου
κωστας
##σφαλισ
ωραια
αυτοδιοικησεις
εκμεταλλευσεων
##ακη
##ρονο
σπαν
πραγματοποιησης
215
διαθεσιμοτητα
cos
κατωτ
ταυτα
μητσοτακη
προκαταρκ
268
επικουρικης
αντιστοιχως
φαν
αρμοδιοτητος
σκανδαλ
ενοικια
αιτιολογημενη
διαταρα
τολμη
##raph
οριστικα
διατρι
##ost
προφανες
κηδεμονων
τροπολογιων
βοσ
βιωσιμη
συνεχισουμε
μελετα
ολοκληρωμενη
ισχυρο
αποθεματων
##mg
202
δεξιο
αρν
##αφ
σκυροδε
##µενων
ζουμε
κορακας
σχολικο
παραγωγικη
αιτηματων
μαριος
5113
εαυτο
υπολογιζονται
λογιζομενης
##θεραπευ
##κομιας
##ver
μυτιληνης
ιουνιο
θαλασσιων
ακτη
κειμενου
κανονιστικων
ρεθυμνου
κηφισ
ασφαλη
καλωσο
ιωα
##θημε
αυσ
συνεταιρισμων
261
##κακης
2η
##βιων
τεκμηριωση
##ριον
σημανση
καταμετ
κανονισμοι
περιεχονται
611
καλλιεργειες
ιο
χωρισ
##ληφθη
##στρω
προσδιορισθει
προσοδο
sch
##στοι
σταικου
γεωτεχνικων
συμπεριλαμβανομενου
κοινωφελους
##τοτητα
επαναλαβω
τριμηνο
1957
καλλιθεας
βασικου
οο
τετρακοσιων
βαθμολογια
ημι
εγνα
πολλαπ
οχημα
ανασυσταση
μεσολογγιου
νοημα
##μβουργ
σαφης
##ινας
αγωνια
στρεμματα
νακος
πυκ
##ριζετε
εγγραφεται
κρεμαστιν
σαχ
καμα
δεχθει
παιδιου
exp
437
γιατροι
ευκολα
αρνητικη
φιν
γνησιο
γκο
διευθυντων
ποσοτητων
σιγα
εοχ
##λειες
επιτοκιο
οφειλονται
ιατρικου
περιοριζεται
ανακρι
κανονικου
λυπαμαι
##προστασιας
διαχειριστικη
tra
παραιτησεως
##υπαρ
171
υδραυλικων
αγροτικες
πουλε
περυ
οδοποιιας
μισθολογικες
πελ
χωρητικοτητας
διαμορφωνεται
αυτομα
εμφανιζονται
ταξινομηση
##ινες
##τρικου
εφικ
φανε
χρηματικο
##ence
βλαβων
κορυφες
προωθησης
δωσατε
κλεινω
αρχαιολογικου
ιη
αποκαλυ
φανη
ισχυρισ
ρωτη
μεταφερεται
συνταξιουχους
αντισταθμισ
στηριζεται
δημα
ιδα
##χοντας
διατιθεται
καλαμα
επαρκεια
προερχο
σημι
γεωργικα
ανωνυμων
καθημερινη
##χην
παπακωνσταντινου
##πιδ
εμμενει
##ισεις
εξελισ
ευκολ
##γμενων
συμβαλει
εξαγωγες
##ταξεις
καταστηματος
βρου
κουκου
λειτουργικων
εξεταζει
µετα
ce
ιχθυο
θηρα
βαλουμε
βεβαιο
##μενας
bar
πεπ
παρουσιαση
σωματεια
εξερχο
συσχε
ver
υποψηφιου
ων
κηρυχθηκε
λεβεν
γιαννι
ob
ανωτερο
εντουτοις
544
##τσε
διασφαλιζει
##ταφ
βιβλιοθηκης
πλατος
αναστελ
##χυση
επιμελητη
7ης
επειγουσες
κινειται
συνεχης
λιμενων
προασ
στατιστικα
απασχολουνται
φιλοδο
προσωπικων
##βιτσιω
αλιεια
ιουλ
διαθεσιμων
ακροτελευ
βερα
νομιμων
σταυρο
##ler
ελλειμματα
οικογενειων
χωριστα
##δοσιας
17ης
προβα
σπουδες
ανθρωπινα
εμμενοντας
καθορισθει
σπουδ
διαχειριστης
ιστορικη
εισερχομαστε
5000
##vo
συμβο
αλληλο
πανελληνιου
δασκαλων
εναπο
φοιτησης
συνημμενα
στρο
παρακαμ
κατεστη
under
αξιοκρα
περιεκτικοτητα
κτιριακων
αναπαραγωγη
ιδαχ
διαχρον
χρονολογια
α0006
σακ
καπνου
παλ
ψηφιζουμε
σημειωνονται
φεκ49
αποδεικνυει
γερμανιας
πληρωσουν
182
συνεχο
εταιριες
fr
κοινοπρα
ελαχιστα
σχολικες
ξεχωρισ
216
περιφερειαρχης
συλλη
ενεκρινε
κατεπει
τοποθετησης
κλαδοι
##τινας
πληροτητα
πολυπ
θεσμους
χρηματων
προκληση
εφοριακων
λυσουμε
##ληψεις
its
218
θεσμου
εργοδηγων
υφυπουργοι
imp
μπι
γεωτ
πατρε
##κτον
νεραν
κοστολογησης
##δημιουργ
θεσμικα
μισθωτων
##μικης
παλια
μεσης
κλινικη
οριζουν
αη
κρητη
party
φιλοσοφια
χρηματιστηρια
εργοδοτη
ποσοστωση
βαρβιτσιω
ιρλανδια
νησι
βιομηχανικης
συσκευασιας
δεδομενο
οπα
##γωγο
ισρα
κοινοτητος
ομοσπονδιας
such
πολιτικους
##man
αρδευ
μεθοδος
κληροδοσιες
οδικης
πραγματικες
##δυτικα
δινονται
ταμια
ποσοτητας
θετικων
κενο
δεκεμβριο
μιλαω
αναστολης
##able
καταγραφει
βοηθα
συμβαλλομενου
εμπορικες
αναδοχος
1959
ηγουμεν
γραμματιου
μονος
ακουσει
βρεταν
δαφ
υπευθυνου
αξιζει
##στασιου
επιτυχως
ανταποκρινονται
αποδεδειγ
4ου
λαρισης
all
πατρεων
συζητου
πολεοδομικη
##δρομου
διαβιβαση
##καθο
μαρινα
υποδεικνυ
00€
υφισταμενη
απαραδεκτο
προβολης
εκπαιδευτικους
τραπεζικο
ιστοσελι
δυσχε
μπρα
καλει
ψηφισει
##ουμενων
εναρμονισ
πανεπιστημιακου
ποινικο
880
αλεξανδρουπολης
##gan
συγχωρειτε
ασχολουνται
συγκριση
κοκκινη
##ικευ
εξαγγελ
ακουστηκε
##τσια
πασα
δοθουν
συναλλαγματος
##παρασκευασ
καταλογων
φακελους
μακροχρον
εκεινος
βουτυ
προσωρινες
χριστοδουλακης
ευπα
περιοδικα
ισχυοντα
χρειαστει
καταλογου
κωδικους
γιουγκοσ
##ice
υ10α
θεσμος
πατερα
αμπελο
υποτιθεται
αιμο
λιο
ηλεκτρομηχανολογ
χλω
μονιμοι
θεωρια
σκοπιμοτητα
καπου
αυγη
περιστεριου
οτιδηποτε
ανηλικου
ασκου
φωνη
επιδοτησεις
αχρη
##ριτερα
ανωτατα
σημειου
προστιμου
##ελα
μωραι
##μονο
διακοσιες
##γομενα
267
προορισμο
ενεργειακη
τσιο
καποιων
242
οικια
ψυχικης
480
επικεφαλης
υφισταμενες
φορολογικου
δυσα
##100
αμαλια
##βολων
σπυρος
τεε
πληροφοριακο
κατακυ
σκανδαλο
παραδε
κυκλος
διωξη
are
φωκιδας
προκαταβολης
##νικα
ισοζ
γιουγκοσλαβ
ανδρου
αρβαν
συσκευασ
##ρικως
coun
##πωλη
##μηνια
ou
##ληνη
συνοχη
κουν
αξιολογει
αποκτησης
καραμανλη
αφορο
##vel
αντιγραφων
ανωτατη
229
αντιθετο
ανακατανομη
παρη
διασυνδεσης
##μουλ
μονιμους
πολιτιστικου
αποβλητα
σεν
μεσος
ευκολο
προτεινουμε
ins
αναζητηθουν
συμφεροντος
περιστατικα
δικαστικες
##λουμενων
επιτρεψει
καθιστα
οφειλω
μαργα
συγχρονη
εκατονταδες
ψηφισε
τουρκιας
μεθοδοι
εθνικους
τηλεοραση
τεθηκε
βενιζελου
αφορολογη
##γμενες
αξιωματικη
εκατοστων
διδεται
θυμαμαι
καταγραφης
248
τελικως
κονδυλιων
##ζος
συναψης
##104
αθεω
##ζιου
2470
συνεχιστει
##πτετε
εκτιμω
540
εγκριτικης
παπανικολαου
συνοικ
κερδισ
ind
πλεονα
εκσυγχρονισμου
περυσι
διαρθρωτικων
δικαιοδοσιας
πολιτισμο
##χωρει
προσφορο
ουρα
αντιρρησεις
μισθων
απειλη
##σμενα
εφοδιασμο
##istr
παλιο
πρωτοβαθμ
παρελθ
χου
##ise
επιχειρηματιες
προσοδοι
υποθηκο
##ros
συλλογης
ανθρωπινη
ρυθμισεως
##tee
μετρησης
ιεραρχικα
εργασιμες
βασιλικης
μηνιαιως
##τηρα
##τερως
διαπιστωνουμε
υποκαταστημα
pres
παραγει
στρατης
##κτα
προσπαθουμε
219
4ης
cl
251
ταυτοτητα
διεπουν
κρεμαστινος
αντιτιμο
τοκο
1069
επιβατη
φορτο
εκλογικο
##φρον
οπλ
##oι
δεκαοκ
απονομη
στερε
##παραγωγ
βρεφονηπιοκομων
##περιφερειας
βρεττος
εννοω
θεσεως
σχετιζεται
διαχειρισεως
europ
σκαφους
666
εκμεταλλευσεις
##βαλλεται
republic
ακολουθων
βοριδης
κεκτη
αναζητηση
γνωσεων
τηρου
αποχωρη
4093
ναυτικη
ποιους
δελτιων
σχοπ
##λακου
μισθους
##τησαν
κοινοποιειται
##τοντας
βας
αφορμη
ξεχασ
##ιαυ
τελευταιων
πληροφοριακων
καταργηθει
μιλησουμε
ορισμενους
##μικων
διαβιβαζει
παπαντωνιου
αυτεπαγγελτη
καθαρισμου
590
##ωθουν
συμεων
##βρι
μερικης
αποθηκευση
ενεργειακης
αυστηρο
δις
κατσ
##τζοπουλος
ησασταν
##χοντων
μεταβαση
287
ερχομαστε
416
βαι
αγριας
εξοδο
δημοσθεν
σπορα
φτασει
ιδιαιτερως
ηνωμενο
sub
περιφερειακα
##ωτικων
ασκησει
πινακιδα
εμπειρογνωμονων
προκληθει
διασφαλισης
σκη
μισθωση
ταχυτητα
020
πλοιοκτητων
λογιστικο
ισραηλ
χημε
χερι
5α
##τετε
παντελη
διαφθορας
λογιστικων
επανηλθε
ατομικα
ενυποθηκ
συνταγματα
βοηθος
τοποθετηθει
κακη
βαζετε
παραγωγοι
ευαγγε
μετσο
2040
οδικο
νια
ανδρια
σμυ
προμηθευτες
κεντρικες
μεριδιο
αποτρε
##ρινων
προμηθευτη
αλογοσκουφης
απασχολειται
πουλη
κερδων
καταγγελιες
απαιτουμενη
##στρε
236
μεθοδολογια
guar
fin
1950
##γραφος
223
##va
λιμενικης
παραβασης
##πτουν
βλεπει
ανυ
διεκπεραιων
επανελ
ερασι
καθοριστηκε
πρo
κλιμακο
δημοσιονομικου
ακαθαρισ
ενστασεων
γ2
ισχυαν
σταθεροτητα
κλω
απολογισμου
ρωσια
424
τζου
δραστικη
βρεθει
αυτεπιστα
##ομενους
παπαθανα
αμετακλη
1107
ποσοστωσεων
##χουσα
αποθεματα
##ated
παραπομπη
269
ενοψει
γνος
ασθενεις
διαταξεως
οικογενειακης
συλλε
##νιδης
##ces
παρομοια
μεσοπροθεσμου
υποχρεωμενος
##τιδου
σεπτεμβριο
συνεχιζεται
υπαρχον
πολεις
##τιμηση
##ργανωση
##µων
βαθυ
ατυχηματων
βαρεμενος
λειτουργησουν
##0000
εγκυκλιους
διπλωματος
ενδεχομενη
αναρτηση
αντιδημαρχ
νεκροταφ
4332
προβλεπουν
ελευθερης
δικηγορους
256
καθυστερησεις
διερευνη
λιστα
ασυλου
##γαλεω
φορτω
mem
ηνωμενες
650
πολεμικου
προστιμων
στοιχειου
επιβαλλουν
1961
μακα
φθασει
επανε
αναπλ
ψηφιστηκε
1964
##147
αποσπαση
##ιβω
241
καυσιμα
προσωρινων
cer
##σερ
αιγαλεω
##ke
πε70
ευρισκονται
ισοπο
##ors
αμφιβολια
δεκατε
mo
τοιχο
κεντρικων
αναλογισμου
βολ
##ug
ευσταθιος
κινητρων
υπαλληλικου
συμφωνησουμε
αλφα
αγνω
ευρυτερο
εκβια
ζαχαρη
γραμματεασπεριφερειας
προσδιοριζει
requ
εισαγεται
επειγοντα
ναυτολογ
##τς
διατροφη
σπατα
πολεοδομικες
##μετρων
υλοποιει
δηλωνει
απογραφη
ελβε
συγγραμμα
διαδοχ
οικοπεδα
συναντηση
φακελος
αναδασωσεις
αποστελλονται
τριγων
τετρ
διοικου
λιπαν
gov
εφτα
ελεγκτες
επιμορφω
χριστια
πανος
λαθρο
δ17
νδ
αμεσο
##φυλλα
επακ
##τιση
##στολη
καπνο
##φορια
παρανομα
κουρου
ελαχιστες
πετα
ελλι
πλημμυρες
εξασφαλισει
αποπερα
252
νωριτερα
δικαστικου
may
υδατοκαλλιεργ
παρουσιαζουν
προτεινομενη
εμπορικο
ανταλλαγης
αυθεν
διωξης
μολυ
277
επιχορη
τιμημα
αναπτυξιακης
κτηριου
επανυπο
οιον
συσκευασια
##λαμβανεται
ματια
si
ελικο
απροσκοπ
στρατηγικου
##θεισες
εφετειο
ευεργ
ενταχθουν
κπς
##κιδες
ισχυρη
ιορ
συμφωνο
δευτερευ
ελθει
γνωσης
προθεσμιων
τοποθετησεις
##μπι
##λεπε
βασικης
επιβαλει
τοπικα
καταστασεως
νομαρχιακο
μισθου
##agraph
ανεβ
πειθαρχικη
γο
αμαρου
επενδυτες
φοβαμαι
##ργο
ισχυον
μειοψηφια
##eth
πληγεν
φερετε
εξυπηρετουν
φραγκ
μιλησουν
λειτουργικα
κωνσταντοπουλου
εξεταστικης
θηρας
γνωμοδοτικης
επαρκως
συνεχους
φτωχειας
##ακ
βεβαιος
319
λογαριασμος
οδηγησης
παρασχε
εξακοσιων
ντε
παντελε
τετοιων
βραχυ
εργατες
υποχρεωμενοι
##αζονται
πιθανον
ρυθμους
θεραπειας
απογευματινης
1400
διευθυντου
ιζ
##μματα
προβλεπομενης
διαβιβασεων
αντωνια
επιχειρηματικων
##ισσα
ετησιες
περιμενα
ολυμπιακη
απορρη
διακρισεις
πολιτειων
##τοπων
κτηνοτρο
προκυψουν
3ης
συμβαινουν
αγκυ
παιδο
τεραστιες
##τιζουν
ευκαιριες
γεγονοτων
πηγαινουν
510
τοιαυ
τσιμεν
εμπορευματα
κουβεντα
παλιν
##θετε
μαργαρι
010
παραβασεων
μεγαλυτερες
προκειμενω
εκχωρη
δειγματα
προιστο
εκπαιδευσεως
καμμενος
ρεαλ
προστιθε
##ιτες
αλλοδαπη
συμβαλλομενων
τυχη
##red
διαμεσο
λιμενικων
##τελεια
αντιμετωπιστει
ακαλυπ
υπευθυνων
μεταβλη
##κορυ
συνταγματικη
εξασφαλιστει
##δημιουργια
κλησεις
αρχισε
μαγειρων
βασεις
ορισει
εγκρινονται
##ιστηκαν
υπογραψει
μεγαλος
εθεσε
ευρυτανιας
οδηγησε
λισα
##ομι
##ραιο
ρυμουλ
ανταπο
αγγλικη
μετεκ
##tit
υπαχθει
οψη
ορφαν
τιμα
ερθουν
379
καταπολεμησης
ερευνητικα
ειλικριν
προσφατη
πηγε
πρωτοβουλιων
##ετα
σουλ
τασου
ανιχν
αρνηση
ακολουθουν
ολοκληρωθηκε
πλουτου
οδους
φανταζομαι
μεταποιηση
χορ
720
συσκε
χριστου
ανησυχια
κρισεις
πιστη
σπουδαστες
εφαρ
νοο
εκπτωση
265
υπονομευ
διδονται
λουξε
31η
δηλωσει
σχεδιαγραμμα
##ικοδομη
##ρατικο
τελωνειακη
μισθος
στιγμης
κιο
λεωνιδα
he
σημερινης
ασφαλιστικου
ομολογων
##ζομενη
βενζ
δεκαοκτω
il
ροδουλα
##ποκεντρω
διεξαχθει
σουφλιας
253
2831
σκυλλακος
συναγερμου
##τρικο
παιδων
αιχ
δοση
##ene
ανεπαρκ
0001
νοοτροπ
υπαξ
κατοχοι
φυλακ
ηλεκτ
ολυμπιακης
λουξεμβουργ
εκδοθηκαν
συνδια
εγκριθηκαν
παιδαγωγικο
οφειλομενων
εισαγωγων
1965
επιστροφων
δρομολογ
προσκομιση
μανιατης
στοχου
ξυλο
ντου
αικατερινης
οικου
προοπτικες
αρτιο
τεχνολογιες
χρυσαν
εκτελεστικη
ραε
δραστηριοποιουνται
διακομ
21ης
ασκων
euro
κιτρι
βαζει
αθλησης
φιλ
βουλγαρια
##μελης
2687
δρυς
επεκτει
ακε
##τιδη
αξιωνουν
μοναδικο
συγκυρια
κοινωνιο
νευρο
λισαβ
μαρτιο
φορολογικα
προαναφερθεν
υπερψηφισ
καλοκαιρι
προαναφερθεντα
μειονεκ
διατυπωνει
τιμολογιο
διαπλα
βελτισ
ευδ
m2
αντικειμενικα
πυρκαγιας
dire
εισηγητικη
εκλογικων
παντελεη
ανακατασκευη
παιδικης
προεβ
κυλικ
επαγγελματικα
αναγνωση
##ρωνω
δυτικη
τεχνογνω
βιομηχανιες
συνεντευξη
κτηρια
##υπη
συναφθει
αμαρουσιου
ατομικη
##τεν
καθημε
διακηρυξη
΄αρθρο
συγκεκριμενους
λχιας
ξενης
υποκαταστηματος
1404
ltd
τελευταιου
312
will
προτιθεται
κατοχυρω
αρδ
κινητα
ανακριβ
νεραντζης
μεταποιησης
διαστηματα
ντων
##λεκτικα
σωματειο
πολιτικοι
επιβλεπει
λεπτομερειων
επικινδυνο
φως
δικαστες
εργοστασιο
πετρελαιοειδων
264
αποκρατικο
##ution
οφελη
εκτιμησεις
προσεξτε
249
κλεινοντας
τεχνητη
αποψεων
μνημονια
υποδειξεις
##γραµ
αποστελλει
πινακιδες
εξευρεση
ζωοτροφων
πενταετια
εταιριων
αλληλεγγυη
αρμοδιως
θερμα
##ετης
##ανατολικα
σαχιν
αναθετει
ενοπλες
επιτροπος
538
εξισου
λαλιωτης
εφαρμοζουν
ερωτω
αλλοδαπο
ανεργους
##δκ
επιτη
επιτηρη
ιπποκρα
αγιων
νομοθετικης
παππας
επιχειρηματικοτητα
εκπροθεσ
ρωτησω
2021
399
παροδο
φιλολογιας
μετατο
λαικ
αδων
καφ
ιπτα
##χρισ
##τειχαν
##δηλα
εληξε
κυρος
αποστρατειας
κουβελης
##vention
οριστει
σιω
τζαν
ε5
τµη
τσοχα
6ο
αερομετα
ανταποκριθει
φθη
##τοτητας
παπασ
αναφερθηκατε
σωτηρια
διαθεσιμα
επισπευ
ανελκυστη
βγη
μηχανισμος
ανοικτη
εκατομμυριο
διαρκως
##γραφε
τοπους
233
αρχαιοτητα
κενης
ενημερωνεται
ακτοπλο
θεωρεια
νηολογ
##int
κλητηρων
##ποιων
μηχανων
προτεινω
πληρες
δημοτικους
##ργασ
διαρκους
κατεδαφισ
παιδικοι
fisch
εξεταστικη
αρχειοθετηση
συµφωνα
παρελευση
σταθερα
φερατε
συμπληρωθει
##σματα
εισηγητρια
κορυφης
μηχανισμους
##ληφθησαν
610
1962
εγχειρι
πιστευει
καθοριστουν
κος
πιστωτικα
ην
##ct
διασφαλιστει
ψηφοδελ
διεκδικ
439
μαιο
εξεταζονται
ζου
330
λεωφορειων
διαγνω
εργοληπ
διαγραμματος
οριοθετηση
29ης
ελεγχθηκε
ατμοσφαι
from
ιωαννινα
paragraph
ναυτικο
ομοιοβαθμη
αναπτυξιακου
5ης
560
οριστηκε
δαση
αιτιολογικη
##ψευ
999
ζε
συμφωνουν
αποδη
αδικηματα
1939
γραμματειακης
##δοσια
αποθηκες
εβδομαδες
συμπεριφορας
προβλεπομενο
##γκατασταση
γενικως
επιμελητηριο
##πακ
1018
καραθανα
εκποιηση
##φιλελευθε
##ποιημενη
##σημου
μαρμα
αρκετες
εκλει
αξονες
οδυσσεας
βαθμιδες
αυξανονται
στρατευ
χαλανδ
οικονομο
ορθοδοξου
1894
υπαξιωμα
οικειες
ταξι
##ρικους
σωματειων
επετη
αποδειξει
303
ανακυκλωσης
καταστροφ
##μηνη
πυλων
κινητης
αναγραφο
##λιδου
αναπληρωνει
257
##ριζοντας
εργοδοτες
ρυμοτο
τρεχοντος
υπενθυμισω
μαρουσι
καταβαλει
εφαρμοσει
καταχωριση
##λαμβανονται
620
επιμεν
##ore
παραβιαση
υπενθυμ
245
β7
πετ
διαμορφωθει
##land
πηγαινει
##τατη
2643
λημ
κινητοποιη
φευ
ισολογισμου
θετικες
αυτοψιας
προυπηρεσια
νομολογια
ανθρακα
σ΄
##ροτητας
φιλα
415
##πελα
συγγνω
αναγνωστοπουλος
##ταξε
χωρ
ψηφισαν
ανακαμ
επαναδημιουργια
πετυχ
σωφρον
##τιδος
προκοπης
δεκαεξ
επιδοτησης
δοκιμες
##τηριες
εργαζομενο
αμυνης
ποσοστωσεις
φοιτηση
συμμορφων
απαραδεκτη
εκμισθ
λαθρεμπο
παρισταται
συλλογικης
επικαιρες
πακετο
ησυ
ακουμε
αναπληρωτριας
##na
διασφαλιζεται
χριστοδουλοπουλου
##βακης
γενιας
εποχ
υα
παραδοσιακων
πεδιου
συμπα
εχεις
σκοπευ
επιλυσης
##ond
βασικος
τακτοποιηση
445
##ult
καλλιεργειας
##σσου
πουν
τροποποιει
329
προγραμματικη
ιατρος
αφησουμε
contracting
##νοπουλου
παπαθε
##αρχας
γραφει
χαρτοφυλα
παππα
εκπροσωπηση
μπαινουν
βελτιωσεων
μεταναστες
##κτες
ευθε
ματ
μαθηματικων
νεολαιας
μηχανισμων
α4
1956
τσακαλ
εργαζομενου
διδακτικο
ανεπτυ
ανεπι
ιωαννιδης
σαφηνεια
##λατος
επαμει
##βης
εντοκων
περιουσιακα
κορυδαλ
νηολογη
ενημερωνουν
αυτοδιοικησεων
##β΄
διατηρησης
##τεμαχ
1951
##κτικες
ιστ
960
αντιδραση
τακτοποιη
ιδιωτικοποιηση
επιπλα
στεγης
##ose
συντρι
νεοφιλελευθε
μισθολογιο
##we
δεκαδες
θεοδο
υπογεγραμ
πασχα
διονυσιου
2690
απολυσεις
προορισμου
εξεφρα
##ησης
διανο
ισχυουσας
συνεδριαζει
διευθυνσεως
##πλοκη
ανταποδο
μνημονιου
επιθε
τσιπρα
υποψηφιοτητα
##πτωση
520
ισχυοντος
εκκινη
227
αποδεχεται
υποθηκη
λευκο
293
##διοτητες
ποσοστωσης
επαμεινων
συνυπολογ
συσσωρευ
γραμματια
3α
αντιπα
εχοντες
κτισματα
ενσωματων
αποπληρω
εμπειριας
##βιας
##σκοπη
πηραν
δωματια
χαρτου
πασχαλ
συμβολαιογραφου
δημιουργηθηκε
μολυν
ευρυτερης
##101
20ης
ανοικτης
στατιστικη
ρυθμιζεται
δημοκρατικο
##les
κυπρια
πινακιδων
εδεσσας
αρµο
##γμενα
πε3
μπακο
οκτωβριο
ιανουαριο
συνιστουν
στενα
σπερ
τυφ
ξαρχας
επεξεργαζεται
θαλασσια
αναλογες
διαμορφωσης
##az
εκκρεμουν
λιμανια
##αλια
αφορουσαν
λαχαν
340
προτερων
θεωρημενο
διαφορας
##νοτητα
λιμενικο
##ομισ
δουλε
##120
αιθουσας
διευκολυνει
συμπληρωνει
μαγκ
καταφε
προσελκυ
επιδοση
##τσιν
##μεναι
αστεριος
##ρεπεια
28ης
αναδεικνυ
γιατρος
υπαιθρου
κυβερνητικης
μετακλη
##δρομων
συνιστωνται
επιλεγονται
διαβιωσης
προσον
αποδεσ
##λογιαννη
##φθαλ
υποπ
συνταξιοδοτηση
εμπλεκ
##λοντας
αναγεται
ευσταθιου
305
βοηθου
στελεχωσης
ευρυτερου
##τεας
κτισματων
βαρβιτσιωτης
ολοκληρωμενο
αστυνομικου
χρ
οικονομικους
ασφαλισμενους
επιφερει
τοκων
ταση
ταμιευ
αυτονοητο
επανεκ
αεριο
##ust
χρηματιστηριου
##ιδρυ
συμπεριλαμβανονται
νοη
ζητησουν
απογευματινη
μαιευ
τμηματαρχης
##δηλω
##στερη
σοβαροτητα
##παυ
εξαιρεσεις
255
διατηρουν
λαγκα
διαμαρτυρεται
μετοχικο
##τουσα
καταλογους
αεροδρομιο
##γλω
##΄΄
πεδια
εγκληματος
##τατε
266
στερεων
ζημιας
πλησι
αναγγελ
σοφιας
σκεψεις
βοηθ
μπαλα
σκεπτικο
αυτονομ
αποδεικτικα
##σδ
καταληψη
μετεωρο
ανωτερας
μετασ
ανασυγκροτηση
αποθεματο
επτακοσιων
τροποποιουνται
επανεξετα
##κοινο
επιστολων
φυλων
συνεργειου
εκχωρηση
προνομια
##are
ακουστηκαν
προσφυγης
παπαθανασιου
μενει
σμυρ
συνεχισουν
επιθεωρητων
ελεγχονται
##φθηκαν
παραπεμπ
καταγραφονται
αναμενο
σημανσης
οικει
διακοπτετε
καταχ
επιδοματων
απορριψη
διατηρειται
λογικο
##one
συσταθηκε
ειρηνοδικειο
310
##ζομενο
αντο
4α
πραγματοποιηθηκε
παφιλης
##βει
λισαβονας
αεν
παρουσιας
καρκ
κλαση
επισκευες
πριμο
στεγαση
0000
χρηματοδοτικης
2910
αποτελουμενη
ορκωμο
συμπιε
προσδιορισμου
αποτελουμενο
##ast
διευθυντριας
δεκαεξι
μπαν
##γμενη
αντιμετωπιζουμε
αιρετων
##ογλου
πτυχιουχοι
ρεματος
μαρκου
παντων
κωστοπουλος
εγκυκλιων
3812
##ιοδο
αναδοχο
οικοσυστηματων
διασω
ξεναγη
αντιμετωπισθει
επανειλημμενα
κακως
##ωτα
ουκρα
εργοστασια
tab
μεγεθους
στρατολογικης
μπορουσα
επαναφορα
περιστατικων
βιων
##µος
κοσμη
del
κλινικης
δολο
##τεχνιας
##χουσας
φιλελευθε
##νοιες
στρατολογικου
##τηρες
συνορων
spec
διακοσ
ακολουθησει
##κεφαλ
βουλγα
επαρκειας
διαγραμματων
διακριτικο
γεωργικες
βοοειδων
κατατεθουν
κινα
τεκνα
διαδρα
σηματο
καρδιο
αντιπολιτευ
κτισματος
τοκους
ευημε
ψηφιστει
επο00
διασυνο
##χωρι
διεξαγεται
εμφανιση
ιουλιο
γνωμοδοτει
κομμουνιστικο
ανωνυμης
εποπτων
yπ
283
πιστε
εφετων
μεταφερο
δικαιοδοσια
εταιρους
καπν
καζινο
θεωρησης
εναντια
cd
αριθμοι
κορο
επαρχιας
ευεργε
##λαδου
ευρωπ
αθλητισμο
##συμ
οικονοµ
##προστατευ
υπεστη
ζηταει
συνδυασμενες
614
##τουμενα
##στησει
σταδιακα
αυτοδικαιης
σκια
ευθειας
δυνατοτητας
βγαινει
συμφωνως
κορυφη
μενουν
νομιμης
περασε
βρεφο
αντιθετως
εδει
δημοτικοι
##σαφην
εκφορ
κατοχης
ενδεχομενο
ψεματα
συγγνωμη
στιχο
καινοτομια
αγγελου
υψηλου
##123
πελατη
##βιε
καθορισε
καλες
##ρημα
χρηματος
θυμιζω
378
καταχωρουνται
##θλη
2344
σοσιαλιστικου
##ace
΄ε
##ome
κατηγορου
##γκαλος
βεβαιωνει
αισθηση
κανελλη
φταιει
##ανης
επιτροπο
αποκεντρωση
παρω
##ιδος
προκλησεις
ταξιαρχου
οια
dis
κερκυρα
απογευματινες
πρωτοβουλιας
ζ΄
##μετανα
απρ
δικαστικο
γεωγραφικη
σχολικου
θελη
αποκεντρωμενων
αποθηκων
μετρηση
εκτελεστικης
ληξιαρχικων
οιονδηποτε
μεσογεια
λεωφορεια
δευτερος
επιτρεπετε
γιανν
φουν
##λογοι
θερμοκη
παραγονται
524
τριτοβαθμια
εσπερι
ap
αντιπροσωπευει
βαθια
αναγνωριζεται
##επισ
τσοβο
γερα
κατοικο
εγκαθ
υπ΄
δωρο
κερδος
γνωστοποιει
αποδοτικοτητας
διαπραγματευσης
##107
er
up
διατριβη
##γησαν
αποσβε
πανεπιστημιακο
επιλεξιμο
αποτελεσουν
πικ
ης
δοθηκαν
εκκληση
ευπ
γραμμενος
λαμπρο
ρολου
##old
ωφελου
ευρι
παυλιδης
εργασιακων
πελατεια
διαρκης
επιθεση
πρωτοπα
μοναδικη
πλοιοκτητης
318
##ft
συρρικ
πολεμο
##ερμην
αναφερατε
##γραφικη
##ont
ανεξαρτητης
αμεα
δασμοι
καταστραφει
αρχηγων
καθοριστηκαν
368
συντελεστων
τουριστικου
κτησης
ενταλμα
διαδρομη
υπολογισμος
εκλογικη
κωνσταντοπουλος
6012
προαγονται
κυπρου
εδαφια
λαθρομετανα
ανελαβε
2592
οκτ
εμπλου
κρισιμη
##ical
αεροπορικων
4305
εμμισ
αποκλεισ
δικονομιας
##ζομενα
χρεωση
αποδειξεις
##μπας
αναλογο
διεθνως
εοτ
προσπαθειας
λαμβανομενων
εντολων
δημοκριτειου
val
25ης
εξυγιανση
αποτελεσματος
viii
##ματολογιας
αδε
λογιστικα
κατασκη
δικαστων
μακρια
αρνητικα
εγκαιρως
αντιστασης
εποχης
δημοσιος
σκελος
σπαρτης
πολυεθν
αφρο
λεγαμε
βρω
2519
##τζου
αλεξαν
##ρωπα
πολιτευ
χαρακτηριστικων
αποδειχθει
νομισ
pour
υποθηκοφυλακ
γνωστα
γνωρισ
ευτυχως
εργοστασιου
αυτοτελων
##γραφικης
οδηγος
τεχνολογικου
##102
αξιοτι
πραγματοποιηθηκαν
##παλλη
διαμορφωνει
διαφθορα
αριστοτελης
πιστωτικο
παγω
πλουτο
χρυσοχοι
επιτραπει
accord
πιλο
αεριων
σελιδες
εκπαιδευτικος
ελευθερου
μετατροπης
εμμεσα
αναπτυξει
πλανη
##λοχα
ψηφισματος
ακουω
organ
επισκεπτων
ξεκινησω
συμπληρωματικων
επανυποβλη
πλοιαρχου
λαμπρος
αποδεικτικο
καλυτερες
επανακαθο
ανακλησης
παρεμπο
αυγ
κεντρω
##ποιημενο
##ρθω
φιλαν
περισσοτερη
bank
##μετρο
κοινα
παρελθοντος
βιολογικων
αλευ
##μινας
οδοι
oper
4076
αθλητικες
ιστορικου
φυλακη
τζεκ
τιμολογιων
εκπονησης
συρου
εξαγορα
ξεκαθαρα
στηριξουμε
ζητηση
δεικτη
αναδιο
υπουργικων
λυσει
θαρ
μετεκπαιδευ
290
προιστορικων
ακριβες
##ερης
κατοικιες
στεγαστικης
ναυπλιου
##σημα
περιλαμβανομενων
##mb
παντελης
εγγυητικη
συντασσονται
βρειτε
##πυυ
στου
απολυμαν
##ελεγκ
ενημερωσει
ιαν
γαλλικη
δ3
rec
μεταφραση
ενταση
1940
##ριδας
απισ
δπ
προγραµ
δυναμικη
κηρυξεως
αναλογει
ενδυ
εξαφαν
470
πολυγυ
οριοθετησης
ευθεως
διυπουργ
ελαιολαδου
θεοχα
χαρακτηρας
οικοδομικος
##ινια
1937
##λογησει
συμβαλλουν
αναδασωσης
επιτελειο
χειρισμος
θρα
327
δευτεροβαθμια
αγροκτηματος
φυτοπροστατευ
τυπογραφειο
ωδειου
##yl
##εκφορ
αδρα
μαθητριες
460
οευ
συγχρονο
##ks
χρησιμοποιησης
φιλανθρω
φωτης
##ρθο
δημοσιοτητας
αδωνις
ονομασιας
θρακη
δομηση
υφεση
απευθυνονται
αποστελλεται
275
μονομε
εκδοσεων
##θαλα
εισηγητων
512
προγενε
αναπτυσσο
527
πρασινο
προχωρα
πουλερικων
εξετασει
##oll
εισαγγελια
ασκησεις
##επε
αεροδρομιου
επισημαινεται
γδ
##τολογιας
συγκαλ
##τεχνικης
νοσηλειας
βουτσης
υπποα
αστικη
παραθυ
##γμενο
μελα
νομοθετημα
649
οραμα
καταθεσεις
ακτης
1948
καταχωρισ
##ουνης
νυν
συγκατα
γκατζης
γιακου
fl
χρυσουλα
ευχερεια
##κιας
##κλα
ηλεκτρισμου
##ited
λανθασμενο
##he
γρι
##ποιηθουν
αμμο
cap
κηφισιας
οσ
##ities
##κιδης
παραπον
συμβαν
παραρτηματων
οικοδομης
ληξιαρ
κατωτερο
διοικησεων
246
κοκκινο
επιφυλαξεις
##ζια
δριβ
αρμοδιοι
τρομοκρατιας
##τινος
##εφ
γραπτα
640
υλοποιουνται
364
##ρησεων
ποινικες
φορτοεκφορ
ολικης
διεξαγει
ναυτολογη
κληροδοτη
φοροδιαφυγης
συστηθηκε
##μμυ
αναξιο
προορισ
αρωγης
διαμερισματων
προακτεου
λες
συμφωνησει
##ina
καθαρισμο
hav
##ram
αριστειδη
457
παρατει
δημιουργησουμε
παρουσιαζονται
προηγηθει
πειθαρχικα
αποτυπωσης
fi
ευρυζων
φαρμακευτικων
δασμολογικων
απομακρυνση
##ονος
λαμια
προεκλογικα
pay
αναπλα
ναυτικους
##χρω
μιλησατε
κορυδαλλου
υπερασπ
χρονικων
σημειωθει
ημασταν
στρατιωτικης
εφαρµο
απεκ
βλαβης
στεργιου
##λιαδου
##ιζαν
κειμενης
ακαταλλη
##ποιησεων
κατανοηση
επιτυχη
εμει
τονο
τριακοσια
διαστηματος
ληξει
εργαστηριακου
νομιμου
θαλασσας
##βαλλει
ηλεκτροφω
εργατοτεχν
##ζοταν
πολιτιστικο
σχετικους
##onom
καντε
βιομηχανιων
##δως
πηραμε
χοιρων
po
περιορισμου
ελαβαν
##λλο
πε02
704
##λογραφ
εξαγωγων
συζητηθουν
οκτακοσιων
υπερε
ενισχυομενης
συνοδευουν
##ιστουν
υπολοιπου
ζητουμενο
cor
##χαρης
υφισταμενης
γεωργακοπουλος
απρακ
anne
νικος
δοκιμος
οικισμους
πρωτολογια
ταυτης
υποθηκες
general
οικοδομων
equ
αλεξιος
αποκτησουν
χωριο
κοινοτικους
απαρτια
αδικημα
αισθημα
καστανιδης
304
τουριστικες
ηλιου
εισπραττονται
παραγουν
δειγματων
6011
συναρτηση
##ka
ρευματος
νοεμβριο
σεπτ
επιτρεπομενων
αυτεπιστασια
διδκ
διπλο
4115
συγχρονης
τελικου
ξεπου
διδακτορικη
ημισ
ωρας
υποστηρικ
συνεχεις
μεγαλυτερα
σωκρατης
παγκοσμιας
δυναμικοτητας
επω
υποβαθμισ
30ης
##πλευ
##μν
χορηγου
τυχ
##ier
##ates
εφυ
μικρης
καταργουμενες
μεταβατικες
σταφυ
σφυ
αξιω
φυτα
αναλυτικη
μελισσο
their
χαρακτηριζονται
συνολικος
κατατασσεται
296
##απασ
στηριζει
##ca
resp
528
κτελ
αδιαφαν
δασοπον
κατοικιων
στολου
επαε
πατα
1963
καταβαλλο
κτηνιατρικων
##λογης
850
περιφερειακος
απορροφηση
καλλιεργειων
αντιν
σκοπιμοτητας
##τσαν
περιορισμενης
ετερο
αδυναμιες
καταλοι
##τιαδη
26ης
δικηγοροι
ελισα
ανοιξει
##ρωνοντας
διανεμηθει
ε1
τσακ
##σινη
συσκευη
νοεμ
med
ομη
δυνη
υπολοιποι
παιγν
επιστημονων
αργια
προυπολογισ
διευκολυνσεις
συνηθη
βλαβες
ακροτελευτιο
πτυχες
στρατιωτικο
2234
κακα
ανεξαρτησια
διδασκ
συνεταιρισμους
##ean
δημοσιευονται
##μιστο
συνεργαζονται
λαβουμε
διαβαζω
state
##ures
εοπυυ
φαρμακευτικο
διαδοση
δριβελε
αυλων
καλογ
προσφερο
υλην
υπηρετουντες
υπνο
καλαντζης
##βλεπ
rel
επικρατει
κυβ
282
συστασεις
παραγοντων
προφορικη
630
επετηριδα
χειροτερο
αργους
δ16
εταιρικης
τριετια
μετεγ
νουμερα
##ηε
επισκεψη
πλατεια
μικρομεσαιες
εκτιμησης
συγγεν
λαικες
προσπαθειτε
αποσκοπει
συνταξιμης
δυτικου
##τραπεζ
χρωμα
τονοι
υπαρχοντα
ανωτερης
388
τελικες
ρευμα
519
μετεχει
παρανομες
ομολογα
κλεισω
πανο
γενικοτερη
επιθεωρησεις
kw
λογιστηριο
εξελισσεται
συνθεσεως
οδικων
μνημειου
προσωποπαγης
μακρη
αναλαμβανουν
εκφρασω
ζητατε
παραπερα
κοινοχρηστους
αντιδρασεις
στρατιωτικη
βουλας
337
ρυμοτομικο
πεντακοσια
σλοβα
συζητειται
##φαρμακ
χρηματοδοτικη
sol
ευελι
##ληψια
προσαρτη
οικονομικος
##148
πυρκαγιες
447
##iti
##δωμα
262
##ρουσα
καλυπτο
##στεγαση
λογισμικου
απαλλασσεται
περιβαλλ
περιμενουν
κωνσταντινοπουλος
##λικες
αποκτα
##ory
χρηματοδοτουνται
στρεβ
χασει
καταστροφες
τεκμηριων
εκφραζεται
αθλητικου
παροχος
ειδοποιουμε
ανεξελεγκ
##γμενης
τπε
διαιρε
##chn
##εργο
θεμιστο
##στατα
κατασκηνω
συνοδοι
διαπλατυν
##γλυ
υγιεινη
δημοσιοτητα
κουλου
αντιμετωπιζεται
1°
βορειας
ολιγο
κεντρωων
##γραψε
αποδεχ
3044
χαλανδριου
συναφη
αυγουστο
οριοθε
μορφων
τσακαλω
διαμαντοπουλου
ροντουλης
υστερων
δολαρια
002
ξαφ
##τυνομ
πιεσεις
μισθολογικη
παλλη
διαμενει
εισθε
δορυ
προστεθει
##αστε
1260
καρτα
νομικες
εμπορικα
##αποκεντρω
δαμανακη
αποκαλυπ
27ης
2052
1566
ψω
1914
αντιλαμβανεστε
##τεχνικες
μαρτ
αναλογουν
στρωματα
##λωντας
1952
νυχτερινες
1234
16ης
convention
##ear
συνομοσπον
##μικρυνση
##ποιημενων
ελλας
θεοχαρης
7ο
ασα
αποφασιζεται
καλυψουν
##τρεια
##ουσε
jo
σταυρουλα
ξεπερνα
απριλιο
γνωματευ
επιλεξιμες
φορολογη
οπλα
βιομηχανικες
κατ΄
468
κυριους
δακτυλογραφη
##ικασ
διαγωνισμους
ηθικη
ελαιων
απεριο
οποιοσδηποτε
ωφελη
530
πιστοποιειται
##τιζονται
βλαβη
σαφεις
υποδε
##103
ανταγωνισμος
πιστευετε
χρησι
ζητηματος
καρατζα
υλοποιηθει
δυσμεν
επιδραση
κατοικος
proc
467
χειρισμο
καπως
##κον
προπονη
επιστολες
συστηματικα
δεσπο
χριστοφι
αποτελεσματικοτερη
μειμα
απαλλασσονται
manag
##ιτσα
λοιπου
χρηστης
φυγει
doub
αναι
φλε
συνδεσμος
##rig
ευρωζων
τραπεζικου
στερη
##αλω
3614
αντιλα
επικα
ποσες
μονοι
543
##urs
προτιμω
ξεχναμε
προκαλεσει
##γκεν
προαγωγων
στοιχ
0511
εκτιμαται
αχε
οικιστικη
##ons
θεραπεια
κιτρινη
κρατου
ψηφους
μεταχειρισης
θερμοκρασια
##ατ
δεκατεσσε
θες
##θερ
υποπλοια
εξασφαλιζουν
##τανε
αποσκοπουν
πλεονεκτηματα
αποθεμα
σεισμοπλη
βοσκο
αμεσες
μαθητη
βοειου
αιγιου
2738
νεωτε
προελευσεως
σαββατο
εμε
308
μιλου
αναπτυχθει
αυστρια
563
##εριων
πoυ
τουρισμος
αρσης
επεμβαση
ψηφισαμε
ακυρωσης
θεοφι
κυριολεκτικα
συντομοτερο
κηπων
ανησυχιες
υποκαταστα
νομισματικης
αιματος
ομιλου
δεικτων
ελεγαν
##0010
##θεραπειας
αρμον
ιδιοκτησιων
προειδοποιη
ισπανιας
μαυρουδης
##µνα
νοσου
πρωτισ
γεννηματα
παραταθει
302
##θουνται
μεταβολης
ιδιοκτησιες
δημιουργησε
δρομων
παραβ
γιαννακου
σωματικης
λιμενικη
επιτοκιου
##001
νεω
ζητουνται
πεντελης
φοροι
πολεοδομικο
τριακοσιες
516
πτο
4172
##dn
παρελθει
ανεπαρ
##112
##mote
ανεργοι
πτηνων
ξυλ
301
κακλαμανη
θεσμικων
ρεπ
νομιζετε
γπ
ενωσεων
λιγοτερα
λεκτορα
αναφερομενη
12ης
370
εξαιρετικες
##λακ
εξασφαλιζονται
517
ομολογια
διεπονται
προοδος
1239
βλεπουν
εμπορευματο
##βολες
τηλεφωνου
περναει
μερικως
ρουμανια
conc
κυνηγε
διαψευ
διατηρητεων
σκοπια
επιλεξει
##ετ
αποκλειστικης
γεννα
αστυνομικες
μειωσεις
καταψηφιζουμε
απορριψης
καταγγελιας
αναφερθει
συγχυση
##θοπουλος
δευτεροβαθμ
ελισαβετ
τροχο
ογκου
καρο
15ης
αγροτικα
προσωπικης
νοµ
εσωτερικες
##enc
##ανδρας
εκτακτου
##φαρμακευ
double
καθορισει
κωδικοποιησεως
##σμοι
##οτητα
τονων
αγγλικης
κτισμα
513
υπαιτιο
παρκου
προτεινε
##ress
εισοδος
##ater
##βανης
ελεγκτη
εγκεκριμενες
##χευση
σουηδια
##μικα
παπουτσης
προγραμματικες
βαθμιας
επανεξεταση
λαικο
χαραξη
αναφερουν
προκαθο
καλωσοριζει
##par
δουκας
γιαννου
σκληρο
καιρους
##109
μανος
ρωσ
##ακου
δωστε
annex
##113
σπορων
ρυπανση
προχωρουμε
##αλλο
α6
311
εφεδρεια
ισορροπια
μηχανικοι
εφοπλ
εισαγει
εφαρμογην
ιδεες
προεδρευομενης
ρεν
380
νεαπολης
εκπον
στελεχω
πιεσης
γαλακτοκομικων
##τισης
τριπολη
ανδρων
λουτρα
ρηγας
##τζι
αγαθα
οπλο
1650
σαφε
play
γενν
τομη
pri
μαρκε
ουδεποτε
λεν
ανδρεου
ζει
##φεται
κωμων
1932
συμπυκ
ισοτητα
343
γερο
##ριθμουνται
χτυπη
ολοκληρωμενης
χαρτοσημου
αναγνωριζει
χρεω
απασχοληθουν
κοινωφελη
νορ
τριτοβαθμιας
μεθοδευ
εκπομπες
αμιγους
αρχιτεχνιτων
επιτυχιας
##ποντας
κουρουμπ
διαχειριστικης
##ψαμε
μπλε
φτανει
294
##386
##πανα
παλα
λιθου
365
660
ακινητη
##τυπια
μνημη
μεταταξης
υφισταμενο
849
ηλιο
καποιου
συντρεχει
αξιοπρε
στρογγυ
αποψης
##δελας
ατυχηματα
πανδημιας
υποχρεωτικου
συνταξιοδοτικες
##θιων
καθοριζουν
οργανωτικη
τροπ
επισημο
τελευταιος
##παρισ
ανανεων
μονιμα
ανεξαρτητες
οδ
372
συνομι
εγγεγραμμενη
τεκνο
αποψε
##θειες
αερολιμενα
ναυπακ
επιχειρει
επομενης
##ηλεκ
αντιλαμβανομαι
δικαιη
air
διαμεν
σεμιναρια
ευαγγελο
αντικατασταθει
υποστρα
547
auth
συγκλιση
επιχειρηματικοτητας
µη
αυτεπαγγελτα
τασουλας
##ιζομενων
0805
εθι
φωνα
εμποδια
διασυνορια
ποιοτικη
προσκλησης
μπακογιαννη
συστηματικη
##392
φωτοβολ
τε17
1397
##ψια
bet
επεμβασεις
χριστοδ
inform
ισης
##παιδ
##τολογιο
εκδηλωσης
δριβελεγκας
950
επαλ
επιστροφες
458
##ουλιας
ωραιο
βγαλει
επιμει
κατευθυντηριες
##τεργασ
##σκαι
αναλαβουν
##ημερο
ειρην
286
κοινωφελης
σταματη
αντιληφθει
##105
αποδοτικη
αστυνομικο
σακο
επο0
φωτιαδης
θεοδωρο
δασικο
1b
αναρωτι
πλεονασμα
υπεγραφη
απροσκοπτη
αποφασις
##αποκεντρωμενης
χερσα
περιπτωσιν
ταχ
δασμολογικη
##σμενες
##εθα
αιγιαλος
παιδαγωγικου
εργατικο
σμηνα
κρατουμενων
18ης
ιωση
πηγαν
καταγγει
οπεκ
##tif
ανικανοτητας
ελεγχουν
ημερομηνιες
987
##χαρακτη
##επτα
επικινδυνα
τιμητικα
οροφο
παλιννο
ερμου
##ρχι
ελατ
429
επιτυγχανεται
μωραιτης
χριστουγεν
κοινωνικους
αποδεικνυουν
καλουμε
αυθαιρετων
θεωρουν
νηπιων
αγρ
ανερχονται
λειτουργικη
υπηρετουσε
##ιδιου
δελη
κλιμακιου
διαθεσιμοτητας
εισηγησης
μπερ
διαστασεων
αχρεω
δενδ
αραγε
αποδεχθει
εγγειων
κλιμακοστασιο
ξεναγηθηκαν
2039
οπτικο
χορηγησεως
μανου
υεν
παραγωγικων
υπεσδ
μικρου
αποστολατος
272
νοσηματων
βασιλεια
6051
φιλια
##rol
di
θεσμικου
σαμαρα
##ουσης
εκχω
0023
κοινοποιουνται
ψηφιακη
ονοματολογια
413
##ραφα
6η
##ipp
##ωσια
παρακαλουσα
μιν
υποβαθμιση
##ωνα
317
εισρο
σκοπ
αθω
##00023
δουλειας
αδυναμιας
ανωτερων
υψομετρικο
##θησο
μεγεθη
##δικους
πωλησεων
συνοπτικη
ποινικων
λυκουδης
αρνητικες
παραβο
αντικειμενικη
καταθεσεων
##ale
αναδασωση
προσπαθουν
συνασπισ
εισερχομενων
λιθουαν
μηχανογραφη
υπνοδωμα
καρδια
γιαννιτσων
μοριο
οπς
εβδομαδιαιας
φωτοσ
κοιταξτε
χρονικης
μεταβατικη
ποικιλιων
σταδιου
##κτεων
βοηθητικους
κατατιθεται
αγαθο
περιεχομενων
ακολουθειται
γελ
λουκα
γων
εισαστε
##lish
δηλωσε
προσθεσω
κινησεις
οε
υπαρχουσες
##μβιβασ
χρυσης
national
εργατικη
##114
επαναπροσ
πετυχει
φιλιππου
συνεχιστε
αντιμετωπιζονται
δομης
παιρνετε
φεβρ
συμπληρωματικες
εξομο
##πουλ
##φουν
αμυνα
βρουν
οπεκεπε
πραγματοποιει
διαχωρισμου
επικαλε
αγροτη
επιδιωκει
ιστοσελιδα
307
ασυλιας
διαπιστωσει
περικοπες
υψηλη
σταθω
##ιζομενη
ασυμβιβασ
οδηγησαν
υπεσδδα
##ah
##els
γλυφα
αποφαινεται
καινουργια
οασ
##τυπης
αστικες
φτωχεια
διαφημιση
πλημμε
πληροφοριακου
δηλ
νεκτα
##εδειξε
κελ
προακτεων
καθαρη
μεγεθων
5ου
##ung
παραλειψεις
προοι
2916
οπισ
278
eng
συντη
##στω
αφηνει
εστει
προσκομισουν
##ux
επιδη
##τανα
φοβ
διεξαγονται
ανωτερη
ανδρες
3908
εργασιμη
σμου
##χας
αντινο
σχετικως
κρυβ
ευρος
ακαδημια
τουρ
315
βαρη
δρομοι
##ρουμενες
υπογρα
##383
αβεβ
##σοπουλου
καβαλα
διεκπεραιωνει
##ροφο
επηρεασ
διαφωνουμε
##τoς
μερο
απαλλοτριων
288
θλι
##μπης
##τηγου
προγραμματιζει
συστηνουμε
οφθαλ
βοηθησουμε
##θνικης
##ργια
κτηματογραφη
μακρα
##eration
αναπληρωματικα
ιατρικο
bas
##πεδιου
γρηγορακος
καρχι
727
κερδους
##κρη
εργαζεται
αναπαραγωγης
διαμεσολαβη
##rit
av
χωριου
291
fischler
ρυθμο
βαιτσης
##ρεμα
##πετρας
##ins
συνταξιουχοι
sur
##κοσιους
εξουσιοδοτικη
##4α
επιστημονικες
κληροδοτηματων
αρχαιολογικους
ενισχυθει
##ζομενου
συμπολιτες
κοινωνιες
δωσαμε
υπογραφ
χρονικου
ιστορικων
κατατιθενται
χατζηδακης
υποδη
εφαρμοστουν
πωλησεις
ανατολικη
##ium
βιβλιοθηκες
567
ελασσ
συγχρονων
προκαταβολη
πρωτογενη
προτεινομενο
εκατομμυριου
νοσηλευτικων
αθροισμα
ντρια
ελπιζουμε
ιπποκρατειο
απογραφης
dem
##αρους
23ης
εγκληματα
επιγραφων
ποινων
δειγματοληπ
θρια
##χεσθε
εκτετα
χειμαρ
μιλησετε
καλαμαριας
υπαιθριων
επαιρ
συνεδριασεως
παρκα
##καλα
pers
κυττα
νοσ
##μοσ
δικηγορο
β3΄
ιδιοσκευασματος
τυποποιησης
εμπροθεσμα
χαρισ
551
καναλια
φιλοσοφ
##αιοτητας
τεκμηριωσης
##ποταμου
αντιθετοι
επιτρεπομενο
προσωρινος
φωτοσμικρυνση
αιγο
διασφαλισουμε
##λετων
aut
αποχωρησης
βαζουμε
##ister
αχρεωστη
υγειονομικες
μυα
προτεινονται
αστυνομικη
τελειωνοντας
##γδα
στρεμματος
ειπωθηκε
μισθολογιου
ανακου
φοιτα
##βομαστε
κομματικο
πεμπτο
κυπαρισ
φορτιο
κυπρο
εφορευ
αγωγων
γλωσσες
καλος
αισιοδο
προσεγγισης
##ιωση
προυπηρεσιας
παραγωγικοτητας
δυ1
κοσιων
ιερο
αποκλεισμος
τηλ
περιμενει
συνηλθε
κλινων
δριτσας
αιγαιο
484
διαδικτυου
ασπροπυ
αμβ
αλλαξουμε
κομισ
φρεα
αξονας
τζαβα
1100
ευθυνων
##χοντα
πατριδας
##ton
πτηνο
λεβεντης
ρεμα
εισαγγελεας
γλωσσων
##wo
εντυπου
επενδυτικο
μυτιληνη
ευστρατιου
κοινοποιει
397
καταρτιζεται
πρωταθλη
συνοπτικα
##αλης
φορτηγων
##αλλα
##ission
γεωργικο
διεπει
κτηριο
ψηφιζει
επισημες
μηχανικους
μικρομεσαιων
αποκτουν
καθαρου
441
πληρεις
279
μεγαλυτερης
κλινικες
αποφοιτοι
##τανται
παρανομης
χρησιμοποιωντας
αξιωματικους
σαμαρας
sc
αεροδρομιων
ημερ
εξακριβωση
γρηγορης
σπιτια
παραπλ
##ρεντ
περικλει
υπερηφαν
ετικ
δυομισ
συνεργατη
εξεταζεται
φοβου
φωτοβολτα
πληρων
αλλαγων
##στοπουλου
ακατεργασ
στ5
##ταξεων
λιγους
##κιδα
αριστοτελειο
ιδιοτητες
πανη
χιλ
##ινουμενων
τελωνειο
αγαπητε
τηρηθει
##κτικος
αργα
σπυριδωνος
απαγορευσης
δημιουργησουν
επιστολης
νομαρχων
επετρε
μοναδος
εννιακοσιων
σκληρη
ενημερωθει
##μωνα
δυσκολες
κινητηρα
##φειας
δημητρια
απροβλεπ
1γ
καρδα
452
##106
θεατρο
θυρω
γεγονοτος
μετωπο
δοσο
πηρατε
σενγκεν
##τοπο
οικισμος
συνελευ
φθανει
αρβανι
μαγκριω
lim
τραπεζης
εποπτευομενων
δειξει
273
θεσμικη
##eb
00΄
λαγκαδα
παρελευσης
περιερχονται
ενδεικνυ
εντεταλ
πλε
διαρθ
παρακαλειται
πολυτεκνων
φερουμε
##φαρμα
##φωνη
πολυκ
πεποι
επιταχυνση
##τυχε
ελληνισμου
συλλογους
techn
τσοχατζοπουλος
επικαλυ
επιβαλλο
διοικητου
υπαρχη
ασκηθει
δυομισι
απαλλοτριωθηκαν
φεβρουαριο
συνδεσεων
ναυπηγεια
π1
##108
διετια
παγκοσμιου
μελλοντικη
κλωστου
επιθεωρησεων
πουρνα
ισορροπη
δοσης
δουν
3731
υδρογον
συναντησεων
λαζαρος
##εσδηποτε
##ειω
παρεδ
διπλασια
3122
οποτεδηποτε
σακοραφα
449
##λογα
σωλη
λειτουργημα
αγωγου
κλωστουφαν
514
##τινες
σλοβεν
##λεσει
δινοντας
βυζαντινων
295
παιδαγωγικης
τονιζω
καραθανασοπουλος
αλλαζουν
διδακτικων
κλινικων
κατανεμη
βαλετε
δημιουργηθηκαν
μονοπωλια
##μωση
σητειας
μετατρεπεται
##τανου
##στραφη
νερων
επανω
##ack
στηριξει
εισοδηματων
ψι
μεταφορικων
##τυρη
##κοσιοι
μπασ
ιδιοκτητης
2β
ir
##ind
διακατε
345
παραγοντα
##μιν
γνωστες
αστα
bus
πολιτισμος
αεροπλ
διακοπες
προαγεται
author
##λικος
απρακτη
επιλεγεται
αναργυρων
επανεν
θυμαστε
υποσ
συναντησεις
496
ατυχηματος
επηρεαζει
μαραθων
402
##περιε
πολεοδομη
##παραγωγης
εχασ
διευκρινισεις
##erg
παροχου
επισημαινει
απαλλοτριωθηκε
υφισταμενου
δεκαεπτα
πτωχευ
19ης
680
χορου
inv
274
βλαχο
εκδικαση
ασυλο
βραβ
γεωργιαδη
##ελων
δικων
δοσεων
κυκλοφορουν
διασφαλισει
δημοσιονομικο
διαμαρτυριες
ef
θετουν
διαρρο
ουδεμια
επισυναπτεται
##ισμοι
νορβη
ανωτερου
τσεχ
τροχ
κανονας
παραγωγου
εντον
υψηλα
μεγιστης
δανειοληπ
παροχο
αρχεται
πλατυφυλλων
13ης
λονδ
αιτων
προεβλεπε
καρπ
κιολας
διακηρυξης
ευθυμιος
franz
ανταλλακτικων
μειωμενη
υποεργου
εσωτερικα
νοουνται
##λοπη
επιδεικνυ
ανακαλυ
pe
##olog
προσχωρη
ολοκληρωνεται
##116
παραλειψη
εμφαινεται
##τριχ
##κατοικ
##λαβαμε
κλωστουφαντουργ
προμηθευτων
##δεια
3329
ερχο
διασυνδεση
βοηθησουν
##πεδιο
βιβλιοθηκ
μεταρρυθμισεων
αβδελας
χαρτι
δημοψηφισμα
παρουσιαζεται
##ιστης
λοχα
αντιπαραθεση
λεπτομερων
539
##ten
ποτων
πυρε
##μυνας
λημνου
αντιπ
μπορουσατε
εκτελειται
θεωρειτε
μαξι
οφειλετων
δτα
##θυνα
προεκυψαν
δεκο
πλοιοκτητη
αντιπροσωπειας
παιρνουμε
##βελτι
ανωνυμες
κληρωση
εποικοδομη
624
αναφερε
ιδιωτη
καινουργιο
παραβατες
συγκροτηθηκε
εξαλειψη
κυρωσης
σωματα
εδωσαν
λυπη
καταβαλλουν
γενικευ
##117
ιαπων
1945
εξυπηρετουνται
αδιεξοδο
govern
tim
ενορια
δε29
εµ
επιτυχει
κερδοσκοπικου
μειωμενο
ισχυε
ποσοι
##aj
δρομολογια
ζαχαρο
11ης
##γραφικων
ηγουμενιτσας
παρεν
αντικαταστασης
πεντακοσιες
εγγειο
##ανων
θεατρου
ξαφνικα
##στικος
αεροπορια
αχρεωστητως
ατομου
λιμνης
αθε
χειριστη
##oul
αντικατα
συνεχιζουν
συνταξεως
διαφοροποιηση
ξηροτυρη
εξαιρετικη
ηρω
αναφερθηκαν
θεσπιζονται
αυξημενη
κριθηκαν
##port
ειρηνοδικειου
1947
χειρουργικης
συμπληρωματικης
σπηλιο
0006α
τιμολογιου
ιατροφαρμακευ
διαβουλευσης
455
ταχεια
##ικονομιας
διαβατηριου
##γοη
σαλαμινας
##ξενη
ανακοινωσεων
##λογιου
##oυς
εμβε
μεινουν
κλασσ
απαιτουμενο
τιμωρειται
διδυ
αντιμετωπισουν
διακρινονται
επομενων
επαρκης
##127
##τμ
δεσμευσης
cosmote
κτλ
ευς
ναυα
κερατσιν
δανια
δημοσιοι
αποκλεισθει
##ραιων
εφημεριδων
σωματειου
διακοπων
συνεταιρισμου
υπολοιπους
προεδρειου
##τιμα
πολιτιστικες
διαδ
βελγιο
πδε
προπληρω
οικοδομικης
πανηγυ
757
##εσθε
##vα
δημοσιευθουν
υπευθυνους
καταργηθηκε
ναρκωτικα
##111
60ο
κατασκευαστη
τεταρτου
##ρυπαν
ειδατε
χερσ
309
ανακοινωνεται
συζητησει
απαλει
##βρο
βαμβακι
ακυρωση
276
χιλιων
ραδιοτηλεοπ
αυτοματο
απογοη
πληρωσης
συντομη
ροδ
υπογραφων
συμπεριλαμβανεται
ξηρα
certific
##υλο
καλων
συγκεκριμενος
τοπογραφικου
συνταξει
θεσμοθε
προεβη
ορθολογικη
##0002324
##υγιο
ρουσ
ευελικ
πτολε
χριστοδουλου
ξενη
ναυτιλιακων
προχωρησουν
##yste
δικους
##τρικες
επισημων
3833
##καλης
διατυπω
δουλευουν
μανα
επερωτησης
aριθμ
προλαβ
συνεταξε
δικηγορικο
##πουρων
μνημονευ
ποταμου
στοχευει
παντελεημων
χθεσ
isdn
##ρευουν
fac
συγχαρω
καλλιθεα
ευγενια
συζυγου
αποβλε
διατιθε
συντονιστης
εκαστος
##ae
επλη
κοινωνικος
373
αρεσει
προβληματισ
πεφ
##lement
ακτινοβολ
καταχωρει
αιθουσες
ανασφα
ιορδαν
τοσες
νομιμοποιηση
##ki
281
κλιμακια
##τονια
φερον
δοκιμης
##λισθη
διαρκει
ιωσηφ
##σοι
ναξου
βαρια
νομιμος
κλασικων
επιστημη
θυμη
αντιπροσωπων
αρωγη
καλαματα
κομοτηνη
##ιδευ
προσυπο
γεωργο
μικροβιο
επιβλεψης
φανερο
κλιματος
γυμναστη
δανειστων
κινουνται
χωρια
πνευματικο
επιβατες
πληγει
κτηνοτροφιας
384
394
##πιπτει
αννας
##its
μηνιαιων
ροκο
ενδεδειγ
κατευθυνσης
οικοδομικο
επιθυμια
εκδηλωση
παλαιοτερα
##yd
αγιο
εφορεια
γωνια
##ρειες
οποιεσδηποτε
προχωρησε
537
ημερησιων
ξεπουλη
προοριζ
διαφωνια
αποτυπωνεται
εσθον
θεσπιζει
μεγαλυτερος
τρεχουσα
2539
σαχινιδης
τελωνειακου
βιωσιμοτητα
##κρινη
λοιμω
παιχνιδι
##pt
υπεβλη
εξαιρουμενων
515
λογαριασμοι
αξιοπρεπεια
##ολυ
διαρρυ
υπαρχουσα
πορισματα
αγροτικος
κολυμβ
3028
προστατευομενων
πνευματικης
##of
af
υιοθετηση
##ραγγ
βικ
παθολογιας
4354
##βιου
προθυ
ξενες
θιγει
αρτια
προυποθετει
358
##enic
χαραλαμπο
##νακα
πυροσβεστικο
ενεργητικου
υποδιοικη
ορθης
ακαδημιας
κανοντας
##δυνη
ραν
##αστριχ
κδ
νιω
στεγη
ενδιαμεση
εσπεριδο
##τιμου
1512
324
διαδρομο
αξιοπιστιας
εταιρων
τοιου
χημειας
##κειο
επιμελητηριων
##σμια
νερα
##οτητας
συγκρα
ζωοτροφες
if
##ωνονται
καταν
νωπων
ανασφαλισ
μαται
χαρτες
χανια
pos
ζητησης
πρωτιστως
επιρρο
298
συµβ
φυτου
αλεξανδρο
mε
σφαι
διευκρινιζεται
καλαβ
609
αθλητικο
##φυλακα
υδρευση
δεξαμενων
provision
εκπε
αγορανομ
μορφω
ακολουθους
##μεις
##βαλλον
333
επικειμενων
παροχους
συχνοτητα
595
##ματισμο
1949
##πετσων
μεταλλευτικων
ρυμοτομικων
πιστωτικου
ποικιλιες
προστατευονται
##lud
##σιευ
αποκλεισμου
νσεις
παρτε
φαγη
περασουν
καρπα
τελειωνει
ηλεκτρολογος
μπασια
προιστανται
##ann
ανακοινωνονται
ορθως
##λωσεις
ρατσ
παθησεων
##στερ
##φονται
##τικας
prog
ευρα
καταστροφων
κυρ
ανακυπ
αστυφυλακων
τραπε
344
ευχομαι
επιτηρησης
δημοσιευτει
δεικτης
παραμεινουν
περαιωμενη
μααστριχ
περιθωριου
νομικος
βουλγαριας
οδοιπο
προσθετης
##τεχνο
συγκομ
appro
δεχομαι
##ερα
στερ
##ξηγη
εντονα
2399
δεδομενη
αλλαξε
αυτοματα
μαχι
χρυσοχοιδης
αιγυπ
κρατησεων
υγρο
τεθουν
προεδροι
θωρακ
φερομενων
προσθετο
βαθμολογιας
ηγεσιας
τριανταφυλλου
μεταφερουν
υπνοδωματια
εισπραξεως
##ργανωσης
βασικους
πραγματοποιουν
ιλιου
ευλογο
##πιες
3η
##λανε
προφυλα
εκσκα
ανοιγει
356
μαυρη
σπασ
##μικες
πληρωθουν
have
αντιντα
ισογειου
κακουργ
τεταρτον
ορεστια
διατηρητεα
διαθεσιμες
χαμηλης
ιστορικα
μηνιαιο
εναλλακτικη
##ολα
##ute
παω
πληθος
##αιναν
##φυλακες
υποβοηθηση
##ρχοι
ταγματα
τριακοντα
παπανα
αθεωρητο
548
##air
λιοσιων
εξυγιανσης
επαυ
ζερ
##τρειων
λαων
##eld
ηρθα
ηλεκτροφωτισμου
##οπα
##σεα
νομοθετικων
γαρ
διαπλατυνση
αποχαρακτη
γιατρου
χαρακτηρισθει
αλμυ
κρατικα
σφαγειων
χαρτοφυλακιου
βουλια
σταθα
προκηρυξεις
πετυχουμε
κατεχο
πε4
οικογενειακη
προτεινομενες
αποκρυ
αιο
##go
παρεμφερ
γενος
τεκνων
παρευ
αρνειται
τηv
αναγκαι
πλατειων
##119
εξελιξεων
##ληψεως
λογιζεται
νομοθετη
εκαβ
διασταυρωση
διατεθουν
##στασης
ατυχημα
κυλικειων
διαυγ
407
μερισ
##204
κουτ
ενισχυει
αναφερομενες
εμπεριε
συμβουλιον
ποιοτικου
##τζε
499
##νατο
ρυμοτομιας
αμφισβητηση
βοηθητικων
καταθεσαμε
γνησιοτητας
2860
απολυσης
αργιες
θαρρος
καταδικα
μαθ
επαμεινωνδας
αυγης
διευθετηση
κτηριων
ντροπη
επιβι
μεμονωμενα
ξεχωριστα
ορισμενο
συγκρουση
ελαφρας
διασπο
βρεφονηπιακων
θυματων
αθλητικης
γαλλικης
καταλληλοτητα
πρωτοκολλα
εικασ
##125
332
γυναικα
μουζα
##πτυ
αβε
##µενο
επιτοκια
εχθ
648
##γενεια
προσετε
ορισμοι
πυρα
δοκιμασια
πραγματοποιηθουν
##εργασ
υποσχεσεις
κροα
##χακης
ψηφιακης
ιεκ
οφειλετη
ευρατομ
κτηματικη
προσχωρηση
αντινταμπινγκ
##ve
523
υπογειο
μνημειο
##ight
ισχυσει
διορισμων
επεστραφη
εγκυκλιου
παναγιωτου
ρητο
προτιμηση
κοινωφελων
γνωμοδοτη
ακουει
επιβαρυνει
κινας
ακουγεται
γραφειοκρατιας
αειφυλλων
πολυπλο
λουξεμβουργο
αιφ
δεκαετιας
κοσκ
διερμην
αιτιες
σαραν
μπεκ
εργοδοτων
γραµ
0002
φοροδιαφυγη
απορρητου
εκστρα
αριθμων
αρχηγο
εγγειοβελτι
υπογραφονται
γιαννη
ποταμι
κερδοσκοπ
##σαυ
14ης
δημοκρατικου
0025
συντηρησεως
ιρακ
θαλασσιας
παρηλθε
##σικ
325
##124
διοικητες
βαρβαρα
υποπαραγραφου
μακαρι
υφασ
συνεδριασει
##201
πατριω
##λεα
μετρησεις
τοκοι
πληρωνονται
ανωτερα
αξιωματικος
γδαπ
προσκ
##θεα
τεχνολογικο
μηνιαιας
εντονη
προκειμενη
ανταποκριση
syste
λιβαδειας
##κιες
ναουσας
επιδιωκ
525
τυπων
πτωση
χλ
ευρωπαιων
εφθασ
μειωνονται
ροκοφυλ
καινοτομιας
καβ
εναρξεως
αυστηρα
βομ
εξερχομενων
941
καταφυγιου
διακρα
ενδιαφερομενα
465
χρησιμοποιησει
mod
απομον
διαχωρισ
νοοτροπια
σημειωσω
επιβρα
##118
##στατη
tax
##γωγες
μεταμοσ
αναμφισβη
##λιωση
##γραφικου
περιβαλλοντικα
##ata
αριστο
απονομης
φυτοφαρμα
κτηνοτροφικων
αποφασιν
616
dans
σημαντικων
γραμματα
ενοποιηση
αναδρομικη
##τηθηκαν
καρπενη
φορτηγα
απεργια
κατορθω
εκτελεσιν
αναδασμου
εξετασουμε
σπηλιω
565
διαβασω
σταικουρας
κοινοποιησης
ψαχν
βοηθητικο
κτηνιατρων
ηλεκτρομηχανολογικων
αποκλισεις
##ices
καταλαβετε
περιβαλλοντικες
##hz
εργασιακης
τιμωρη
προσκαι
καθενος
ζητησα
##ok
##try
προωθειται
λειπει
λαικα
χαρτων
ευριπιδης
υποπερι
##αμ
##λοπουλο
αδικο
εντυπωσια
καθιερων
εξορθο
φτωχο
##ρουπολη
πανελληνια
πιθανοτητα
##πυρα
ευρισκεται
συντεταγμενων
διωρο
κυβερνητικες
##φανης
υπογραφηκε
διαρθρωτικες
ενδιαφερουν
##ντ
γενια
μαρκοπουλου
παρακαλουμε
συλλογικα
αρτεμι
τετοιας
οικοδομικη
βλαχος
μητροπολιτικου
παρεμποδ
διασπα
σελιδας
οριζοντια
##μμενα
καιρος
πληροφοριακα
αγροτεμαχ
αναδιαρθρωσης
παραπονων
συμμετειχαν
σοβιε
803
συγκυβερνη
κωδικοι
##ρισετε
πεσει
καλαφα
econom
##βερτ
χιλιοστων
υπαγο
συγχρηματοδοτουμενων
δυναμης
##βαλλο
##συλ
φθιωτιδος
προσαυξαν
μοσχα
552
αναποτελεσ
ειδικως
γραφειοκρατια
γεφυρα
θεολογ
κατωτερων
δεσμη
προσκομισει
σταματα
922
ζητουμε
αριθµ
χριστοφιλοπουλου
τραυ
υπεθα
περασαν
γραπτες
τεκμηριω
προβαινουν
ρυζιου
αυξημενες
μεταβασης
δικαστη
παρανο
ζητησω
δηλωνουν
πραγματικων
391
χρηματοδοτησεις
ασυρ
##ρισια
επιπεδων
πολλη
αρχαια
ηρθαν
##ferred
περιελθει
ψυχολογιας
σεμιναριων
##115
μειμαρακης
##λo
##βουλευ
αφετηρια
απελευθερω
##θωντας
ασπροπυργου
##τηγο
εμπορων
ευστρατιος
ανταποκριθουν
χαρτια
περιστασεις
επιτελειων
χαρακτηριζει
εναλλακτικες
ποιοτικο
μετακινησεων
παρασχει
εβερτ
συμμαχ
εδαφικης
469
375
συγκοινωνιες
##χιων
##ica
guaran
##τερον
προαναφερομενη
στοχευουν
##ασεως
μεσαιων
διαβιβαζονται
404
προαναφερθεισα
πορτα
παπαδημου
εξελλην
δ17α
##sl
επιδοτησεων
πακ
θεωρηθηκαν
τερματισαν
δουλ
δευτερολεπ
επωνυμου
##φοριας
δικαιολογειται
κοινοτικος
ελεγξει
αναβαθμισης
παραγεται
θεσω
22η
γνωστοποιη
346
yπουργ
##ουσες
##πεντα
389
##εδα
αποδεκτο
συνεχιζουμε
1922
σηματων
απωλειας
##pe
προφορικα
##ασου
διδακτικη
αχιλλεας
558
στεφανοπουλος
ανακηρυ
τετρακοσια
coop
επιδιωξη
##δ΄
αποχωρει
μεταφερει
δε30
4β
628
σερα
εξωτερικα
##γενη
περαματος
μουσικη
##ουμενης
396
δυσκολα
##μιδης
τζεκης
##φεραν
αδειοδοτηση
334
φασμα
υπεβαλαν
καταστρω
παραθε
354
απολυτο
πυρηνα
##ij
##ταει
στερεα
##λισεων
##μβρη
τελωνειου
ακαδημαικου
ισχυουσων
προστιθεμενης
ee
απαριθμουνται
δεχεστε
##oun
διαβουλευσεις
προσλαμβανονται
χαλκιδα
##φωτο
ευρεια
τριμε
705
χαρικ
τελικων
κατευθυνσεων
διαμετα
συλλογο
μιλησα
βρουτσης
##ρητα
εννοιες
em
παα
επιπλων
ρευστοτητας
πολωνια
φη
απεδ
ακτοφυλα
5β
διμηνου
αιτιας
βελτιωθει
ανθε
367
συγκροτηματος
αδειοδο
αποστει
αντιμετωπιστουν
πλοιαρχος
##τουρα
επαγγελματικο
επικυρωνουμε
##ωστα
##κιβω
υπουργικο
βρισκει
αεραμυνας
η΄
επιτηρηση
24ωρη
επαγγελματικες
κορυφων
τηλεφωνικων
date
##ual
παπακωστα
χιλιομετρα
##122
##τροπο
σημαιο
ασυμ
##ικαι
καταχρη
μονιμες
316
ενημερωσω
συμμετασχει
επρο
διευθυνοντος
αυτοψια
ασφυ
κατσω
σπυρου
##ανω
δ5
##ραμα
##γραφους
κωδικων
366
παιχνιδια
αποφευχθει
δασμου
ειδικευσης
##τις
διαχρονικα
υφισταμενα
ιραν
παραγωγικες
γλυφαδας
μοχ
ψηφος
διαυγεια
νεολαια
προσπελα
ακριβειας
##ry
μητα
βραχυπροθεσ
##ινει
τηλεφωνιας
730
ευαγγελισμος
une
αποφασιστηκε
καρακ
ημισυ
α5
ογκ
στρατηγικο
##ταρι
δακτυλογραφηση
αναρρω
μυαλο
313
αναβολη
παραγωγο
804
λογιστων
καταμετρηση
διατ
κατακτη
ενηλικων
##τινης
ολικη
##ψυγ
1946
περιφρα
τροπον
271
##λογειται
αναμει
##ωνουν
εστιας
##δημητριου
οριζομενων
4257
στυλιανη
ιδιαιτερες
μητροπολιτου
##ζομενες
##che
##γραφικα
eg
ευφρο
καθιερ
χαρτης
##κεπ
##ξις
εκκρεμεις
συμμετασχουν
εισπρακτο
##ally
##ific
αμερικη
##ade
β1΄
608
947
κατηργη
τριμηνου
ανανεωσιμες
αρμεν
γδαπκ
αλυσιδα
συμβουλες
##144
αναγνωριζονται
ξεφυ
γηπεδου
##μετρη
##γειονομ
δασαρχειο
ιεραπετρας
εθνο
col
##ινουν
1926
αντανα
393
οδηγο
φερε
οινοπ
επικινδυνες
1925
αεροδρομια
εξηγησω
αρχικου
292
απαντησε
πτυχιουχων
κτηνιατρικη
υπερο
ασημινα
αποτροπη
ηθελαν
ενισχυσουμε
3687
##µενα
σχηματα
μεταφερθει
ενδεκ
επιθυμη
8ης
υποβαθμ
επισι
τετραγωνο
ποικιλια
παγκαλος
περιοδικου
αποδεδειγμενα
pol
β4
εγσα
συγχωνευσης
vo
τωv
φορολογηση
χρωματος
αερομεταφο
δικηγορικης
##πιδη
ομιλων
xx
μααστριχτ
ερη
αποκατασταθει
συνεισφορα
διδακτηριου
μπουμε
προπαρασκευασ
συναλλαγης
δημοπρατησης
στηριζουμε
καθιστουν
ομιλητων
αδειοδοτησης
εφοδιων
θηβων
625
περιερχεται
339
εγκρισεων
##χαμε
γοκ
κοινοποιηθει
παραμεθο
##ange
πτησης
εδρες
αντιπλη
##αταπ
σωλην
##πλοιαρχου
##γκαταστασης
##αται
##tain
355
παραπονα
μετατοπιση
προσθηκες
δοαταπ
βερε
μυκ
##ρουλα
ραδι
νοτιοδυτικα
##ana
οφειλης
αστικο
##eng
καρχιμακης
προετοιμασιας
μειζονος
335
γκιο
σχολιο
αποκλειεται
##ωνται
μιχαη
##θηρων
αραβο
ευο
##ιγ
καρασ
χωροθετηση
επιλεγουν
##γρ
διαμονη
χαρακτηριζ
σκουρ
ισοτιμο
δραμα
φαλη
απομακρυ
##υμ
##αιδας
διαβιβαστηκε
εκκινησης
πεπον
καταστολη
απελλα
χον
##tab
εβδομαδων
υδατος
μπορεις
υποστηριξει
οδηγοι
νοικοκυρια
##υμου
μαρτυρες
συνταξιμη
πετραλια
oι
ακουσετε
χθ
μεταποιημενων
παραπτωμα
παρακρατηση
ασχοληθει
φανα
ανθρωπινης
each
##βες
οικονομιες
μπηκε
προσφερεται
στενη
δεσμευσεων
αποχετευ
βροχο
προβλεπομενου
1107147
απη
αναφερθηκα
διαμετακομ
1924
δυσκολια
##sh
κατοχους
υπογραμμ
κερατσινιου
κατατεθηκαν
557
##τραπη
349
αποσαφην
ολος
αποκατα
καταχωρησης
διαλε
κτηματων
καθυστερησης
επαγγελματιας
χριστος
κτηνοτροφια
919
γν
##ταρα
φυσικες
συμβουλευτικης
ουσιαστικες
πειθαρχικης
bra
αντιδ
τεμαχια
μεριδα
ηξε
μεμονωμενων
commun
##til
ισοζυγιο
##ριδες
απαλλοτριωνεται
δυσλειτουργ
τηλεφωνικο
συμμα
ε2
εντονο
επελεξ
κλασης
αποτα
ελτα
λογων
καλλιτεχνικων
καθιστικο
##μονες
πρωθυπουργε
ροης
διαβασει
αποσυρση
οπλιτων
γηπεδα
ανακεφαλ
##ταξεως
ελατε
##κοφαν
χρεωσης
γυρισ
αδιεξο
χαλυβα
ρουσφε
μεταθεσεις
1255
##θμης
617
615
1756
ενεργουν
επιχειρηματικη
αγροφυλακης
προσαρτημα
ατζ
συνδεσμο
παρανομων
βαθμολογιο
ιεραρχιας
οικονομολογ
επειγουσων
cent
παλαιων
τεχνιτη
οπλουργ
##ong
εξακολουθη
επαρκεις
##iness
##velop
οδηγους
διευκρινιση
επιπροσθετα
##οφ
ηλεκτρολογου
πλατειες
ελλειμματος
τεχνολογικη
συγκοινωνιακων
προσθηκης
υπερβολικα
ενισχυσει
δασμολογιου
αποδιδεται
καθοδηγηση
αποτυ
##ρχας
##λαυ
326
εκλογικου
περιμενω
549
ιου
ζαχαρια
σπατων
κοντος
ονει
αναλαμβαν
δραστηριοποιειται
εξορθολογ
υπευθυνης
συγκλισης
συμπυκνω
καποδιστριακο
εμμεση
##γκριση
##ολλη
admin
κοινοβουλευτικων
συμφωνησω
##µβαν
μουσει
αναλογικη
οηε
##σμενων
παραγωγος
χρηματικου
529
387
αντιπεριφερειαρχη
γηπεδο
##ισμενο
περιτ
ιατρεια
προστατευει
##σημαν
κοζανη
μηχανισμοι
hellas
διυλ
ενεργοποιηση
αρδευσης
εγγυαται
##roup
χιλιογραμμα
τελωνειακες
690
μεσι
σημερινες
υγειονομικο
λευκη
##ied
##126
διατυπωνεται
θεου
##ριους
ολυμπ
αμφισ
##σμενοι
αποφοιτων
οπτικοακου
πε11
##χειρουργ
εκτακτα
αυξανει
##λετης
352
ναυτικοι
συγκροτει
καταργηθηκαν
παροντων
ζητησαμε
προκαλεσε
518
μαρινας
fax
εγκεκριμενη
ερευνητες
##κλει
##ποιημενα
359
est
##301
##εττα
υπογειου
χειρισμου
παντειου
ερευνητικο
καταστρατη
γεωπονικου
ανελθει
##εργα
μηχανολογικου
οεκ
σηματα
επωφελη
##σσομενων
συνεδριων
μεταβιβαζονται
##τοφυλακων
θελατε
10ης
επιβαρυνσεις
εγνατιας
συμφωνου
##γουα
φιλανθρωπ
υπολοιπη
κεφαλογιαννη
χαιρετι
τελειωσω
δευα
##653
ευρισκο
δημo
σταδιακη
ενισχυομενου
θετικης
353
αθλητισμος
αναγκαστικα
εξασφαλισθει
θαλασσιου
3β
αποτυχια
##ζεστε
επιτυχουμε
χαμηλα
##κιδου
αιγοπρο
ανοικτου
ετοιμοι
κυμ
##ween
μηνας
328
##σιμοτητα
ευλογη
τεκνου
δισεκατομμυριο
ιδρυεται
απολυονται
εκτακτο
βγαινουν
εταιρικη
αρσενης
##tt
μιλω
##σταλη
πλοη
καταβληθεντων
συμφωνειτε
μεγαλους
867
##ονου
αφγαν
εμπειρογνωμονες
υποστηριζουμε
εγγεγραμμενος
ενεργειακων
ελεγκτικων
νεκροταφειου
409
μεριδια
καταλαβω
σπουδαστης
##ινουνται
πλοιαρχο
##βαρ
καλογιαννης
719
##ura
ship
θεμι
μετασχη
##ject
τζακρη
τηλεφωνο
εδαφη
377
ασημα
##σθουν
νομιζουμε
ομολογη
στειλει
φορτοεκφορτω
συνδεσεις
μυλων
συνιστουμε
οικειους
σχετ
van
385
φιλοξενιας
αυξηθηκε
διαφορετικων
κυνηγιου
πλεοναζ
τραπεζο
προτασεως
οικιακους
##ονι
καλαμπα
διασφαλιζουν
hellenic
επικρο
προηγειται
ανυπο
βρεφονηπιοκομιας
αναστελλεται
συγγραμματων
##κοινων
παροπλ
αυταρχ
ζωγραφου
κοινοποιησεως
εκδιδουν
συνειδητοποιη
##λετα
ευδε
2508
μιλουν
##κλης
υποκρυ
σολ
ολοκληρωνω
δυναμικοτητα
εκκο
κατεψυγ
εθελοντων
στεγασης
##ock
##ριθμη
επεα
εκεινου
αγοραπωλη
435
ενδειξεων
οριογραμμης
τυχαιο
επαφης
καυσης
λαρισαιων
ζυγ
offic
αλιευτικης
between
σκορ
κυμης
δεξαμενες
νηπ
ρητρα
ανακαλουμε
συνεχομενα
αυτοαπασ
929
shipp
βρεθουν
λεπτομερως
τερματισας
##659
348
χωροφυλακης
διαιτησιας
31ης
##se
κτηματολογικα
θεωρησεις
052
παυση
μετρησεων
627
ra
εκτελου
τυχε
αραβοσι
638
##ris
εκμισ
γνωμονα
επικεντρω
βιν
ακρω
τσοβολας
συνδεει
αργοστο
τεμ
λαβα
αμειβ
συστηνεται
αστικα
χωμα
διατηρηθει
##oma
αλεξιου
κυριαρχια
δημαρχιακης
τερμα
760
διαζ
λιανα
εφορια
αναγκαιου
πολεμικης
αντιπλημμυ
nik
αποστασεις
##ερω
διαμενοντων
ελο
8ο
διεκδικουν
op
κωδικου
φλωριδης
οφειλομενη
##ισεως
διαμορφωνονται
δημοτη
1944
κανονικης
##εντια
απαιτηθει
παυσης
αυτοτελη
##σε0
αναστασιας
προσληφθει
υπασ
##γραφοι
336
αποσφραγ
##τζογλου
επιχορηγου
υπερωριων
##δρι
σηραγγ
απωλειες
τηλεορασης
δυσαρε
##ισουμε
συναισθη
υποπρο
##med
εκπροσωπουν
καλαβρυ
κατακορυ
σαμο
ικανοποιει
εβδομαδας
463
επενδυτων
νοσηλευτικο
ενη
ντες
322
σηφου
συγκροτουν
μειωσει
χατζηδημητριου
τσακαλωτος
καρτε
πειθαρχικες
τεχνικους
μηχανολογιας
ζητηθηκε
καταρχας
##ats
διακανονισμου
ευπαθων
διυλιστη
επιδοσης
καρτας
##τολογιου
050
παραδω
επιδοσεις
ευδαπ
ρητη
δακο
ακουσουμε
διαφημισης
##τρες
βαρυνομενο
επιταγες
νεωτερων
ζητησαν
κασσ
##τικαι
τρομοκρατια
ενοικ
ευαισθητο
καμπ
μεικ
τροικα
μαυρα
συντριπτικη
ραφη
πιστωτικες
##κριτικη
εργατικων
γεωργικου
μπεζ
αποδιδει
κουρουμπλης
shipping
##ρισιν
σημιτης
αναφερετε
συμμορφ
διασκεψης
θεσμοι
δεσποζ
εβαλε
##ile
ιδιοτητας
584
ακαλυπτο
4η
λιπασματων
μεταδοσης
διευθυνων
εχε
τηλεπικοινωνιακων
##χευσης
τυγχαν
924
μετατραπει
επικινδυνη
εμπλεκονται
575
προσαυξηση
εγνατια
920
##ari
ενωσια
εξοικονομηση
διαφυλαξη
κρατικος
##ings
αναλογικα
includ
ανηλικο
##τατες
μονης
##121
μανωλακου
δικτατο
μετοχοι
ογ
τρ
υφα
κοινοχρηστου
επιταγη
ανυπαρ
εκεινης
τουριστικα
τραπεζικων
959
πληθυσμος
απασχολουμενων
βγηκε
προδικασ
##ριθμο
θεωρησει
##κατοικια
ευτυχ
##ληψιων
ανεγερσης
αμαρ
μεταθεση
αποτελουσε
##ιακο
περιγραφει
διαβαθμισ
προπα
υλοποιειται
νηολογιο
##ντο
##εντες
επισκεψεις
ημερολογιακου
##εντρο
γραφονται
κουτσο
μηνυματα
συμμετεχοντες
εργατη
τρισε
συμπεριληφθει
ευθυμια
ev
επενδυτικα
υποστηριζουν
357
λεκανο
αναδιοργανωση
##θεισας
two
εστιασης
περικοπη
αποφαν
αρνητικο
νηολογηση
business
απαντησατε
σημιτη
οινων
δημοτολογια
συμβατικης
##ru
571
εδινε
αφροδι
υοδ
διεξη
διαρθρωτικα
πληθυσμια
διδυμο
δασμους
σκουλακης
επιθεωρητη
εορτων
δειγματος
σεβεται
ουδεις
πρωτοπαπας
δενδιας
πωλησεως
βοηθουν
υποχρεωτικο
##πτερων
γγδε
βασεως
1928
δυσμενεις
επισκευων
ασθενεια
γερμανικη
συμβασιουχων
##σσυ
μεταπτυχιακου
σπιρ
αλλοιων
##συνδε
##135
λακ
δηλωνεται
ανακοινωσει
συνθη
επεαεκ
πρωτοι
τροφοδο
18ο
χωροταξικου
κατεπειγον
##ελθουν
##ork
κρατησεις
δεχθουμε
δεοντολογιας
σμυρνης
ιασ
θεληση
συγκροτουνται
βαρβαρας
αποδυνα
τελειωσε
##µενου
622
##τηρι
αρχηγειο
συμπαραταξης
##ιστουμε
develop
6ου
παρατηρειται
προσωπικες
ασθενειων
τριετη
θερμης
εξαρτηση
αντιστρα
προσβασ
τσιτου
καταχρηση
στυλιανιδης
αποπει
αλιβ
παλαιοκρα
##ood
διαγραφονται
συνταχθηκαν
ταχυδρομειου
καταλαβουμε
τεμαχιο
αεροσκαφους
μουσειων
ειδικοτερες
ταχυδρομειων
αποκομιδης
667
##δρομος
εκδωσει
ste
επιτραπεζ
αφαν
παλαια
καυσιμου
ευρωπαιοι
τεχνικοι
θανατο
##d0
συμβουλευτικη
##σμενου
##λεγ
μνεια
μνημεια
##ζομενης
466
351
εξουσιες
##ειστε
αρχαιας
επειγουσα
δημοσθενης
information
γλ
πζ
ενδυνα
κουρα
##κειτο
συστατικα
συγκριν
καταληγει
επερχεται
684
εκλογικης
ελαττω
##ροκο
αεροναυ
ροη
αναπηριες
χρηματοοικονομικης
κατασχεση
δηµου
αιτουντος
ραδιοτηλεορα
1338
##μισθια
παγιες
φυτουγειονομ
συνασπισμος
μαθητης
δεδουλευ
9ης
εξηγησεις
επαληθευση
##υρου
αναισθη
ανταποκρι
προεκλογικη
τελουν
ects
συμπτω
δασοφυλακων
παραλλα
μισθωσεις
ξεπερασει
απαλλαγες
ασυν
ηλεκτρικου
395
##τροπουλου
πειθαρχικων
χαμηλη
καταληξει
bl
ιδιωτικους
εργασιακες
4325
φωτοαντιγραφο
363
συμφωνησαν
στατιστικες
ευελιξια
4002
πολυγυρου
ευαλω
βασικοι
παροδιων
καραγκ
ανταγωνιστικη
αντιστοιχια
δημιουργουμε
υοδδ
ευοσμου
ελσα
αφρικη
κυρωνεται
διατυπωσεις
ψηφισα
1246
οριζοντα
ψηφων
απεξ
##δημοκρα
ασπ
αιμα
657
συνταγματικα
αυξοντα
ξεκαθαρισουμε
ελεγκτικες
αναπαυ
401
δογμα
δεσμευεται
αναπροσαρμογης
##καθως
επακριβ
ακτοφυλακης
χαιδα
##cc
τομες
επιβλαβ
αγροτης
ατα
εδαφων
2345
παραγραφη
πατ
δεχονται
επιστημες
υποστηριζω
απαρτιζεται
αριστη
σεραφει
θαυμα
διοικητων
αναδασωτεων
ερυθ
ολον
υφαν
πλεονεκτημα
θυσιες
ιδιαιτερης
αφησει
διαμ
6021
γνωστοποιειται
υπευθυνα
παραδιδει
##po
γιατρο
καθεστωτα
επανυποβληθηκε
νηογνωμον
ηθικης
sal
αποκλεισμο
λεωφορ
διευκολυνουν
κατοχυρωση
408
διαγραμ
ανωμα
απολογιστικα
τεχνιτης
παραχωρηθει
##ξιες
μεταφορ
ηλεκτρικων
σωματικη
##ησει
αναγονται
οικονομικοι
οδηγησουν
##θαι
##λεστα
##ηλθαν
##rib
εικονιζεται
θεμελιωδων
σκυροδεματος
φ1
ολοενα
3427
δαμια
533
guarantee
##τιμω
πεζοδρομου
επιλογων
##γραφικες
σκυροδεμα
υπαρχοντος
πελλης
306
υποχρεο
##σονη
ικανοτητες
δ16α
παρουσιασει
κομματικη
βιβλιοθηκων
ααπ
πετυχε
πμς
παριστα
υδατινων
φτιαχν
1264
χορηγουν
##002
υπαξιωματικων
ηµ
επροκειτο
αυγεν
τετοι
##λιδας
υπευθυνοτητα
μεταβιβασεως
##νικο
ευκαιριων
συμβολαια
462
παρομοιες
##ρμον
μεσολαβη
1586
κλεινει
τελευταιους
ασφαλους
##αινοντας
πυργος
##ric
ακουσατε
δολοφον
##uel
820
κανονικο
στρατιωτικου
599
εναλλακτικων
αμεσων
ελαχιστων
##φορη
ρεππας
lo
##ολογια
555
ταχα
##βευ
ισχυριζ
γνωστοποιησης
383
φινλανδια
##ψο
κοσμα
ευαγγελιας
647
γενικοτερο
καταπα
διακηρυξεων
##yn
##λλων
ουρανια
ολυμπιακους
δολκεπ
##ταξιας
καθηγητρια
προμε
παθε
χειρα
παλληνης
##ρουσε
παραδιδονται
κινητοποιησεις
τρισεκα
##ret
οργανωτικης
##δικειου
566
003
ασφαλισμενοι
ανακοινωνει
γιακουματος
ποιοτικα
κουτσουκος
κατσαν
πραγματοποιησει
παραπλανη
καθηκοντος
εισιτηριων
προπαν
παπαδημας
2601
εισαχθει
μεταλλα
##φερης
##δρομο
θυμο
πανελ
ταχυτητας
##ποιημενου
οιου
περιοδικη
εξοφλησης
εληφθη
##ages
ml
##ωτερα
program
##ρατος
τσιπλα
επανελθω
σκονη
πανεπιστημιακων
μεταναστευση
ταξιδιω
569
κς
αργιας
αποδοθει
επιθεωρητες
545
εργασιακα
επενδυτη
475
κινδυνοι
πολυτεχνειο
αιθουσων
πιθανη
κοσσυ
σιωπη
βασιζονται
πτολεμ
αναγνωριζουμε
ατομικες
απιστευ
013
εκφρασει
##ευρωπα
##φερη
μηνιαιες
θυρωρων
γραµµα
##εμαι
σωρευ
342
υποδειξη
αναπηρων
πολυκατοικ
##ματε
τελεση
##βακη
σημαντικος
προσφατες
επεμβασης
υποχρεωσεως
568
doc
αδραν
τελικος
##λογικος
ελεγχθει
εκκρεμει
διαιτησια
que
##χλω
ογκος
1469
κυρους
κληρονομια
εξεφρασε
προτεραιοτητων
τραυμα
##κτονιας
030
φιλαρμον
αντισυμβ
υπερωριες
τηλεφωνη
αναπτυσσεται
αμφο
εκπομπης
κοστη
καθαρισμος
ιδιαιτεροτητες
ακριβης
ανελκυστηρα
θιγονται
στηριζουν
προεδρευει
παρεμβαλ
436
##ριδων
εισαγωγικος
μπουρ
γκελεστα
##ανθρα
αλλαξουν
1481
διαπ
νομοτεχνικες
off
ορθα
τετρακοσιες
φια
λειτουργικο
επιχειρηματικου
αποκαταστασεως
##ency
##μοπουλου
αναπληρου
ισχυοντες
αικατερινα
γραπτων
κκ
##lor
τε3
ασκησουν
τελωνειακης
παλιννοστουν
αντισυμβαλλο
##τo
αναγραφη
διοριζ
εγγραφουν
σεραφειμ
3013
εξορυ
φαρμακοποιων
services
γαβρι
κοσιωνης
δεοντως
διευκρινη
λοιπο
αποστολων
αναγνωριστουν
σπουδαστη
συζυγος
αγορητης
δβ
θασου
##τοπου
αναληφθει
362
κληση
συστατικη
πανδημια
709
φωτογραφιες
εμβελειας
γασ
ανανεωσιμων
αριθμηση
κοπο
αιτουντα
δορυφο
παρκο
376
ενδεκα
##140
εκπτωσεις
xv
##ισε
εισακτεων
κινηθει
cm
μπω
840
ιωαννιτων
ματθ
σερρες
produc
ρηγα
συνταξιοδοτικων
επισιτισ
βολος
εληφθησαν
2026
νοτιας
παρεχοντας
εξοχην
φαρμακης
ge
##ρονη
ασθενο
λαυριου
διερω
υ4α
392
μοντελου
##λεως
επικουρικο
προσετεθη
49095
αρχιζουν
μουσουλ
τεχνογνωσιας
αδικια
522
ενεργα
ξενου
συναινεσης
ξενοφων
μαρκος
406
##χουσων
σημαιας
ix
σιδ
new
εκδοθουν
require
##γραφιες
##εφα
δωδ
διαβασα
##κευ
δεχομαστε
san
##µενη
ανταλλαγμα
οικογενειακων
αντικλη
37α
426
διαλυμα
αντικειμενικο
απλουστευση
ευρωπαιους
διαδημο
ηρε
internet
##γειας
τοπογραφικα
##ττου
μπλο
αποθεματικα
sci
αλιευματων
ομοφωνως
προσοδου
##ξικο
συζητησεων
##φεροντας
ανοικτο
εκκρεμοτητα
780
σικ
επιχειρησεως
κοιμητηριων
εκτροφης
386
διευθε
αχιλλεα
421
greek
μορφολογια
μαγκριωτης
##θεσε
φυλης
συμμορφω
εσπε
καπε
ενεγραφη
ευρη
ζι
μεγαρων
##ομο
συμφωνες
αφμ
τιμηματος
ατομικο
υδατορε
##θρ
##σσων
##tie
εντατικης
εκδημοκρα
ολοκληρωμενου
##ελεγ
αρρω
331
##ρτα
321
καταθεσουν
εκπαιδευτων
απολογισμος
οιουδηποτε
δεπα
λουτρακιου
1927
συζητουνται
συνταγο
παραγοντας
θηραματων
ηλθε
καταδικη
εναεριας
ληψεως
επαναλαμβανεται
##ποιημενες
συμβολαιου
ζ2
ποιοτικης
σιγουρος
αναστασιο
μακρης
459
επαρκουν
char
αποθηκευτικο
βιωσιμοτητας
γρηγορη
##τροφο
##μηνης
κομματικα
λειτουργηματος
κλειστο
##ομης
##μo
ποε
τροποι
δρομολογιων
καρπο
επιβαρυνεται
φασης
ικανοποιητικη
##πτωσεις
εμπλεκομενων
υδρογονανθρα
μεταταξεις
διαγνωση
πλατ
πολυν
2790
βαλκανια
προσφατο
επισημανσεις
χλμ
διακηρυξεις
μαζα
##περιβαλλον
618
καταργει
εντυπη
αποφυγ
λεγονται
αστυνομικοι
τοπογραφου
επιχειρειται
προβαλλουν
μονοθεσιο
ατλαν
μεθοδου
διαπιστωνει
βεργ
ανοιχτη
παρακαμψη
πρωτοβαθμιου
υπογειων
παρθεν
508
##ταλαν
οργανωτικων
##ries
##νιδια
##ould
μηχανες
##εισε
υδραυ
tak
ησφαλισ
κυβερνητικο
διαταγης
νοσηλευτικου
καταδεικνυ
eff
φαρμακευτικης
##ωτη
374
οικοδομικες
επιβεβαιω
συκοφαν
τινος
μιση
κινδυνευει
βαλατε
αντωνιο
ενισχυεται
κεππα
πυροπροστασιας
παρασι
1941
3051
υπαρχοντων
αρτο
κορινθος
παρατιθενται
οικουμεν
κοροιδευ
μαθηματικα
καταλοιπων
##ταξια
λογισμικο
ταλιαδου
κινητο
αυθαιρετα
εστιατο
compan
τελεσιδικη
βουρ
καταχωρισης
λησ
ενημερωθηκαν
ξεκαθαρο
κατανεμεται
διαφοροι
στρατηγικες
ακροαση
##ix
##κεων
δικαιοδοσιες
θετουμε
εκου
##χνη
##ques
iss
αγγελοπουλος
εκχωρησης
κινηματογραφου
##καλια
πτυχια
##τατων
παρεκκλισεις
γερασιμου
αιγοπροβα
αυξηθουν
αυξησει
χρωστα
λαζαρου
ναυτολογηση
πληρωθει
υπενθυμιζω
provisions
##κτικου
κηρυχθει
παρουσιασε
4386
kai
επεισο
τυπους
##ωρης
λυσεων
446
βοηθημα
λερου
ξεπερασ
ηχο
τζο
2071
διελευσης
##τρικα
509
ενημερωτικων
απελ
ιδρυθηκε
δημοπρασιων
διπλωματου
712
συγχαρη
προσωπικον
##στολης
570
παρασκευα
επιβατικων
συνδικαλιστικων
1938
κυριακης
γαμου
αρχισαν
λεον
government
προβουν
σιδε
κανελλοπουλος
εφικτο
επιζη
1701
κρινο
nov
υποδια
ακτ
εγγεγραμμενες
5η
3010
αεροσκαφη
χερσονη
τοπιο
secur
##λαδο
σημαντικοτερο
διαλεξ
κγ
περη
ταξινομησης
##γησης
##lig
ασκλη
724
##ko
τοση
τριτος
##κοπουλο
740
κιου
εγκατασταθει
aux
τρυφων
οοσα
δ9
προσωποπαγων
θεσμοθετηση
ρεντη
αποσπασματα
χαρακτηριζουμε
1039
νομοθετικα
βραχω
##σαλ
κρισιμα
πλοιοκτητριας
πορου
χατ
ομογενεις
μειωθουν
μεταβιβαζεται
δειγματοληψιας
βουτυρο
commit
##ομος
αττικο
ευθεια
πλατη
επιχειρησιακα
αλιευτικη
διδυμοτει
αικατεριναρη
στρατηγικων
836
ηθικο
542
περιγραμμα
ονε
αστο
καταφερε
εμφυ
οροφων
σοσιαλ
πτησεων
παπαδακη
δεξαμενη
συγκοινωνιας
αποκλιση
##ett
συνιστωμενες
##παθο
##νοητο
κυκλοφοριακων
προτεινομενων
διανομαρχ
μουσουλμαν
εκμισθωση
σκαφος
##ani
##501
στεργιος
##tel
πραγματικοτητας
405
λαβετε
συνταγματαρχη
##r0
επαγγελματα
εγκαταλε
ευρεσι
αδικαιολογητη
αυτοαπασχολου
απτονται
πνευματικου
αξιωση
2454
μαριαν
εγκατεστημενες
ρουμανιας
αναρωτιεμαι
κοσμας
##λινα
##σανατο
382
αποδεικτικων
##θεσια
ρυθμιζουν
σοβαρους
711
νοσηλευτριων
##τεψη
διαπιστωσης
##τισει
διανεμη
πιστευουν
ιατρους
##γιει
##λωβ
μεταλλειων
καθολικη
716
αραβ
##σημο
πρασινη
##πλοκης
τοπογραφος
##λογες
ομογενη
1416
κατασταλ
φυτοπροστατευτικων
δυσπισ
has
π2
381
##αρμοδιοτητες
πολλαπλων
##πo
κουβελας
##θεραπευτων
καρπαθου
μεταθεσεων
χρηματοδοτικων
βυρωνα
##νομες
αμπελουργ
im
##μαγ
##σκευη
3260
καταλαβαινουμε
εκμεταλλευσεως
##emens
ευφροσυνη
##κερ
##λιμπαν
εδειξε
οιασδηποτε
ιακω
εγκαταλελει
##ωτες
ανθυπαστυνομ
περατω
εισαι
##χτηκε
δικαστης
637
##πολιτισ
πολυχρον
##stn
καταργηθουν
##601
##ella
προαναφερομενων
ετοιμοτητα
μακροχρονια
εφημεριες
ισοπεδ
ειδικευμενος
λυκειων
μονασ
εξωτερικες
βουλτεψη
μαιευτικης
607
ραπτη
φαινομενων
δακτυλογραφων
φ00
παντες
ροδα
καταλληλου
νοσηλευτικη
pstn
ιατρειων
τεθηκαν
24ης
ανεξαρτητο
ναυπακτου
ελευθεριων
περικλης
μεριμνη
συνεπειων
βιολογιας
θεοχαρη
καρπενησιου
εργαστηριακων
υποθηκης
ταχυδρομικων
εφημεριων
καλαβρυτων
οργανωμενη
κατεδαφιση
πληθωρισμο
τρω
αποκαθ
##μοιο
μηχανης
##κινα
partic
ψυχολογων
ισολογισμο
##λεων
ταμειον
0006
κατεληξε
αποθεματος
σκληρα
##σπο
##ρεν
επιμετ
ρεματων
σεβασμου
αποτιμηση
ληγουν
αναλυσεις
1330
προτεινετε
απεχει
συντηρησεων
μοτοσικ
##ostat
##ξυ
εμπορο
επεκτεινεται
##cl
νομισματικη
προτιμησια
home
φοβουμαι
παυλο
εκλεγονται
μαριεττα
ελαχιστου
##γνωμο
ολοκληρωσω
εκτελεστικος
συμβατικων
βουλευτηριου
παιζει
εισπραττει
αντιληψης
αλλοτε
αποτελεσματικης
περιμετρ
αιτη
γιγ
συνεργατης
κτηνιατρικου
2°
κραυ
ανησυχη
##ρακι
ρυμουλκου
γεεθα
χριστοφορος
655
456
μιχε
γεννηθει
επακριβως
γραφη
χωρητικοτητα
##ναυαρ
341
453
##λογους
αρχιτεκτονικου
αφρικης
αναπληρωση
επεκταθει
σκευη
κατονομα
συμπληρωνονται
ουγγαρια
παραμυ
φαρμακευτικη
υποκρισια
##χθεντων
αποκαλ
καταρρευση
εμποδιζει
συμμορφωνονται
βρεφοκομων
##ωσαν
##ga
##por
##ποιια
εξουσιοδοτημενο
επικαιροποιηση
κουλ
αθλητων
χορηγουμε
χημικου
φωτη
παραδοσεις
χιλιοις
##985
αμυρας
αλβανιας
συνυπαρ
ενδοκοινο
1137
χιλιες
μιλησαν
##omm
ηρα
υποτροφιων
tel
κινε
επιδιωκεται
9000
εγει
παλαιος
εκρινε
κομβ
παραδοθει
ευαισθητοποιηση
αντικαταστασεως
ερασιτεχν
ιθ
εταιροι
φυλλων
μανωλης
πληθωρισμου
siemens
υπερημε
συνολικες
αθλητες
αξιωματικου
κινητικοτητα
εξειδικευμενες
πεπονης
##σθαι
6022
##χωρας
λυκο
##παραγωγων
##ction
εφαρμοστε
κοσσυφο
ψαρια
ουρου
μερικοι
485
αταλαν
στρι
##τατου
1266
αλλοιω
πηνακα
οντο
629
επιβεβλη
ασχετα
πολακης
εισαγγελιας
παιχνιδιων
##βαιας
##νταμ
ανατολη
πολιτιστικα
προσδοκιες
ανατολικου
επιταγων
κυλ
κατασκευαζονται
προωθησει
ελαφρυν
619
συγκεντρωσεις
εξηγηση
αφιερω
δυγ
πολυτι
ελενα
αδαμ
υπαιτιοτητα
εστειλε
fa
καταφερει
θαμ
κατευθυνει
φορτωσης
απαλλαγων
βορειοδυτικα
κρινουν
αβραμοπουλος
λειτουργους
σκεφθει
ταμειακης
ανησυχει
αναμφιβ
πακισταν
συστεγα
σεων
##μονια
822
##τουλη
γιαννος
ολοκληρωθουν
φθηνο
jar
παραιτηθει
βαθμων
658
479
ανθυγιει
πρεσβεια
µα
##οπως
λεωφ
επιτυχοντων
κορωνο
συγχρονα
αυγε
προσεκτικα
παρεμβαινει
διακρισεων
διαβεβαιωσω
συζητησαμε
τουλαχιστο
applic
αποπερατωση
κριθ
κατρου
πτολεμαιδας
καραγιαννη
παραπλη
καθιερωσης
ακαρ
3883
##βαλα
##roso
##ονιας
433
πλυν
καθορισθηκε
632
αναδασωτεες
δεξιοτητες
##ml
μεταπολι
28α
κινητοποιηση
διοχε
διακοσμη
διδασκοντων
περιοριζει
διακοπτεται
αποξη
αναπτυξιακες
παρανομως
αποστολες
επιβεβαιωνει
υορ
ασβε
ομβ
##τετα
πε03
προβλεψεων
εγχειριδιο
ιv
ευχαριστη
##πλασιο
εφοδιασμος
9ο
369
612
υπεχουν
αλεξανδρουπολη
μειοψηφιας
βγουν
στιγμες
φορτ
τυπικο
προσανατολισμο
639
οινου
κομβου
ταχυτερο
γηπεδων
θεμελιωδη
διπλ
τιμολογησης
προοδευτικη
νοτιοανατολικα
τηλεοπτικων
εδωσα
επιβεβαιωση
αντινομαρχ
αντανακλα
one
αιρετα
αλου
εξεταστει
υπαγορευ
##ive
φακελοι
person
##μετρου
αποφασιζουν
προσωπικοτητα
χαρακτηριστει
##ωτικης
##ree
εμμ
φουρ
επιδιδ
ολοκληρα
καη
1432
αυτοκινητοδρομου
αμισ
αυτοστεγαση
απλης
πρατ
προγραμματικων
προαναφερομενες
δασμος
αυστρα
εξαρτηματων
3861
eurostat
πρεσβειας
διαδραματισ
αθα
μετακινουμενων
##ets
##ονοτι
τηρουμενα
τραπεζι
φορολογουμενων
λιμνο
στεγ
##ρειο
κορακα
υπεβληθη
χαλβα
νομοθετουμε
##ξιωση
3698
ολπ
management
##ομα
ενταλματος
βιτσας
αντισυνταγματα
αμοιβαιων
σκευασ
##ato
ιρλανδιας
φρε
##ha
εσοδο
διαθεσεως
λυκεια
διαδρομης
foll
εe
κατανοητο
προκαθορισ
παρασκευας
χρυσοστο
##οδωρου
αρχαιολογιας
εγκαιρης
##ιαδης
διασκ
διογκ
προσφυγ
ext
αμπελοκη
δακοκτονιας
##γαμε
ευημερια
επιχορηγησεων
ανακτηση
464
##λετες
##ουνη
αναγνωρισθουν
1766
θυσια
ακαθαρ
εναμιση
##σημων
1930
αντιληψεις
κληρωσης
εποχιακων
αποζη
συνορια
απαγορευει
444
μενε
μιλτιαδη
συγχαρητηρια
##θας
##ισμενη
ξεκινησουμε
##ληφθηκε
αλκοολ
δεξιοτητων
##τουμενο
ποσοστων
τακτοποιησης
καραμα
μολονοτι
οικογενειακο
910
ζο
##ous
πε5
ισοτιμια
cooperation
ευρυθμης
κανονιστικη
ειδικευση
εμπραγματων
πλ
##ιμη
##pa
δνε
παραταξης
εφαρμοσουμε
##ρακος
οπαπ
ενοτητος
ροδος
##σθηκε
λειτουργησε
eot
πηλ
μισθωτους
υλικοτεχνικη
ολογραφ
σιο
προκοπ
ισου
οφειλετες
##δοθη
πλαισιων
επικυρωμενο
κρατηση
##133
παραπεμπει
πτυχιουχος
γνωστικου
##iod
υπερασπιση
accordance
προυφ
σοβαρων
καββα
##ευει
απαξιω
πλανητη
προσγει
ενασ
συμβαλουν
αμοιβαιου
αγρονο
##ξουαλ
επικαλειται
χατζημι
παικ
control
767
##ττας
διατε
##λιακος
ολογραφως
περασμενο
εκτελεστικο
παγιας
προσωρινου
αθεμι
μονιμοποιειται
iso
μπασιακος
##ινικο
τελωνειων
##τζος
προοιμιου
1249
ψηφισατε
διατηρησει
φιλοσοφιας
νυχτερινη
##χρονη
πενταμελες
αικ
##ονης
αυγων
μοριων
κορυφ
μαθητειας
##σμενος
παρατυπ
υπερισ
παιδικες
αναλογων
απορρητο
##ευουν
2238
αστυνομικους
ομιλητης
λιμενες
μυρ
παγιο
εκκλησιαστικης
συγκροτημα
ακουσω
ριου
χοπ
ενισχυσεως
βιοπο
αγρονομων
507
εισηγητικης
διενεργουν
χαλκη
καφε
αξιοπο
κομβο
συμβολαιογραφων
διοικουσας
ευκολη
##απαλλα
784
συνεταιρισμοι
καρατζαφερης
εφημεριδος
ουρουγουα
##154
συμπληρωνουμε
εργοδοτης
επιλεξιμοτητας
##χομενης
##πανη
ροκοφυλλος
σταθμισ
εξαιρεσης
χωρικης
τροφ
εξαρτημενη
εκφραζουν
χαμηλοτερο
καλυμμενες
συναλλαγη
αλμυρου
υπογραμμισω
χαρικλεια
αποδωσει
βαμβακος
ταμειακη
##καιων
675
αναπτυξιακα
transport
επιτρεψουν
ηρακλης
δημοσιονομικα
εθνος
φαμε
##σονται
εισαγομενων
απολογιστικων
##ληγου
παραγο
##χνης
##αιον
επιλαμβανεται
434
γκρε
γδδυ
##λαος
παπαχρισ
βοοειδη
βαθμον
επιστρεφεται
προσωρινο
επαρχιακη
##ιι
##σιμοτητας
αντικαθιστα
σκανδαλα
ενδεικνυται
πολυτεχνικης
παρακολουθησει
φτασαμε
ανακατασκευης
δικονομ
##τερικων
##φτη
μηχανογραφικων
τοιχοκολ
505
υπερισχυ
απορριμμα
##ταμ
βρεθηκε
714
361
σεβασμος
ανισοτητες
τµηµα
εκδοτη
επιχειρηματολογια
επιδιωκουν
εφευ
περιοριζονται
##δεξα
κατεπειγου
αμαλιαδας
838
λεβη
##ονια
##φερω
αξιολογητων
##στασιων
συγκροτη
##ιζομαστε
φωτεινης
παπαληγου
αποθεματικο
αιφνιδια
ταυτοχρον
παθησεις
##συγκ
##λαβατε
403
γεωγραφικων
##δοι
μεγιστου
ιατροι
διευκολυνσης
σεξουαλ
διη
μετσοβιου
τζαβαρας
ασφαλιστικους
διπλωματικης
επιτρεπομενης
αντιπροσωπος
##χτυ
τουτοις
υψηλοτερο
22α
τιμωρουνται
επιθυμουμε
μεγαρου
ισχυριζεται
448
διεκο
οδοντιατρικης
πανιδας
περιορισμενη
επικαιρης
πλαταν
αεροπορικες
χρηματοδοτειται
κωδικοποιησης
τεταρτης
σισμα
##λιον
754
nor
χοιρο
καταργειτε
αποδοτικο
επιχειρηματικης
προκαταρκτικη
718
ουκρανια
μονιμοποιηση
διαμορφωθηκε
ροβ
##uss
απαντατε
πται
οριζομενο
παρεχομενες
παλαιοκρασσας
##λυση
καματερου
τομο
επιχ
ευνοικο
2960
λογιστικος
πηρα
##βανη
κτηματολογια
##τσιος
αντιπροσωπους
διαμετρου
λεπτομερη
ογδο
κατωτερη
εκτυπωση
νομοπαρασκευασ
σπυριδωνας
εντυπωσεις
εξακοσια
βιοχη
ασθενειες
απρακτου
σουπερ
1828
##ληψιες
προαναφερομενης
αλλογενων
ιεραρχη
χυτα
δαφνης
προχωρησετε
ακολουθησουν
φαινομενου
present
839
μομ
τριτεκ
διασωση
πεμπτης
βικτω
αντλιο
παγκοσμι
επιπτωση
διερχεται
##λαδελ
μεταξα
ποδοσφαιρου
##τσιο
##σμοποιη
δοκιμου
φασεις
θεωρημενα
λυνει
cn
ανθυπολοχα
στεγαστικων
εγχωρια
πανελλαδ
##mar
δεκαεν
ζησει
λιγοτερες
χρωματισ
επιπροσθετως
1832
λογιστικες
ακουγονται
htt
##τεου
ανεση
υπηρεσιακους
απατη
επικρατουν
κωνσταντινιδης
κατεθεσα
##006
εμπεδ
εκτελεστικου
παραληπ
καρκινο
αποτυχ
εξαετους
ελεγκτης
σταμου
συναψει
sk
##ροκομ
επαρχιακης
σηματοδο
##γονων
ημ
##ορρο
εικοσιτε
ραδιενεργ
θεομη
συναφους
σχεδιαση
συγγραφε
επεβαλε
μουσικου
917
ηλιουπολης
χειριζεται
πετρι
χρηματοπιστωτικης
τρικα
οργανισ
773
πολυμερων
##ling
εγκληματικοτητας
##κτικοι
μαθηση
προτου
επιφορ
β2΄
στουρνα
τσαν
μειωθηκε
παραβολο
562
εκαστον
συμμετεχοντων
αφαιρειται
κυθηρων
ερωτων
4250
εγγειοβελτιωτικων
καζα
αγνοη
ανωτερος
##καλη
ανταγωνιστικες
απορριμματο
προσχημα
μουσε
υπεκα
2725
αγωνας
γκελεσταθης
##τεχνια
μελλοντικα
παραδοσιακα
φυγουν
φθανουν
προγενεστε
tο
αναβαθμ
κατατ
αντλη
sil
##φυσ
ασφαλτο
φραγ
μαγγ
προσαρμογες
follow
830
παρακολουθουμε
702
μαθει
απαλλοτριω
law
επιμενουμε
σισμανο
σταθμευση
πρωτοκολλων
ταλιαδουρος
##σματων
εξασφαλισουμε
διευρυνσης
χρονιων
διαπιστωσεις
νωπα
αντιλαμβανεται
ωδειο
##ποδηλα
περιεχεται
ικανοποιητικο
ικ
αδτ
τυχαια
εκτελεσει
αυξηθηκαν
βοσκοτοπων
τελικους
vol
##τηκαμε
ιθακης
πενταετιας
αναδοχων
πλατφορ
κλινες
εκλεγεται
ενημεροτητας
φτασουμε
μπηκαν
692
εντασης
τρικκαιων
δημοσκοπη
##134
καθαριστων
πυκνο
ποσοστια
πυροσβεστικης
φιλαδελ
επαρχιακο
ισαριθ
ατζεντα
##ee
ειδικωτερα
απομει
##τονιας
τοξικο
πε6
αντιπροσωπου
501
498
ακουτε
ενεργειακο
μεθοδολογιας
πεποιθηση
790
##ιαζει
προτυπου
συνολικων
administr
στοιχη
ερευνητικες
εικονας
pa
αγκυρο
καταρτιζονται
χειριστες
##τησετε
μεσαια
ορκωμοσιας
μοτοποδηλα
669
μπελ
εξισορρο
γαιων
χειροτερα
διαμαντω
χαιδαριου
##βρα
τηρουμενων
διαθετουμε
ενθαρρυνση
ενοχλει
εποικ
ονοματι
δημοσιευσεις
επληγησαν
##γλειο
##ρευσης
αρχαιολογικο
δωρεων
διλη
υλοποιησει
απολογισμους
υπογραμμισ
επιστρεφονται
##γγειλε
δασολογου
υποχρεωτικων
σκοπιμοτητες
διαρθρωνεται
αφγανισταν
χρονιας
##βαλλονται
σταθερες
αποσπασεις
provid
memb
##ανακ
υε1
επιδιωξεις
πλημμελη
λατομειων
exch
κρυστα
σπουδαιο
προσφευ
οδοστρω
κουβεντια
ακρως
δικαστικους
εγκεκριμενα
into
##ility
εκμισθω
βοηθηματος
παιγνιων
744
ξεκαθαρη
φθασουμε
υψηλων
καινουρια
συμψηφισμο
κοχ
454
βορειοανατολικα
αναφερεστε
##ρουμενου
γαλλιας
γνωμοδοτικη
προανε
γυρου
eκ
out
αστ
νεστο
παρεμβασεως
##αιους
##φερουσα
κινητες
εκπροσωπησης
φ2
πρεβεζης
ξεκιναει
ανευθυν
βαρυτητα
αναμφιβολα
παροντες
κατασκευα
##ham
ενυποθηκων
ευθυνονται
λαφαζανη
inst
εξοφληθει
πεπρα
οξυν
συγκριτικα
εμπορευματοκιβω
μεταμορφωσης
λυπου
δημιουργειτε
παπαγεωργοπουλος
χειροτερη
sign
βαγγελ
b΄
συμμεριζ
482
οροφους
σφυριου
εδαφικη
αιτιολογηση
668
535
επιδημιο
διαδικαστικου
δανεισμου
προσπαθησουμε
##004
ραφηνας
περιοριστει
διαχειριστικων
κας
συγκαλυ
θαλαμη
ψηφιζουν
διασωσης
##λετη
δημιουργικης
##284
δινω
εκλεγουν
αv
προαναφερθεισες
καλλιτεχνικης
διοικητικοι
προεδρους
διδακτικες
ταχυδρομικου
##μισθιων
##bank
χαλεπ
επιχειρησιακη
μεταναστευτικης
10ο
κουσου
##525
##γαγε
προτασει
##λοχιας
ανικανοτητα
χημικη
##att
##μακη
περια
παρασυ
μεριδιου
διαχειριστων
μετοχο
βοηθοι
δ12α
αυτοδυνα
αναπτυσσει
αθλητικος
υποκα
υπηρεσιαν
##ente
αλιευτικα
states
βυθ
σταθερης
εγγεγραμμενων
χειριστης
πλησια
εξαμηνια
γαμων
σφαγη
υβ
##τεστα
διατμη
μισθοι
σταματησουν
ανακοινω
κρεατων
644
##ωδη
##τολι
##ριζε
πληροφορει
παραβιασεις
χρηζουν
περιοριστικα
supp
τραγικο
der
##οκινη
εγγεγραμμενοι
##cial
πλωτα
2880
εξαμηνα
συζητουμενο
χανει
##mes
προτεινουν
χμ
καταγεγραμ
στοιχημα
ωφελι
αμοιβαιας
ανωμερι
rece
καναδα
ικανος
εγγυητικης
τακτα
##τοπουλο
##ονες
##ιδων
##γκασ
κοινοβουλευτικοι
##σιμους
εξοπλιστικα
πενταμελους
επιστρεψει
7ου
##out
##δυν
πληροφορικη
ψηφισουν
##ζωο
##πολ
1078
διαδπ
1919
μελλοντικες
##κτης
συμμαχια
ανηλικης
##μεας
επιτακτικη
τασεις
ιταλιας
768
ww
1032
απλοποιηση
νοµο
σακχα
μηχανοργανωσης
υποδεχεται
ετεπ
δευτερας
##τζακη
επιβιω
##ique
ειλικρινεια
φαληρου
sl
##ραλ
δημας
ελβετια
επακολου
απευθυνομαι
υμη
πρωτοπο
477
κια
τασης
εντυπης
σχεδιασης
επανελθει
τρικαλα
αδιαθε
αμφισβητησεων
προφη
συνδρα
συμφωνηθει
αναπτυσσονται
πυρκαγιων
δικαια
ολω
δασκαλου
σχεδιαστων
##ιζομενο
1735
ινες
κουβελη
##ole
δεσμευθει
διενεργηθει
διαδηλω
τε4
φοε
εμπροθεσμη
φερεγγυ
478
προυφιστα
##ρικοι
μετεγκατασταση
βουλευτικες
καταλαβουν
λιακοπουλος
αρεοπα
ημερολογιακο
pet
ωρω
ακολουθου
λαρ
δημοσιευσεων
μεσογειου
αποχετευση
##ενια
βιολογικου
ξαναλε
time
χαρτογραφη
qui
εκπτωσης
στελνει
υπογραφες
##κοπια
τριμηνια
##γραφιων
##κυρια
προσκλησεων
ανασφαλεια
α7
γνωμες
##πλου
δυσμενων
μετοχους
πενταετους
ιατρικες
ξανθη
δοι
οικη
εγγυητικων
δελτα
instit
##τουλα
3027
##era
λαχανικο
αντιπροσωπο
μπορεσε
τυπικη
μαχαι
εξαπα
κρισιμες
##φικ
ελλειμματων
υδατοκαλλιεργειας
διαστρε
αποκλειστικο
βοηθαει
##γραψαν
καθεμια
συγκροτουμε
θεοτο
παριστανται
##225
1485
υποδοχη
προπτυχια
##τρεις
670
προστατευσουμε
##θησης
υφος
ελαχιστης
αργολιδος
ανθρωπιστικων
αυστηρη
διαφυ
ραδιοτηλεορασης
συναπτει
710
κβ
χρησιμη
προσπαθησε
συχνοτητων
προασπιση
λιου
συνεννοησης
cal
χρειαζοταν
##ματι
ευτυχια
βελοπουλος
γυναικο
##ουρ
##ταρη
ετεθη
πανου
ομοσπονδιες
καταφεραμε
αντικατασταθουν
συζητηθηκε
κατσωτης
συμπεριληφθουν
πορτογαλιας
ιχθυων
υπηκοων
συγκαταθεση
θεωρητικη
583
εγκαταλειψη
αμελεια
γεωγραφικης
937
κωνστα
πτωχευσης
##σεθνικης
##φαλειας
σωστες
εξαθ
κλεινουν
επιμελητηρια
παραβολων
ριχν
διευθυνει
τελειωσουμε
ρευστοτητα
645
ιδαν
βασιλ
συσκευης
743
##κιμα
εισπραξει
επισημανει
ανακληθει
##στατο
παιδικο
συμπληρωνουν
μειωνει
συγκρουσεις
ληξιαρχειου
φεστι
αβεε
νασιω
##ονομων
προακτεος
σκανδαλιδης
διαπλοκη
εφαρμοσθει
νομοτεχνικη
ψηφισετε
διαχειριζονται
καλυψουμε
φιλοι
##129
814
παραμικ
##187
##γµα
##γεννη
##γαγει
μεσσηνης
αδιεξοδα
αφηνετε
αξιοποιησουμε
αγε
λαι
επιτοκιων
καρακωστα
δυτικο
αλεξης
729
κολα
τυποι
διπλωματικη
4405
εκχερσωθηκε
συσκεψη
συµβουλιου
##τροπες
tele
935
ομιλιες
ψυχαγωγικων
πυρασ
μαντα
##φθη
ευκλει
αλιευτικες
2129
αστυνομικος
0808
enter
ισοτιμου
παραδιδεται
##131
κρινουμε
##μηνιας
αιρετοι
προκατο
χουλια
παρατετα
τοποθετηθουν
χρησιμοποιησε
za
παροτι
περιγραφες
γερον
θαλασσιο
ιταλικη
θερμοκηπιου
απαντησεων
##ξειδιου
ελεγκτικης
επιθεσεις
4223
##φλε
εμπροσ
γραμμ
εξασφαλισουν
συνεταιριστικες
##μετρους
οσκ
ερει
συνερχεται
προελευση
period
εφαρμοζομενων
504
χριστουγεννων
ρομ
636
483
756
ονοματολογιας
τεχνογνωσια
πολεοδομηση
##ρθ
##σκευων
σιτηρα
διορθωθηκε
επικαλου
αναπληρωματικο
σιδηροδρομων
πε04
δ4
μεταδοση
σιταρι
πολεοδομικα
προσεφερε
κατοχο
αφησε
επεκτασεις
κανονικες
1440
τζω
διστα
υβρι
##ines
αλλοιωση
συνολα
παλαιας
βιβλιαριων
εξαγγελιες
##003
παιξει
##µενης
497
νταμπινγκ
ανατροπη
πρωτοφαν
προβλεψει
##996
αρχισουν
επιτηδ
καταγραφεται
εκφρασεις
473
υπαιθρο
περιστατικο
διαβιβαζεται
υποχρεωμενη
##κεια
χρηματοοικονομικη
ανθοπουλος
δυγ3
##στουμε
##τερωθεν
ποθεν
στοιχειωδη
011
καταστησει
συνδικα
ποδια
λιβερ
ραγκου
σκρε
##οντο
##527
ασια
ιδεων
##γενους
ληξιπροθεσμων
διδυμοτειχου
##μπερια
διπλης
ληξιαρχικα
than
μπενος
πνευματικη
ανασκα
μιχ
direct
mer
##ex
διανομαρχιακου
##σεν
ανακαμψη
φοιβος
αριδα
##pec
##πονο
συνεβ
θεσουμε
δωματιων
ελισσα
##λαδες
απογραφων
502
αναισθησιο
eπι
##ελλης
οπτικη
προσκλησεις
3220
πρωτοβαθ
##als
εντελλο
συσκευασιες
##χτει
##καριας
623
σπυρο
μηταρακης
πρωινη
χαλεπιου
πενθημε
κυπαρισσιας
συντυ
παταξη
συνελευσεως
##μενε
διαμαρτυρονται
##στειτε
890
ε3
εκατερωθεν
βιωσιμης
συνεργασιες
##ποιηθηκαν
ερευνητων
καταχωριζονται
χρηματοπιστωτικων
συμβιβασμο
υπεστησαν
αντια
μιλανε
προανεφερα
665
##λωνει
επικεντρο
επιβαρυνσης
παραμετρους
τυρνα
resol
ηλεκτρικη
νυκτερινες
απολυσεων
398
ιατρειο
γερμανικης
κτηνοτροφων
αναθεσεις
δικαιολογια
φαγητου
##σιματος
κανενος
φαρμακου
αισθανομαι
αφροδιτη
σπευ
ακολουθησε
δημοσιονομικες
συνταγματικο
συμπραξη
χρονον
εγκληματων
καρε
προτιμησης
απογοητευ
cam
αργυριου
δεκατεσσερις
bel
##ουμενα
ελαι
υπουργοιο
ελισσαβετ
##λοτητας
φυλακισης
πρωταρχ
αλιευματα
κατασκευαστης
επειγοντων
μουστα
φοροαπαλλα
γονεας
τεκμηριωμενη
προκη
μεριµνα
διαδοχικες
φεστιβαλ
στοιχος
αντιπροσωπει
territ
φοβο
υποκρι
τραγω
επενδυσεως
ωφελεια
##βουργ
1457
κουτρου
επαρκους
σπηλιωτοπουλος
##σταθ
##γμενου
συμφωνοι
προηλθε
εξουσιοδοτειται
μεριμνουν
##λλος
παγο
βαρου
συμπεριφορες
σισμανογλειο
παλη
1500
κομματικες
φθασαμε
λαβαμε
ανανεωνεται
γγε
##τελης
στεγαστικη
υψηλες
παραπεμπονται
κοπ
ραχη
θαλασσ
συνδρομητες
##γοβ
##325
κλεισουν
εγκυκλιος
καινουριο
##τονα
τυχει
##ισθει
487
ib
451
##συμφωνα
##ζονταν
καθηγητριας
επικοινωνιες
##δονας
θαλαμου
##285
##280
κρισεως
κεφαλι
ενδιαφερονται
προεδρικων
2812
επανασυ
αθλητικα
πενταετη
εκτοξ
βουτυρου
οροφος
service
αλαβ
ανεπαρκεια
πλησιεστε
1622
παραπτωματα
αξιοκρατια
τριγωνομετρικο
##μεα
απορρεει
αυτοματισμου
##χωρουν
##ουντων
##μενην
παπουλιας
ακριβο
ταδε
αποστολο
υπολογιζει
κοινωφελεις
παλευ
##ρκος
##ides
εξαρτημενης
ανακυπτουν
αμπελοκηπων
θμια
τριμελη
μακρας
σπουδα
ξανθος
tar
##δo
##sc
λογικες
##ρμου
αραβανης
##ull
καρασμανης
εκφρασης
καυσα
τραγικη
διευθυνοντα
παλαιστιν
141823
ευρεσιτεχνιας
##µιας
##γγα
δασμο
βαλτε
##λωνουν
συγκληση
##ειδες
χορηγησει
##τροποποιη
υππε
τεχνες
μισα
εκθεσεως
##τπ
τοπικους
εντοπισμο
καλυμνου
ομων
εμβαδο
##πλανα
αμειβο
ακεραιο
ερζε
απορριπτεται
αεροσκαφος
ae
ωρια
##δημος
1080
κουρης
442
##καυ
δοξα
παπαθεοδωρου
συνυπ
πε2
pas
καταληξουμε
βελτιωσουμε
βουλιαγμενης
ανεξαρτησιας
εμπε
2200
1907
εσωτερικος
πληρωματα
παραγωγικο
λεπτομερεις
πιν
μιλωντας
##τροφιας
περικλη
βεβαιωτικων
προπληρωμης
εισαγωγεις
προμηθευτης
##ψυχια
εκρηκτικων
περιβλη
##arm
νομον
πληροτητας
φαξ
υδατικων
χρησιμοποιηθηκαν
εκτεινεται
μεγαλοι
βελτιωσει
κτηνοτροφους
κατανοω
αναιρε
μαλε
λογικης
ηλεκτρονικες
αρχιεπισ
πσεα
##πραγμα
tee
νομισματικο
##υχτα
1921
σκαραμα
λιπασματα
κυριαρχιας
εφτασε
##159
επιβληθηκε
##ραξε
##τουμενου
παπαη
μεσοπροθεσμων
3599
περικλειεται
##πτουμε
##κιδη
πραγματοποιησε
εκτελεστει
σουηδιας
απαξιωση
φορτιων
αναφερουμε
φιλολογων
παρεμβει
ορκωμοσια
τδ
##δικοι
φαρμακειων
ειδικευμενου
γνησιου
##μαγνη
γνωστος
ενδιαφερεται
συγχρονου
εννοουμε
συνδυασμος
δημοσθενη
περιβαλλοντα
διακατεχο
##πλοιας
προχωρει
δεκαετους
σχολικα
χημειου
θεμελιων
επιμενετε
##τσω
εκφραζονται
##ition
υποβρυ
βασαν
τες
2084
΄αρθρ
γενομενη
πραξει
διδακτικα
εναλλακτικα
αποφοιτους
ευφ
προηγουμενους
674
διδακτηριων
ερζεγοβ
dr
##κηση
##ποιησουμε
συναπτονται
ρωσιας
oblig
ανικανος
ολυμπιας
κραν
ορχη
371
493
οδικη
##ψτε
1918
προσφερονται
δημοκρατικων
3223
δημητρας
τυνη
##ρηγα
διαβιβασης
δραπετσων
αξιοποιει
εσχες
ημερησιως
αποδειχθηκε
αναπτυσσομενες
7η
bu
διαρκεις
ερευνητικη
παπαληγουρας
διοικητικους
##τμημα
γενιες
εποχες
απλες
δικος
##289
σταματιου
καρδιτσα
ικαριας
επελθει
χολα
σπιρτζης
αγγελικης
κινησεως
επαφες
διατυπωσει
aff
πολωνιας
ολυμπου
καταργησεως
##istry
πληρωνουμε
περιμενετε
682
αναλωσιμα
σεισμοπληκτων
πινακο
αλιμου
παγκ
αποσυρθει
βερυ
καλαφατης
αγγελα
επισυναπτο
1484
αμερο
σιγουρο
##ετες
##λωνεται
##ολι
condi
met
θεσατε
συνοδευομενη
διακομματικη
περηφαν
##γνι
αναληψεως
περασμενη
##ital
ποινικα
www
παναγο
δημοπρατηση
φοβε
τεκμηριο
503
ακολουθωντας
##σσης
##νωντας
930
##241
δημοσιοποιηση
βραζι
εξειδικευσης
εγκαλ
κατσε
ρωτω
μαστι
κτηματολογικων
##ματη
αντιφα
αγανακ
##ρτη
##μμενο
ρεθυμνο
769
απολλων
συνταξιοδοτικο
χουν
ενωσεως
υπευθυνες
αριστοτελη
ανακαμψης
λεοντα
κολλε
μαρκοπουλος
διαθεσιμη
ψευδ
##τιμησης
##τσιδης
απατης
τουριστικο
ταμειακων
mw
##θεσιν
part
##fici
θεοφιλος
##ωματα
καθοριστικης
υλοποιηθουν
αποτεφ
εννοειτε
παρασκευασματα
αρχαιοτερος
παρτι
θεματοφυλα
ιδιαιτερου
επισημης
πιθανες
υποθετω
μεσον
πυθ
μυκονου
οξε
κορινθιων
νησιου
εισαγωγικων
ομοιομορ
guarant
##στερνταμ
βερελης
8η
εγκαιν
αποκλισεων
μερισμα
##ονων
απερ
οαεε
ισοζυ
εξισορροπη
κατηγοριο
ορκωτων
αγκυροβολ
βρεφονηπιακοι
##161
αποφασιστικοτητα
546
τεμαχιου
11ο
τακτικος
##φυλακας
δειγματοληψια
αδεσμοποιη
721
διχασ
τροποποιου
νομαρχιων
λευκης
μπεκι
απων
μεγαλυτερου
αριθμησης
κρεβα
##fin
μεσαν
##160
##oυργ
συμβολαιων
κυριαρχο
αναλυεται
ανωνυμο
αμστερνταμ
ευθυγραμ
##θειων
ανεξαρτητου
βρισκουν
585
επιρροη
κατωτατο
θυγατρικων
εικαστικων
αποψι
σταματης
αποκτηθει
παρολο
πρωτευουσα
##ζιδης
##ame
2160
εξαγονται
ιονιο
συνομοσπονδιας
αυτοδιοικητικων
επιχειρηματικο
αποτελουνται
λιμεναρχη
ταινιων
δημητρη
ιεραρχια
καλυβιων
καραν
λιβυ
ενστο
συστατικων
χρηματοοικονομικων
proced
επιλεκ
υψομετρ
καρυστου
εφαρμοστηκε
διευρυ
διαμαρτυρια
##γονο
αντικαρκ
οριοθετη
αρνηθει
φανηκε
παραπεμπεται
θ΄
##τελη
επιμη
αλκ
βεζ
##κεντ
κουβα
ημερησιου
ευαισθησιας
##170
πηνε
παρι
εκποιησης
τεστ
##σωτερικων
κουβεντες
λειπουν
λειτουργοι
τσεπη
εξειδικευμενων
αφοι
##ισμενα
συνεχισης
αρχισουμε
µπο
##τηκατε
δεκατρεις
τυπικων
χθεσινη
περιλαμβανομενης
μικροτερες
φερομενο
υποδιαιρε
συνοδ
επαναληπ
rad
φωτα
ασκησεων
υπολογιστη
committee
αγρονομειο
καιρικες
λαδι
περσι
διαμενουν
ρυπων
διαχωρισμο
αντιληφ
εθνικ
leg
mas
νεφρο
αναπτυξεως
διετη
καλουμαστε
##vη
προσα
ισλα
νομαρχιες
συνεργασιων
ha
##μιδου
βαρων
ταμιευτηριου
κυρωθει
##γενων
isin
εφυγε
πιπ
γαλατσιου
ετησιος
συλληψη
1037
γρηγορο
αδρανων
απεριορισ
πυρετου
δνεας
αξιοποιησει
574
αμφιβολιες
μκο
εφαρμοσουν
πρωτογενους
αργοστολιου
vis
βαθμολογικη
##302
made
602
##393
θαλαμηπο
κορδελ
νομιμοποιησης
αργυρουπολης
περιφημο
δουλειες
ele
ανυπ
ευρωβουλευ
πληρωμα
##ita
δεσμευτει
488
ευρυτερα
ρητως
τευχη
ακυρωτικης
εφαρµογη
πτησεις
απελευθερωσης
κατανοησης
##βαλει
ομιλους
γυναικ
force
βγαζει
ακραια
αναγνωστοπουλου
σωκρατη
2817
καταργησει
σωστης
##326
κλιμακιων
απαντησουμε
αντασφαλισ
αντικατεστα
καταναλωτης
μοναχα
παναγιωτας
πεζων
φιλαδελφειας
##ρινους
καποιας
κατωτερα
επισημαι
επιβλεπον
sw
αποπειρα
αμεσου
##321
σκαραμαγκα
νυ
αγρι
##δρομη
διορισμους
βιομηχανικα
προσεγγισεις
ενθαρρυνουν
συμμορφωνεται
860
γειτονα
ανδρεουλακος
ετερων
##τεργα
δικασι
ρεγκου
επιλεξιμων
κυρωνονται
ανακοινωσε
αφορων
ενδεχομενα
απολογια
τερματισμου
καταργουμε
διπλη
489
κανονιστικου
τεχνολογικα
organiz
υπαλληλικος
##197
ψηφιο
απολαυ
τηλεπικοινωνιες
υποστρατηγου
2130
##γιαννα
748
##θεσεως
γνωμοδοτησεων
ζωικων
678
##δονη
δυσκολευ
μεταβιβαζουμε
##γρι
##τορα
##σιμος
3°
παρασταση
σπαρτη
αθεωρητα
χερσονησου
##ding
μεταθεσης
μεθα
φτανουν
αποκορυ
##αλι
##χακη
3130
ορισθηκε
κοινοπραξια
##φηκαν
αναγνωριζουν
κωδικοποιηθηκε
μειωσουμε
αιβαλ
30η
747
περιβοη
διελευση
577
824
βενιζελο
##δαδ
εθνους
δοκιμοι
γρηγορια
διαχειριστες
διαφημισεων
ομβριων
μεσανυχτα
884
##bo
εδραι
ακαδημαικα
νοτιοανατο
παρακαμψης
παρευρισ
ευκαιριας
μακροπροθεσμα
##δην
πρατηρια
αγορασει
ζητηθεισα
been
ετοιμη
##167
απορροφησης
διοικητριας
παπαρηγα
573
συνεβησαν
4186
ταυτιζεται
951
##555
fe
μισθολογικων
ευρωζωνη
988
den
παχ
μονοκατοικια
περιορισει
αντει
ασκληπι
τριτα
περιεκτικοτητας
συγκαλει
παλιννοστουντων
725
κλιση
επανασταση
φευγουν
παγκοσμιως
επιτελε
ακρη
1339
λυθουν
mail
τσιτουριδης
λαχειων
576
##δερου
000€
ορυκτων
αλκοολου
πλειστηριασμο
ταλαν
ναυσι
##ureau
##ερχομαι
ανακτη
απεδει
βαζουν
δεξ
μικτης
681
επιβεβαιωνεται
περιγραφουν
##κελλα
λοβερδο
χρηματοδοτικα
μαυροβουν
πληθωρισμος
ζαρ
δωρεας
προκηρυχθει
δανεισμο
συζητησεως
##ece
ταχυτερη
ναυτιλιακης
ιερ
ακουν
722
περασουμε
θεοδωρων
##λαµβαν
λαους
κυκλωμα
επιτηδευμα
αποφυγουμε
κλο
προεπι
δικαστικα
κληθει
αποδειξεων
σεβομαι
6052
αποδεσμευ
εμεινε
εργασιακο
ορεστιαδας
γεφυρας
προσελκυση
παλιου
ανεμο
αποφασιστικα
##ivers
##τυχης
ακραι
διαρθρωσης
ευδοκιμη
οικοδομηση
δωρη
δηλωσεως
αξονων
υποκαταστηματα
αληθειας
εκκλησιαστικου
επανεξετασης
στρατακης
εκαστης
αποσυρετε
αμφισσας
διαφημισεις
διατηρηθηκε
κατηγορειτε
αναφερομενος
θεσμικες
κοστολογηση
##βυ
κινητικοτητας
ταφης
αλεξανδρας
λιανικη
733
καμπου
καθαριστριες
barroso
διατηρουμενες
αργυρο
επιτρεπομενες
υιοθετησει
ετροποποιη
δε2
##ινωντας
απολυτηριου
##ρακια
θεωρητικα
τετραετια
κοινος
531
εας
##νατιδου
θεσσαλια
##φιλ
κιλο
μανδρας
πεπει
##λαβηση
θεοφανη
##µενες
##πατ
##283
536
certificate
συμψηφισ
ευχη
δημιουργικη
κλειστου
χρηματοδοτικο
αμμοληψιας
ξενοδοχειακες
βουλγαρακης
##ισουν
περιορισμενο
προχωραμε
σαλαγκου
επεμβασεων
επιφορτισ
συμμετοχων
συγκοινωνια
ξεχνατε
προηγουμενος
προωθουνται
θαλασσιες
εκκρεμοτητες
αδυνατον
ανθυποπλοια
προβλεποταν
καταλαβαινει
738
οδε
κεντρικα
γυς
εκπομπη
εξειδικευμενο
ιμπερια
##τπε
##τεθη
ακτιν
##903
ουρουγουαης
##στηρα
2647
##τζια
μεταφρασεις
##ουσαν
φωτια
##μιδη
λιτοτητας
αναγνωρισμενων
εξατομ
ιστορικης
ομιλητη
ζαφειροπουλος
ανθη
σοφο
0512
επιβαρυνσεων
##στασια
εγκλωβ
ηλεκτρολογικων
τροχαιας
λατιν
νομοθετει
ξενους
διδαδ
αναφερομαστε
αντεισα
καλαμπακας
##ψιμο
τεβε
ισες
προγραμματικης
##λοτητα
δημιουργωντας
##βασιλη
υπερημεριας
οικοδομες
θριασιο
##χαρ
form
##νοτροφ
νουμερο
υπηρετησει
3282
β5
κοβ
αντιγραφου
διευκολυνσεων
##κτου
γραφικων
##307
στερεο
εμα
1902
αρκετο
##τελειας
δοκιμαστικη
##mit
ανταλλακτικα
μεταφορεων
αποσπασης
δευτερολεπτα
εικοσιτετρα
xii
##αιοι
αξιολογησεις
492
επιχειρηματιων
καταγγελλει
μονιμοτητα
##sa
λεντακης
li
περισυλ
αναρτησης
##146
θεσπισεως
ταξινομ
μιχαλη
αντικατεστη
αντικτυπο
##ινι
υπερθε
φταινε
εκκοκκ
υποχρεου
συνεχιζονται
πληρεξουσιο
vα
εψηφισ
προστατευεται
νοικοκυριων
γνωμην
κεφαλαιον
κλεισουμε
μισθωματων
πριμοδοτηση
προκαλουνται
γυθει
should
καλαντζα
1936
βαθμοι
κεραμε
ιερων
ζωντων
αλκοολης
ανθυπασπιστων
ευρυζωνικης
απαγορευσεις
ηλεκτρονικος
642
εκδιδομενων
652
αντιμετωπισετε
ντος
##κτικης
##ane
##βασεις
αναδιατυπ
μειοδο
χειρουργικη
ανενεργ
παυσει
παραπλευ
επισκευασ
αεροπορικη
διυπουργικη
εφθασε
dur
ραπ
μικροτερα
πλειονο
15η
γλωσσο
τοπον
##901
επαρκει
συνεταιριστικων
προσαυξησεις
επελεξε
πυροσβεστικη
αποτυπωση
αδικαιολογητα
αναπτυχθουν
004
καρολος
διαστρεβ
πολεμος
κυβερνητικου
νομοθετης
μητροπουλος
αναξιοπισ
##δημα
##σαστε
συγγενεις
κολυμβη
αναλ
μουσου
βοριδη
εκλογικες
δημιουργησαν
βλαχου
ημερησιες
##νιων
καταβληθουν
ντι
431
plus
καταθεσεως
καθιερωνουμε
κριτικης
εξυπηρετησει
αποδιδονται
ξενογλω
παραμετρων
κερδισει
643
συνοψ
υποβαθ
οικοπεδ
επισημως
##ath
μελλοντος
αντοχη
λονδινου
ca
3794
διαχωρισμος
6α
##θυμη
χαραξης
606
##own
ανακαλεσει
##ψου
##205
##ites
εκτεθει
4280
προσι
αγριο
und
βρεφονηπιακου
φυλακιση
2ας
αναπτυξουν
πλοες
επιδειξη
καταρχην
ηπειρω
καταληκτικος
υμηττου
αζω
πεδ
ελκυ
##136
ανοικτα
νυχτερινης
ek
καθαρων
559
διεργασ
ζημι
συγκεκριμενοι
##202
αναστη
##005
συνηγορος
ταπει
εξακοσιες
προσκυνη
σκαλας
μαζικου
γενικοτερης
eu
επιμενω
rom
##μαχη
σχετικος
##ids
εισαγγελεις
εζη
κινδυνευουν
εμφια
σεισμων
μεσογειο
τριανταφυλλος
927
μνημης
mark
ετπα
επανειλημμενως
ηρακλη
##βαλλουν
rev
πνευματος
ελασσονας
μπεζας
##179
εναλλακτικης
διαπλοκης
αντιφαση
0261
597
δουλευει
direc
9392
εξοδος
νομοθετηματα
αρτεμιδος
sv
##ξων
αντιμετωπισθουν
εμπειριες
αναμφισβητητα
γαρυ
αδυνατη
κεδκε
public
ζωικου
εκεινον
φλωρινης
αειφορου
ισοδυναμα
βιολογικης
υποχρεωτικως
##327
472
φερεται
αιχμης
guarantor
##ρουσαν
λιμεναρχης
σουλτανα
αποτελεσε
εκπληξη
5351
αναμονης
ευνοη
##143
##ιδρυση
company
νοσηλεια
συμπαρασταση
limited
2685
2936
##141
##μακας
προσαρταται
συμπληρωματικο
βρηκε
κτεο
αφρικαν
προληπτικης
προχειροτητα
κατακυρωση
##γκλι
##βαρη
περιφερειασ
νομισματος
ανωμεριτης
##fa
οικιστικης
##γωγηση
αγοραστη
ικανοτητων
αριθμητικως
μεταμοσχευ
443
σκαρ
bureau
εξυπ
παρκων
τοπιου
βιομηχανικου
τηνου
##195
συναρμοδιο
προγραμματι
πανελληνιας
φωνες
παραδωσει
δαβακης
εξετασθει
προβληματισμο
ανταγωνιστικο
ακαθαρτων
συνεταιρισμος
λειτουργος
ισοψη
διακλαδ
##δαι
εμπλοκη
βασεων
αποκομιδη
φεροντα
##ερη
προσπαθησω
663
διαν
δασολογων
υποβληθεισα
##ugh
μειζονα
αντιπεριφερειαρχης
τ4
##287
στρωματων
πυρηνικης
##180
##401
υπηκοους
992
534
εξηγησει
##ταιου
βιοτεχνικων
μετατασσονται
##ταιων
διαβαθμιση
αντιπροσωπευτικες
διδακτορικο
θραυ
αντισταση
εικοσα
αιγιαλειας
λευκορω
##cil
##580
πλατυφυλλα
καμε
1001
ολοκληρης
ιπταμενου
θυμομαστε
there
επιτευξης
γνωματευσεις
γπς
ταρα
μονου
ενημερωτικο
βρεθηκαν
ασυλια
ποσοτικα
οδοντιατρων
##γιαννακη
επιτοπια
φυτικων
συλλογοι
γνωστικα
##ντας
εικοστη
ειδοποιει
προσβασιμο
εκμα
πηγης
νεοελλην
παραχωρησιου
απληρω
##μανση
παρακτια
αμπελοο
σχι
διοδιων
μανι
δασμολογικης
αερια
##ox
οιν
γιαννο
τηλεφωνικου
αρτιοτητα
##χθουμε
2619
λιμενο
πορισματος
τρεχουσας
ministry
προβαλλει
επιβατηγα
επανδ
476
εντοκα
issu
##μπος
1257
##oυv
οργανικα
τετραγωνικο
φουντου
συκεων
συναπο
κλειδι
λυπουμαι
κατσιφα
αποβ
1934
##στρας
αποφευγεται
δανειστη
φθορων
εξαγορας
##μισης
επιδιωκο
προεξ
εγτπε
στo
θιγεται
υδρογονανθρακων
##009
βασω
παθολογου
##λανδικη
ρυθμος
προσθετου
βιντεο
γσε
ουραν
διετης
συμβολο
επαιρνε
επισημαινω
διαβεβαιων
αριδαιας
εμποδιο
χρησιμοποιησω
μαγα
στρατος
επικυρωσης
οπουδηποτε
1157
απουσιες
σπαταλη
αρµοδιο
ωθηση
σκοτιν
##ular
γγετ
863
ερμηνειας
ναυτολογιου
ηµου
##εφο
##μιος
ζησης
δωρεα
εμπεριστα
##σκος
concern
καθιερωνεται
διαρρυθμισ
εγκαταστασεως
651
συμπολιτων
μηχανικη
αλιευτικου
assv
##δοε
επιχειρηματια
θεμελια
ψυχιατρικο
##hn
1931
##165
αντιλαμβανομαστε
θεσπισει
πασχαλιδου
διανοη
αυτοπροσω
πετυχαν
ακολουθησουμε
σπυριδου
υποδειγματα
αισθητικης
δεξαμενο
αντιγον
νομοθεσιων
ηθος
παρεχουμε
εισαγο
βαρης
χωροταξικο
χρησιμοποιηθηκε
##ρουται
εκαχ
ερυθρα
λιθουανια
ιωαννας
σταθερου
ενθαρρυνει
χημεια
ιχνη
σενα
μονοδρο
κυνηγι
εμφαινονται
ασχολου
##θυνση
4070
ενημερωνονται
αυγενακης
πλυ
στηριζ
καταστουν
ιωαννιδη
πρωταγων
τρεχουσες
##οργαν
3801
αμετακλητη
##ges
ολυμπιακο
θεσπιζεται
μηλου
ασφαλισμενου
μακροοικονομ
χαριλαου
ναρ
νοτης
εμπαι
πυροσβεστικων
ψυχιατρικου
χριστοφορου
διατιθεμενων
##ρουμενης
1468
παρακληση
ενημερωσε
δυ1α
662
παρατιθεται
στερειται
##504
ενσωματωσης
οριοθετειται
564
εδρανα
##ating
##007
##286
αρχιτεκτονικων
exec
αναγνωρισμενο
αδυνατο
λαζαριδης
847
##ator
μεταγενεστερες
ελλιμεν
##uts
ματι
εστιες
486
stand
##νικη
αντιληπ
χειμε
νηολογηθει
διασταυρω
664
βαρυτητας
οικισ
αλλαξετε
εμφανισης
ενστασης
805
αντισυνταγματικοτητας
2ος
##εντος
απαντω
ακολουθοι
σιν
##τολογιων
πυλαιας
ζωτικης
αλλοδαποι
εξαρτωνται
##reg
partie
καταγγελιων
σεβασμι
πιπεργ
γορ
νσεως
##μoυ
απολαμβανουν
διπλασιο
υπερκει
ελαιολαδο
1083
εφεραν
οχτω
pt
διαυ
αυξημενων
##ession
εισπρακτορων
συνεπεις
δημοκρατικα
παγκοσμιοποιηση
προπαγαν
καθιστανται
κατσου
απασχολησει
ανιχνευ
επαυξη
##ze
ταυτην
σταικουρα
##εργολαβ
χαιρετιζω
περιστασεων
προαγωγες
χρεοκοπια
αυτοτελεια
μηχανικης
δευτερολογη
βρυξελλων
βενζινη
υψο
τευχων
αναδειξης
αποφανθει
κορον
φροντιζουν
σερβια
λιμνη
μεριδιων
επαναδια
582
ντρε
περιεργ
υποστηριξουμε
ψυχικου
θλιβε
##ob
κουκ
βαρυνομενου
δικαστικοι
μικτη
474
plan
εισπραττεται
ταχειας
μουδαν
ειδησεων
##δρε
προπαρα
635
πολλαπλα
επιμενει
##σχεδια
##303
οπλιτης
χειμα
##588
προσπαθειων
ηνωμενου
αρκετοι
including
lang
##δρας
##ημερου
προηγουμενοι
φυλου
αμφισβητει
αντιπροσωπευουν
κυπρος
βητα
εγκαινια
ενδικο
1911
μικροκομ
διεθνο
μηχανογραφικου
ακαθαριστων
985
592
αντιπροσωποι
tri
κυριαρ
αποδοτικοτητα
ενδιαφεροντα
ισορροπιας
πολιτευματος
προσχε
πρατηριου
επηρεασει
παρτιδα
κρατησει
αλεξανδρειας
εντατικο
ανοιγματα
διατυπωθει
nr
εκτελουμενων
αφησατε
ψυχικη
finan
ευαν
κοιτα
αχεπα
τσεχικη
ορθοπεδ
ωφελουμενο
da
παιδικους
εξελληνισμος
ευκλειδης
τσιγα
απειλες
επερχο
περαιωση
##λαει
νοσηματα
ληξιαρχου
715
nav
τετοιος
προωθουν
αχρηστων
ενισχυομενο
ξενοδοχειο
ξεκινωντας
κατασκευαστει
αγγλικα
##166
ναυπηγη
##διαχει
##149
organis
αμμα
##θετης
διορθωσης
greece
ενεργου
εγγυητης
οργανωμενο
εκκλησιαστικων
εισπραττο
fra
##σιδης
ολοσχε
495
προστατευσει
εξωραι
πωλουν
αδικηματων
ανωτ
αυστριας
παντο
ραδιοσυ
οργανογραμμα
contract
case
603
##145
εξαρτηματα
##ays
##ψιες
απo
μηχανοκινη
ακεραιοτητα
στρογγυλο
ηχη
ανθου
##πειτα
1151
παρεμει
δεκατρια
φυλασσονται
παραβιαζει
τσιμεντο
##295
##ματισμος
ιδιωτης
ανταποκρισης
παραστασεις
αειφυλλα
ψευδο
τυρναβου
γκολ
##σται
επιδε
χωρικου
##tex
αναλυσεων
6002
νηολογια
φαλ
αραμπα
tre
πυργ
πασαν
σημερινα
ευρωζωνης
κατηγοριαν
υποπλοιαρχος
παραλαβαμε
γενευ
αθλητικη
αιτιολογημενης
κτηματογραφησης
provided
ουτω
506
οφειλετε
διακεκρι
σπυριουνης
ξυλουργ
διασαφη
σταθοπουλος
1702
974
##999
προσληφθουν
##οφλη
κκπ
αυρια
λεγκας
cla
καθαρης
αποδειξης
ελθουν
λεμβ
πεισει
παναγιας
αναμενουμε
εξαντληθει
605
αποθερα
περιφημη
##ναρ
επικληση
διεξοδ
ινδια
απολογισμων
ξενοδοχειακων
δραπετσωνας
##μεντ
χρησιμα
μεγιστος
αμερικανικη
ξαναλεω
α2β
διδακτορικου
πομ
διοριζει
πρωτους
στιγμα
διακριτικη
αντιλαμβανεσθε
διμερεις
παρασχεθει
604
εφικτη
2300
δομησεως
κινεζ
υπολοχα
υπεθο
ενισχυθουν
##γγειλει
τινα
πo
αποδω
εκτοτε
βαθε
εργατου
ent
προωθηθει
τεχνητης
αξιολογουνται
ατμοσφαιρα
επειγουσας
αθροιστικα
αλιβεριου
αποδεκτα
απελα
594
##παιδα
εκτρε
βολο
ληφθηκε
ψυχολογια
βω
οψεις
αναγκαιος
ανακαιν
απαξιων
αφορολογητο
ιδιωτικος
##δρομης
μαζε
αποτελουμενης
διαμορφωσει
fur
εκτη
αποστολοπουλος
εμπεριστατω
##ουλα
νομιμους
secret
pur
##σημει
υποσχεθει
προβληματικες
συνεχιζετε
μορφωτικων
φανει
λαμπροπουλος
ερθω
λιν
ανακατανομης
αυξων
χορηγηθηκαν
member
##ερι
ελευθερος
αναπλαση
διευκρινησεις
απερρι
ορκ
βαθμολογηση
γαρυφαλ
βοηθηματα
εκλεισε
ωρωπου
φλωρος
749
##εκασ
επτακοσια
ελεγκτικα
δευτερολογησει
080
φερνουμε
1100383
##τουσες
διαφημιστικων
σχινα
ετοιμασια
##380
ασθενη
εκχερσωσης
φραγκισ
περιοδικο
κριμα
μυκη
αναθεσει
ανακυκλωση
οδυνη
πολυπλοκο
αβα
χρηματοδοτησεων
nec
σχοι
βεβαιοτητα
εννομο
εργατοτεχνιτων
ελλειψεων
σταθερων
συμβαντων
invest
διασπαση
soc
##πεξελ
696
εννοιας
διαγραφει
κλειστα
λιαπης
737
πλατειας
κοινοποιηθεισα
περιπε
σταθμη
πληρεξουσιος
διεκδικηση
συρρικνωση
επιμονη
βαφ
εξουσιων
μερικους
ζιω
##λινο
μονομελες
##247
πρωτοκολληση
διαφωνει
λεγομενα
μετεκπαιδευσης
ηλεκτρολογιας
εισοδηματικη
υπαχθουν
##ζωη
##ξος
χαρες
ανθρωπιστικη
φ6
##bps
ελευθεροι
μηχανολογικων
υπποτ
εγχειρημα
equip
περισ
συμφωνης
βασιλη
θεοφανης
within
προηγουνται
επιφανειων
διαγωνισμοι
πτυ
κοα
##λαιων
προχωρουν
##λοιο
λαμι
παπαγου
αποτυπωνονται
σακελλα
χαμηλες
commission
υπεξ
κανονικων
##177
ενσωματωθει
κριθουν
κυμα
##θυλο
δημοκρατικες
επαφων
βολευ
μικρος
ρυθμιστικων
πυκνοτητα
επιβιωση
nl
πε9
##μηε
μεσοπροθεσμο
##168
συμβιβασμου
##ount
bro
##διορισ
φωτισ
παραγωγικου
χαρων
##στις
συμπολιτευσης
κ1
εδρευουν
##earch
7α
γραφεται
τριακονταπεντα
σκουρλετης
9η
παναγια
κυκλους
χερσαια
πλεγμα
λιθο
κλεισιματος
παρομοιο
bil
##ωματων
χρυσα
καταψηφισουμε
προχωραει
εμφανιζει
προκληθηκαν
2224
amend
υπαιθριου
προσκυρω
πολυκατοικιας
κορεας
καθορισμενη
ναυτεργα
συγκροτηθει
γειτονιας
εισιτηρια
βιοποικι
mort
καλλυν
συλλογικο
σπυροπουλος
επιδιωκουμε
πτυχη
λατο
ερχεσθε
αυξομ
αιγινας
χανουν
726
παναγ
γεννηση
natura
κατσελη
group
2022
1104
##κρατιας
σωτ
##529
ουγγαριας
χρυσανθη
αρδευση
ιστια
656
αρετη
πλεονασματα
βρηκαμε
μαγδα
πλησιον
κοινοποιηθηκε
συναυ
δεκατο
ταξιδι
πρωτευουσας
προσοδων
security
##τητο
υποκαθ
prot
επιφανειες
βρηκατε
ενφια
κιβω
υποτα
3527
συμβουλευτικο
κατερ
κοινοβουλευτικες
μετεπειτα
μεταβιβασθει
pass
1912
##τονης
2168
παπαδα
συσκεψεις
##γως
επιβιωσης
βρεφων
572
785
χρησιμοποιουμενων
εξαιρειται
ανακτησης
θεατρων
ιατροφαρμακευτικη
καταρτισει
θεμιστοκλης
ci
here
##org
##ural
φερω
αστυνομευσης
διοχετευ
ραδιοσυχνο
οικοδομικα
εκταμι
καταχωρειται
δικυκ
παρακολουθειται
ευσταθια
δασολογιου
λαμιεων
εξασφαλισης
estab
νυκτερινη
ημων
αναμορφω
##203
ραβ
ξεπουλημα
σταθακης
τεχνιτες
συντηρητων
ale
1784
μουσεια
##ιαδη
πυλωνα
εντει
φορολογησης
δεδομενης
εξαντληση
##φασεις
λαπ
κλασμα
ομιλος
βενιζελ
ρυμοτομου
αλλοθι
κολπο
καταληψης
ισοδυναμο
τζουμακας
##ττο
1935
αφθω
ατομικου
χιλιομετρων
κυκλωματα
council
εξαιρεσεως
ιδεολη
μαρτυρων
καταγγειλει
αιτ
νεοχωριου
εντοπισμος
xi
##σδε
επομενους
3370
πατη
αρνα
ασκησε
διακοπει
εποπτευονται
docu
##pri
σταθει
ισχυρες
γραμματεααποκεντρωμενης
μοναδικος
αλφαβη
παρεμβαλλεται
καθαρ
##τουμενη
αγροτο
μισθολογικα
τελειωνετε
##υων
##κοστο
##ινοπω
μισθωματος
χωρικη
4194
διασπορας
κυνου
φυλακισ
ομοσπονδιακη
βρισκοταν
km
εμβρυ
ινστιτουτα
research
υποβαλλομενων
827
δημοτολογιου
ανταλλαγων
πρωτει
εγκατεστημενη
σηκων
κρατικους
ερθουμε
δασοπονιας
σωληνω
καταστολης
##ουσατε
αδιανοητο
ξεπερνουν
αμμανατιδου
χαιδ
##χοληση
ονομαζεται
κινηματογραφων
613
##φαια
ελαχιστον
αναρμο
πλαφον
εικονες
##μωνται
##235
δενδρων
ιορδανης
δημοσιογραφων
πετρουπολης
παλε
διευθετησης
συνεχιζομενης
κανονιστικης
κανελλοπουλου
exchange
εμποδισ
##χολησης
ουσιαστικης
##196
αισθανεται
##ριοι
δικαστικος
συμμετειχε
##παραγωγους
556
παιρνω
αιτουντες
πυλου
##304
αναποφευ
ησυχια
ορισμενη
χωρo
##πουλειο
παπαδημουλης
##503
αδυνατει
##be
αναγραφει
βιοτεχνο
ευρειας
επανερχεται
βεροια
δρομολογη
τιμολογηση
λειτουργουσε
3905
##ιη
διαθεσει
ανατολης
μεταλλ
σαρων
παγων
εξεταστε
θεμιστοκλη
συνομοσπονδια
683
συγχαι
πλευρης
καυσαεριων
##τεχνη
ανοιχτα
δντη
εξοπλισμων
πειραζει
συμφωνησε
κουσουλακος
κυνουριας
758
παιζουν
##173
μεσιτεια
επιε
ψυχαγωγιας
012
φ4
επιτευχθουν
θυγατρικες
1256
1103
καρδιτσης
ενδικων
θρησκ
διωξεις
μεταγενεστερο
810
##κολου
##jec
πας
νεφ
θερμοκρασιας
καρρας
υφεσης
απεριοριστα
##288
γιαννακοπουλου
δασκαλακης
εκμισθωσης
προσαυξανεται
γκιου
καταθετουν
679
energ
respect
##pl
γενομενης
1262
εξυπηρετειται
ασφαλης
##τεος
φιλους
κατσιγιαννης
συνεβαινε
##ware
αγρια
συνδεσμων
αφηνουμε
συμβατικες
##μισθιου
##ζωφ
περιμεναμε
we
##στικοι
αξιοποιηθει
συνεχισω
κυβερνα
##χαρα
τυποποιηση
##χεις
##ρεπ
1915
οπλισ
2889
εισηγουνται
προεκλογικες
εξειδικευονται
ποσοτικο
νομαρχου
διαχειριστικες
μοτοσικλετων
461
συναφες
##μπερ
##ino
προβληματικη
##λαπ
ελεχθη
κυκλοφοριακης
αποσυρει
μετατρεπονται
825
##αζι
τελειο
κυριαρχη
##323
ανηλικα
γκαρα
δεχθειτε
##ruc
##τατος
589
ανακουφισ
τετοιους
καταβαλουν
αργυρω
συνειδησης
υποναυαρ
ριζικα
γινονταν
πραγματικου
##pha
επειγοντος
##βιομηχανια
5631
απασχολησεως
διακοψει
σκοπελι
071
##397
##ents
##μορφο
μισθωμενων
818
τζανης
##992
απεχουν
φορτωση
resolution
can
ζητησουμε
4ε
καταπολεμη
land
μαρινος
##βασιλειου
παρανομο
ανοιγματος
αποβλεπει
τηλεγραφη
γιουγκοσλαβιας
δασαρχη
υπολογισμους
αυτω
νοσων
αιδη
κυβερνων
735
σκαλ
842
πρισμα
21ο
##990
κρεατα
συνυπευθυν
δεκτοι
επαναπατ
ενδεικτικο
οδικες
##κανα
ισουται
εκφορτωση
βρετανια
΄εργ
##τνια
συμπιπτει
καθαρες
βαλαμε
ορνι
μικροτερος
συμφωνησαμε
1913
##502
φωσ
578
απαγορευονται
598
αμφιλοχιας
σημερινου
πυλης
##240
καθορισθουν
##169
αποσυμ
ευρωπαικους
δραστικες
μαρσαλ
ενεργοποιησης
χαθει
ρητρες
ανηλθε
##ira
##ταω
βαθη
2327
##208
καισ
λεη
επαγγελματια
προξενικη
νεκταριος
περιληφθει
##μπεκ
ψυχαγωγια
ειλικρινεις
πασχαλη
programme
##ζογλου
καταλληλος
meas
κολοζωφ
λυκουρεντ
fund
##ελια
##508
καλυπτοταν
παπαχρη
χρησιμοποιειτε
770
ευφλεκ
βουνα
φορτια
ρωτησα
development
##ιτου
γιατρα
εγκριθουν
φυσικοι
ηµο
##λωσεων
ενιαιων
προαπαι
##171
αναλυτικοτερα
system
##176
ξεχωριστη
##οη
επερχονται
εκρο
633
μηχανολογου
απομονω
αποστολακη
κοιμητηριου
766
κυματος
δραστικης
απαλλασσει
establish
837
hold
βατο
μιλουμε
##arma
νομοσχεδιων
αποφασισουμε
αδαμοπουλος
λιμανιου
λιπαντικων
##σματος
τελευταιοι
καθεστωτων
ital
αρτα
αναμονη
δεκατη
##329
μπεν
διατυπωσε
χαμηλοτερη
mortg
κανταρ
χρηματοδοτικου
σημειωσεις
υπερβασης
αεροπλανα
φτιαξουμε
##θαλασ
στηριζονται
μικρους
γεννησεως
##523
δημαγωγ
σπηλιοπουλος
1δ
μιζ
##198
παρεμπιπ
ελαχιστος
δημοσιογραφους
ρυθμισει
##πτωσης
ζωες
αναφερομενο
βοσνια
##οπουλο
μαμα
αποσπαται
αλουμιν
παψει
##σιδη
##φαλα
ρυζι
##γατε
αντικειται
ικανοποιητικα
οικονοµικων
526
περιηλθαν
##207
αυτοτελως
μιχαλο
νιγρι
παιδοκομων
##507
φρασεις
επιτρεψουμε
πυρηνικων
γυμναστηριου
τομος
μητερας
967
καναλι
αναρτηθει
829
πχ
φλωρινα
υποσχεση
παπαθεμελης
δεκαεννεα
saf
787
τεν
##περιο
κλιματικη
αυτονομια
mariti
απεικονιζονται
τμηματικα
κτπ
##λλην
ψηφιζεται
μπακα
communic
υπουργοιοικονομιας
##εγ
επενδυτης
αδιαφορια
εορτα
bund
υπερψηφ
μολδα
διαφωνιες
επισημανουμε
δεχθω
ομοσπονδιακης
συντασσουν
εβδο
πρατηριων
ημερολογιο
επισκεπτες
3ος
##ζομενοι
ευχαριστως
υπερωριακα
37930
εσθονια
λιμενικες
##du
δημοσιως
συζυγο
##λαλη
##ικοπουλος
προαχθει
σπηλιος
διαταραχες
αµ
ελευθεριες
συντομος
προσχολικη
1942
εχθες
αποκαταστη
protoc
meth
μελετησει
επαληθευσης
σιδηροδρομικων
μοσχατου
μοτοποδηλατων
χρονους
1006
εκλογικα
διαβασετε
εξαντλησει
διακρινει
αμια
εκτελων
βενζινης
##ien
##σιευση
ορφανος
δημοσιον
ακτες
χορω
οφειλη
θερμανση
##692
τηλεφωνα
ψηφοι
##636
καλυτερος
588
##τωνονται
φιλοσοφικης
χατζημιχαλης
εξανα
0709
απαιτουμενου
αντικατεστησε
γεωτεχν
συνεστη
αποκλειονται
σχολιασω
πολυκλαδ
##ηματα
κλισεις
μεταπτυχιακες
σταματησουμε
μητροπολιτης
##ase
απαραιτητου
υποτροφιες
κτηση
κερδοφορια
ξυλοκαστρου
αταλαντης
δε28
δηλωσω
φθορα
##ρεστε
πετυχαμε
επιβατηγων
##σμενης
επιμηκυν
βαρυνεται
κτηνιατρικο
αφαιρουνται
necess
ειδε
αποφασιστικη
οπλουργος
συνεπης
λεγομενο
εομ
εφαρμοζοντας
εισηχθη
ψηφιακων
811
ρεκ
ψαλ
δε23
βεβαιοι
##398
τηρηθουν
ρυθμιστικο
διαφορετικους
επικουρος
πυροσβεστων
##ττακη
αντιπυ
νησο
##εισπρα
εμειναν
πλαστο
τσαγκα
περιπο
περιπτωσεως
ψηλα
##522
##ργας
μαρκετ
940
μεσσα
βυτιο
επικυρωμενα
##επισκευ
βαλουν
http
καταγωγη
πεμπτου
βγουμε
πε60
αθαν
μηχανοσυν
υπερθεματισ
##τομη
##377
συμπιεσης
περιβαλλov
γεωθερ
σομα
##λεξια
καθημερινοτητα
συγκαλειται
λεωφορειου
##διαγνω
επιθυμου
ανθρωπιστικης
##156
κατεργ
##ash
επιχειρησιακης
ναν
κτηματολογιων
σεβασμιωτα
φιλης
χρειαστηκε
αβεβαιοτητα
553
διαπρατ
εξευρε
4270
σημειωματα
νων
##ικε
##rang
κυμαινεται
##385
επιχειρηματιας
ποικιλιας
non
χωροθετησης
##234
1035
##ρευσει
πλημμελειο
εχασαν
παροπλισμο
ποδηλα
κουμα
κοντονης
αδικιων
τεα
δοχεια
σημαντικου
ακαδημαικων
##178
ξεκινησαν
οχλησης
##308
καταληξη
preferred
προσαρτημενο
σεβομαστε
προσβλη
##σσοντας
μολα
αυξησεως
ειρηνευ
εβα
περιοδων
χημειο
προτιμωμενες
##σκας
στεν
καθοριζομενα
προσβολη
##281
επηρεαζεται
ενυποθηκοι
ελαιωνα
##554
##raft
##ova
ιδεολογια
ξανθοπουλος
βιοτεχνων
##φιδ
##604
επιδοσεων
βιρ
φιλιατων
ουτος
λεγομενη
σαμοθ
τροφοδοσιας
κασσανδρας
λιβερια
μητερες
οσακις
πακετου
΄εχοντας
πλατα
ταιρια
οινοπνευ
##αινων
##521
##572
κατηγορηματικα
δυσανα
administration
gra
##τησα
υποχρεος
πολιτιστικος
διαδρομων
σιουφα
χρηματοδοτησει
πρεσπων
βγαλουμε
1089
παιδικη
##λεπτο
βιολογικη
αρχηγους
##194
##153
νυχτα
καστε
αναψυκτη
12ο
##389
##174
λεβεντη
990
σσε
united
mortgages
##νομων
##ματω
ελεος
μονιμως
γνωστοποιησει
αιμοδοσιας
εφαρμοζουμε
##387
##172
νοθευ
εκπι
##ουσαμε
παραγωγικοτητα
δεχθηκε
επιστημονικους
µεχρι
κροατια
αποσυνδε
φτιαξει
διαδραμα
ath
##κωνα
875
4235
αρθρω
ζωνταν
ορεινων
ωριμο
σκοπευει
οποιωνδηποτε
##162
διερευνησης
κατοχων
4368
στηριχθει
αποδημου
εξετασε
τροφικη
ισοζυγιου
ηλεκτροτεχν
πανελληνιο
3026
οριζομενη
εξωστρε
διαπιστωθηκαν
port
αναγκαιας
πασχουν
ηλεκτρικο
προδικασιας
ορισε
ακτων
ανοιχτο
1190
βορει
χιλιους
καρτες
μπανα
##πνο
##γικη
##483
ταχυδρομικο
απειλει
αδελφο
υ1
##δδ
κοντρα
απαντησουν
επερωτων
minister
πυρασφαλειας
mac
##ζελ
τραπεζικη
διευκολυνθει
καθημερινο
δασκαλοι
##πτερα
ευρωπαικος
λυμπε
καλογερο
καλαι
κιλα
##ters
ιδιωτικοποιησεις
δικου
κοροι
φορολογουμενους
προχειρο
κατοικη
707
εμπορευμα
αναγνωρισει
επιτρεπομενη
ευθυς
δ0010
φραν
σοφ
αποκλειει
project
χημικα
προνομιο
επιπροσθετη
ενοχλη
special
διυπουργικης
κορδελιου
καταθεσετε
διαλυσης
υπερβολικη
παρεσχε
λυθηκε
ενημεροτητα
εμποδιζουν
mal
αλληλεν
ελπιδες
συμβουλευτικων
πηγαμε
##δερ
συνεγκαταστασης
##art
προτεινα
εµπο
περιβαλλovτoς
ουδεν
χρησιμευ
πατρ
μηνιαιου
κατασκευαστικη
καθυστερησει
σβη
##σκευες
##υκτε
μπαλτας
scien
##στικους
απομενει
προσεχη
ταχυτητων
πιθανως
θυμιζει
επεξεργασμενων
αλιμονο
num
φερνουν
μνημονιων
επανεγκατασταση
καταλαμβανουν
τυχουν
καταθεσατε
οριογραμμες
ορεινες
φυτοφαρμακων
αλληλενδε
##τυπες
βαρδιες
ηρθατε
πυθμενα
πμ
##τινγκ
##403
ανατολικο
θεωρηθουν
απονεμονται
πληρεξουσιου
##εντι
αναφερομενου
##ιζομενα
net
παραβλε
##ena
##ξειδιο
παραλαβει
καταχωριζεται
γραπτης
technolog
αιτιων
##κηπουρων
4072
586
υπολογιστει
αντοχης
επισμηνα
νεοτητας
αναγνωρισμενου
διοργανωσης
υι
##ουλες
επιπλο
europe
κατολισθη
##322
συνδικαλιστικες
3752
ελοτ
μπολα
απορριφθει
επαληθευσεις
μολυβ
εργατουπαλλη
μπισ
23ου
ουσιαστικων
βιαν
##φεκ
##ωνη
παραγραφης
##237
απαραδεκτες
ενυποθηκους
αποθεραπειας
ινων
σδοε
χτισ
γεραν
αγγου
ιδεολογικη
κτηνοτροφοι
##δικειο
πρωτοδικη
οριζοντιο
παραγγελια
παθογεν
υπενθυμισ
μετακινουνται
αγρονομο
##ημερη
οικειοθε
παια
πατρια
στατικη
βοηθηματων
πορτες
τονισουμε
##ζατε
χωρoταξιας
πολυς
στηριξουν
επιχειρηματικες
διανυκτε
καστελ
στασης
##elle
685
συνελευσεις
##188
επεσε
χρησιμοποιησουν
υπηρετουντος
κατακυρω
διερχο
αιμι
μπαντου
αντικατεσταθη
##γραφηση
χορηγηθουν
μεταφερθουν
ναυτης
ποιοτικων
σταυρουπολης
νηπιαγωγειων
ατελως
δεκατεσσερα
εμβλη
πιστωτικης
##221
κεραμι
μαργαριτα
επτακοσιες
ισοτιμη
γυρος
##691
βδ
υποκατηγο
διμερων
απομακρυνσης
##γονα
κατερινη
ανταλλαγες
τζανα
λεηλα
δημαρχοι
θερμου
##ner
πληγεντων
διωροφη
πνευματικων
προαναφερομενα
ακαρνανιας
δ6α
διδει
##ese
βελγιου
super
εμμεσως
διαιρεση
80345
μπεκιρης
##282
κρατησουμε
συμβατικη
σκοπελου
##151
##αε
##λερ
δυσφη
παραλλαγη
δας
##στικοτητα
εκριζ
επιφερεται
3230
θεοδωριδης
συγχωνευσεις
908
802
ανθρωπινες
μηνυματων
ιδιαν
##163
καταχωρηθει
αυταπα
αντικρου
αποθεματοποιησης
2308
σαντο
χαρακτηρισμενο
##αλλιεργ
διμηνο
ζητηθηκαν
επιβαρυνουν
mhz
παραμεν
γειτνια
ασυρμα
χαλβατζης
jose
διατροφ
##τροφια
κοινοβουλια
677
μισθολογικου
κορυφαια
υπερισχυει
τρομε
μαντου
χατζηδακη
επιτοπου
αργυριος
mil
##ορθω
διακρινεται
ιταλικης
##σαλων
πρωτοφανη
χρησιμοποιουμε
αντωνα
##431
ανιχνευση
περιγραφο
σοφα
χειμωνα
ρυθµ
##κως
##εμβ
αρνου
υποχρεωτικες
τακτο
υδρ
υγιη
##998
european
κοινωνικοι
συνεννοηθουμε
συμφερει
οριστικων
καθαριστρια
ετοιμοτητας
πληττει
πουρναρια
##τζιδης
μισθωμα
αυθεντικα
συντ
μετοχος
οντοτητα
αγωνιστων
εδαφιων
καταγγελλο
λυνεται
ασθενεστε
##καστρο
μολυνση
ger
υπουργοσεθνικης
καταλληλους
λιγοι
##πυροσβε
φοιτουν
διαβουλευσεων
ευδοκιμο
κρουσματα
ουσιωδη
αποψεως
ανοιξη
##χρησιμο
γηρατος
εξαρχης
813
τερματισαντα
καταλαβατε
υορκης
διεισ
αμειβονται
##164
αιρετο
##εκτος
1917
1005
ανασταλει
##προσανατο
παραθυρα
υπεγραψε
##τσικα
καθολικης
εξοικονομησης
##ain
τροποποιησει
##242
##902
υπεραστικων
καρι
ανοσο
αρσεν
διοδια
τυδκ
ελευθερους
##372
τμηματαρχη
μελισσιων
ακτογραμ
913
##νιο
επισκεφ
συρρα
τσιογκας
rele
2696
##μηνων
##γιαννοπουλος
##ιζομενες
##βρυσης
##λησ
τε9
ηλεκτροκινη
depar
866
πεθαν
πετρας
περισσ
παρεδρο
##λλητι
παρατηρησεων
διασφαλισθει
αξιολογειται
επιδεινω
βιβλιοθηκονομων
εσκ
##ral
συμπο
αμοιβαιο
φωτοαντιγραφα
##ξιων
##λατου
τηλεμα
θεωρησε
μισθωσεων
βαλκανιων
σαφεστατα
εκταμιευ
παιδαγωγικη
διοργανωνει
μελισσοκομ
διθεσιο
ανεξαρτητοι
mor
ρειας
μετρητων
economic
υπαρχουσας
αυξημενο
επανακ
sim
##hal
##582
4046
##185
ικανη
673
587
βορρα
εκκεν
ετροποποιηθη
΄΄
διεξοδο
##μορφια
αντιπροσωπευτικη
διαλαμβαν
μεταφορικα
αμελλητι
κομβος
αυθεντικο
##φετε
##εβε
##193
καταληκτικη
επικυρωθηκαν
πολεμικη
##υσε
##eric
εξωτερικους
δολλα
##λινου
##τωμαι
##008
4369
##σιωv
κοινωνιολογων
αρµοδιοτητες
poss
##ζεις
##ριτη
ακουστει
διδασκο
##λεπαλλη
περιθωριακο
ξυν
δημογραφικο
αγοραζουν
διατυπωνονται
ειπωθηκαν
##ωσουν
τροποποιηθουν
συνδυασμενης
αιτωλιας
δευτεροβαθμιου
μεταφορικο
λιμνες
τιμαριθμο
εντονες
δμε
494
##δρου
1101
ταινιες
επιμορφωτικων
λς
##νιδη
##emb
ψυχιατρικης
ληξιπροθεσμες
πλειονοτητα
ρολ
##ικει
##θεσιας
μεταγενεστερη
κοτσων
επισημαινουμε
καρτων
εκστρατεια
##υριο
##μ2
ιμπεριαλισ
βαπ
περιοδικες
παρομοιων
υ10β
λιγνι
ρυθμιστικου
αδαμαν
δενδροστοι
hel
απασχοληθει
μυστικη
προσωποπαγους
κληροδοτηματα
521
γευ
προστεθηκαν
αλλεπαλλη
διαφωνη
consid
τε22
εισηγου
καταθεσουμε
αναφερομενοι
µερι
##ible
γριπης
επαιρναν
αποχαρακτηρισμο
εναμισι
κυριακιδης
χρεωσεις
μελλοντικων
συνταξιοδοτικου
δωροδο
γερου
αντικατο
##335
προνομιου
univers
δικογραφια
διεισδυ
υποτμημα
3079
λεπτομερης
αυστηρες
βιοτεχνικες
γιουγκοσλαβια
##λαβουν
ασκουντος
οκτακοσια
οδοντιατρικου
αμβλυν
jean
δομο
επελε
πρωτογνω
δικαιολογουν
υπαρχηγου
bene
περιληπ
κυψ
επικεντ
πειθαρχια
ερωτηματικα
συνενωση
αμανα
τσουκαλης
040
φθινοπω
επισκεψεων
πεζοδρομο
ευρηματα
γικον
κοινωνιων
εθεσα
βενιζελειο
αντιπλοια
##305
##ποιειτε
design
καταστρωματος
φαμελλος
ωκε
προφιλ
##λογουνται
κολπου
χαριλαος
υγραεριου
αυστραλια
γικονογλου
##209
κτηματο
##διε
σφαγιων
προαναφερομενου
##χυσης
##189
αργι
θεατρικων
πληρεξουσιους
##τηκα
επιλα
παρνη
αντισεισ
καρτελ
δικαιολογει
τρομακ
4111
χολαργου
θρασ
4071
ιδιωτικοποιησης
φορη
##αιρεται
βενε
τσουκα
aρ
°c
τριετιας
χρεοκοπη
ρεγκουζας
φωτογραφια
ρισ
##za
ικανοι
634
θεοτοκου
equipment
##θετουν
gt
##m2
##αις
μπουρα
καθημερινης
αδηλω
ψηφοδελτιο
αντικατοπτ
μειου
##si
εργοστασιων
μπενακειο
##ρουμενη
##631
αυθαιρετη
ειδικευμενων
13ο
μηχανημα
συνταγη
χημικες
αποδεχονται
πηγαινε
pd
##γρο
ανατεθηκε
πεφτει
καταφερ
κοκο
σιτου
alpha
αυτοματη
κελυ
βγαλουν
mul
801
579
σφαλμα
εφαρμοσμενων
##εφοσον
πβ
##pr
##ption
##ληψεων
##king
##186
απευθυνω
καταφερουμε
2408
αλαζον
βαγγελης
γυθειου
πυρηνικη
rod
συρια
980
τηλεπικοινωνια
μαλακο
γινουμε
ρομα
etat
σηφουνακης
συμμορφωθει
ερα
##γμενοι
θεσαμε
##309
στελλα
κηπου
δηλωθει
απαιτουμενης
πασχει
σειρες
συνδικαλιστες
επαναληψης
συναρμοδια
οδοιπορικα
kυ
ασφαλισμενος
##175
κανονιστικο
σπορους
κολοκο
επιστραφηκε
παρακαμπ
διοριστηκε
αδικιες
αναπληρωσης
μοιρασ
πλακα
αγγλια
ναυτολογηθει
post
ελκυστη
005
εργαστηριακες
τσουδερου
διαιτητων
ταλαιπωρια
θεανω
αυξησουμε
int
742
both
σκρεκας
κατωφ
σεισμους
ενημερωτικου
συνηθεις
τοπων
ζητησατε
πυρομαχ
##587
ικανοποιουν
833
διακοσμηση
βουν
καταλληλης
λαμπρινη
διαφωνιας
πολεμικο
χασουν
3685
παπαδοπουλο
ενδεικτικη
αξιοποιηθουν
εχασε
##206
διοικει
μετρητα
οικισμοι
μπραβο
τραυματισ
ομιλει
διπλωματων
κτηματολογικου
##ωλυ
πολων
ευλογα
απεδειξε
αναγνωριστει
μεταλλικων
##αρη
##µης
ποσοτικη
στραγγ
εκκρεμων
##ipl
fir
##αριθ
διαπαιδα
ασχη
συνοικια
διαπιστωνονται
θεσπιστει
##470
##ola
ανοιξε
παραγγελιες
following
year
εξαπ
βαμβακο
##inc
70α
καθυστερει
βεζδρε
σημαντικης
ερμι
υγειονομικος
ενεχυ
συμφωνησουν
ιαπωνια
##µια
ενισχυονται
##694
ανακαλουνται
where
ανακεφαλαιο
κινου
##ισεων
##ιζοταν
οφειλομενης
##σιον
πυρκ
επικυρωνει
##μασταν
στολη
554
##979
##tor
διαταγων
090
ταν
##875
παντελακη
εναρμονισης
##κιω
υποπαρ
##ποιους
α΄2
##χανα
συναφθουν
αντωνη
ηπειρο
παραταξεις
γεννησεις
##σινα
2322
συνταγματικης
παρεχομενης
ετερα
##ωτικα
ποττακης
δημαρχιακη
βιργ
κουνα
##378
καταδικαστει
καταμετρη
καλλον
μεσημερι
##τολιβα
θεραπευτηριου
σεβασμιωτατου
##ιζαμε
γεωργους
##ρχονται
εγκληματικες
προυπολογισμοι
αρκουν
αξιοπιστη
ευνοικη
m3
αλκιβ
απον
δεκανε
μαντζ
ανθυπαστυνομων
##τοπ
##επιστημον
ανεπτυξε
kar
##581
σκεψης
θαλασσης
eυρω
πιστοληπ
γαβριηλ
παπαχριστοπουλος
μιαν
σαριδης
ξεχν
φορολογουνται
διωρυ
οιαδηποτε
απογει
διορθωτικων
##net
αλια
ποσιμου
βαθμω
εκπαιδευτες
##997
μουδανιων
περιγρα
δεκτα
βιβλιον
βιομηχανικο
##556
εκμεταλλευεται
777
χιλιογραμ
γσεε
##στατ
ζητησετε
δραχμη
ορθοτητα
παντελως
ορεστης
παμ
##σκεπ
γραφης
συνδυασμου
πραγματοποιου
##000232402
##πινγκ
επωνυμιας
##578
αδαμοπουλου
ψεμα
θωρακιση
##249
φροντιστηρια
τζανειο
δικοι
conn
##tives
λιβανος
αποπληρωμη
νασιωκας
993
φεραμε
τουρκικη
κουσε
επεσημαν
ασκληπιειο
συνδρομες
αποθεματοποιηση
γενοκ
30΄
##388
καλαθο
939
##μεχ
acce
παραχωρησεις
εκτροφη
δικαιολογημενα
παρθενα
αισθανονται
παρεμπιπτον
ισχυοντων
##909
τκ
δημιουργησετε
θεμελιωδεις
γιανναρος
στρεβλωσεις
εξον
##μπαρ
stud
καθολικο
ιστιαιας
παχος
σερε
συζητουσαμε
δημoσιωv
διπλουν
θιγουν
οικονομολογων
κολοκοτρων
##ουμενου
προστεθουν
επιχειρειτε
μειγμα
3469
εκμεταλλευονται
διαρκε
προτιθε
##γ΄
απορια
λειβα
16ο
οριζομενου
ομολογιων
πληττονται
εμποδιων
γαβρο
φερομενης
πρωτογενες
##ποιω
##ζομενους
τεχνοκρα
μπεντ
δοκιμασιας
συσχετισ
##ιτ
υπεργολαβ
χατα
αρχηγοι
978
996
στροφη
1200
αριστα
τρισεκατομμυρια
κερατε
##λθαν
##νασσου
##142
##589
act
ιοικη
οριστικες
##244
γ4
μαργ
ονομαστικες
##ety
τζαμ
συνεπαγονται
αυτοματως
##σματο
παχυν
αυται
##δημου
δραματικη
ανδρα
1049
φυλο
τσιρων
δεξαμενης
κατοικουν
οψεων
##πoι
μεταφορεα
##ργησε
μοδ
##υς
1232
καταρτιστηκε
προσφυγει
πηνελοπη
εντιμο
αναγνωρισουμε
πηγαινετε
οκτακοσιες
means
αστυνομευση
δοσοληψιων
2065
καταπλη
συρι
##μιρ
καταρτιζομενων
παιδιατρικης
ξεχωριστο
##rough
αντιπροεδρων
προσκομιζουν
πηγατε
δυσπιστιας
λογικα
##ιζομενου
μορφωση
δασκαλας
##τιον
853
ακολουθηθει
ερωτηματολογιο
χαλκιδεων
τακτικοι
θωρακος
μεγαλοπολης
ιεραρχηση
μηχανοργανωση
λατομεια
περιπτερων
αξιου
εμπορους
παροχοι
παρεκκλισης
ανακυκλω
οθων
##τσανης
##δανη
ολοκληρωσετε
σιδηροπουλου
792
αντικειμενικες
601
κυριολεξια
συμβατικα
επεκτασεως
βον
ενσημων
θετω
παραδεκ
##εργασια
αποδεχο
κληρονομιων
αντεχει
θεωριας
τακτικους
χημικο
ακαθαριστου
δκκ
εποπτη
προτειναμε
γυναικας
εισερχομεθα
προκαλεσουν
conditions
εγγυητη
οικογενειακου
αιδηψου
##μανσης
##243
701
εδεσσα
επισπευση
σαββατοκυρια
σκοπιμη
μαρκετινγκ
ραγκουσης
πελαγους
προσκομιζεται
γεωγραφικα
αιθυ
ερμουπολη
κοσσυφοπεδιο
εκχυ
τελεια
##δικια
ασημακοπουλου
παραδρομης
μονεμβ
υποστηριζεται
inf
##tification
αναγγελια
952
θεσπιζουν
ειπωθει
αγνωστου
##τωνεται
αποκλειστει
μουσικο
εμπλεκομενους
815
καδ
1580
##ρουπολεως
τηλεφωνικη
νωμενων
συναρμοδιων
βαρουφα
νησοι
παραβιασης
μετονομαζεται
πολυεθνικες
ευη
2515
##τομες
##192
συμφωνητικο
##ωτων
2472
παρενθεση
φλα
χρησιμοποιησουμε
##πανηγυ
σδι
διχως
αποκο
κοργια
ρυθμιστικη
ηλιακη
προσκαιρων
σχετικοι
προσεκτικοι
σαλαγκουδης
2286
προβλεψης
##μπουν
##βιβασ
ακουσε
πασχαλης
ανακαθο
ολοκληρωμενων
##575
ho
10η
συνασπισμο
παραταθηκε
ταυτοχρονως
κυδων
ψηφισης
γιαννοπουλου
ελστατ
##νομαστε
##585
διευρωπα
626
##λεστε
##τραπουν
σχοινα
υποχωρη
1147
παρακολουθουνται
παπαζωη
γιγαν
lab
ke
##ning
ανασυν
συμβεβλη
υπεραξια
ζητωντας
μεινουμε
##θειαν
υδροληψιας
τριμελες
συμπεριλαμβανει
λευκαδος
χερσαιων
καισαρια
κατρι
πε18
αναπτυξουμε
συμπερασματων
ενδιαμεσο
αρνουνται
##παναγιω
κλειστη
αποφοιτος
ταµ
διαβαστε
##ements
νεκρων
##θημερον
νηογνωμονα
παραχθει
αληθες
εισιτηριο
μαγου
##περνα
δουκα
αμιγως
standard
κακουργημα
αποδιδουν
##ζομενος
ισοτιμα
αρχα
δηλωσουν
στρατιωτικα
κατηργηθη
διασκεδα
καθοτι
επαναλειτουργ
θεολογιας
ευβοια
επισυναπτονται
υπολειμματων
4127
##γικης
##so
εναε
ελευθερες
##λογει
##577
english
απορω
μηχανοστασιου
μηχανηματος
##βεβλη
συναντα
ηλεκτρομαγνη
λαμβανομενης
##551
γεωτρησεων
εομμεχ
##ρo
##ουμενο
εκλογικους
βαλυ
συντελεστου
ben
απλος
21ου
ανηκαν
οργανωμενου
κοργιαλεν
χρησιμες
##κουδη
##306
αληθ
activ
χερσαιας
τοιουτων
βρι
υπαιν
φυτω
επεσημανε
##ωσουμε
ερθετε
καμπο
αεροπορικης
εισροων
εσωτ
αλεξοπουλου
σταθμης
δεσποινας
καλογη
υποχρεωνει
τρεχει
δανειοδο
α2α
##λογλου
υδρομετρων
φευγει
απεξαρ
εισαχθουν
##λικον
ανηκ
γνωστοποιουν
σφραγιση
φορολογουμενος
αντιδημοκρα
λουξεμβουργου
πολυνομο
διλημμα
1501
λεγω
ενορ
δειξουμε
ιδιοσκευασμα
εξακολουθησει
##μβριος
φυλακης
ελαφρα
διαφανη
κοινωνικοοικονομ
υποχρεους
επιχειρηματικα
##γιαννακοπουλου
##πουνται
μολυνσης
εκας
υπογεια
##396
αυτονομη
οικοδομησιμο
ξοδευ
##τροφα
λεβα
ουρο
φαρμακεια
αναπτυξιακος
καταστροφικες
μεθαυριο
παγιου
επιτιμου
κατερινα
970
ενδεχομενες
845
αρχον
006
απετυχε
manuel
εννομη
κηπουρων
##τηρας
τηλεομοιο
844
##λορ
υπομονη
##381
##245
774
συνειδητα
ριζικη
δαι
παγε
##γαιας
αιτουντων
αδιαφανεια
1666
ενεργων
υπηχθησαν
φοιτητης
οπισθ
θυμηθουμε
κομβων
ανεστη
σημειωσει
τηρωντας
μουζακιου
κυλινδ
##ωσιν
φυτευση
υποθεσεως
χρυσανθα
αειμνη
σιγουροι
σλοβενια
ιουλια
##θαμε
αντικυ
υποχρεωθει
##τυπιας
πλειοδο
διπλωματικων
4°
659
αποδεχομαστε
πυρκαιας
prote
συζυγ
εκδοθεισης
αμυντικη
αγνοια
yπουργειο
εψηφισαν
δηλη
ταξιδιου
μανδ
ζησαμε
##ρακιου
κλειστες
επισημανθει
##iro
2637
κονιτσας
προσχη
σωσι
εφεση
##λοχωριου
##σαντος
propos
θανος
ασφαλισεις
πληροφορουν
προσφερ
αγιοι
πυροπλη
διαβεβαιω
προσδιοριζουν
ψυχραι
ψηφοδελτια
μεροκα
μαραθωνος
ber
προσφερουμε
δικαιως
##urg
συνδικαλιστικο
μονοπωλιο
επεται
εισαγουν
##182
968
dh
vas
##251
αβγ
καθιερωθει
εμπλουτισμο
βασιλειαδης
εδρων
##βολην
##595
αναζητα
μοντελα
δημοψηφισματος
ευκολιες
ομαλης
πτωχευση
αποπερατω
ενισχυουν
ευκολια
κατανοησουν
νυκτερινης
##men
9100
μηχανογραφικο
φωτεινων
ιματισμου
##ιδιων
κονσερ
απελπισ
θρασος
φλο
φυτευ
κουρε
ταμιας
##τσακη
επιτυχης
εφαρμοσμενης
διαλεξεων
διαιων
ανδρο
περνουν
συμπεριλαβει
εμμισθη
αμπελοοιν
646
νορβηγια
865
απολαβ
μεταχειρισ
διανεμει
προστιθεμενη
αποζημιων
ταπ
αττικον
καλυτερης
κατανεμει
λοχαγος
984
μτ
ελληνικους
2320
καταλογισ
υδροηλεκ
απεικονιση
##μισθιο
αρσενη
εργατοτεχνικου
νικου
πεδη
διατηρησουμε
κουτσουκη
εσπερινου
βογια
τοποθεσια
αδυνατουν
σχολα
περιμενε
πανευρωπα
θυγατρικη
5°
914
fer
τζη
##λευς
ολοημερο
διορθωθει
δηµοσιευ
διαβεβαιωση
cy
ι΄
αποτυχη
απευθυνει
κατεβ
πεμπτον
εκτιμηθει
##φωνιας
014
αρχαιολογος
νοσοκομειακων
##φοδια
περιβαλλοντικου
596
αποστασεως
επιχρισ
##248
φραγματος
ξυλου
υιοθετει
πλωτων
κληρον
εμπραγμα
παραλιακη
φυσιογνω
φινλανδιας
members
661
αναθεσεως
αντικειμενικων
ελαιοκτη
παραχωρουνται
λαθρομεταναστες
##384
##526
διπλογραφ
αρχιτεκτονα
πτηση
##vant
18°
##506
νομικοι
##ανον
συμφι
σλοβακ
##νιες
αειφορος
προτεινομενης
τοιαυτη
εκφορτωσης
τραια
691
581
ανεπιθυμη
tην
γ3
##181
αυτοτελεις
οποιαν
##ano
##586
εβδομ
πεζοδρομων
δολαριων
σκεφθειτε
συμμεριζομαι
##σινων
2913
υπαγομενων
συγκα
1884
##570
πλοιαρχων
σημειωνω
υπολειπεται
μουσουρου
##τηριας
πεστε
επεξηγη
σκιαθου
κομπο
δανιας
ανεξαρτητους
ξενογιαννακοπουλου
συντυχακης
παρασταθηκαν
αστεριου
indust
στερουνται
λυκουρεντζος
φερονται
συντελειται
αποστολακης
χαρακτηρισμους
προσαρμοζεται
ινστιτουτων
εγκληματικοτητα
μεσημβ
##λοδο
##395
ψωμια
κριτη
εφκα
αποφασισουν
γενναια
##183
συγκροτηματα
προειδοποιηση
ποδοσφαιρο
145793
869
706
491
εκτοξευ
αναγλυ
ζωντα
ενεργειακου
κτιριακες
σφαγεια
αυτονοητα
after
τσιπλακος
##ταρια
διευκρινισω
1ε
##γραψα
through
επανερχο
δελης
συζευ
ωριμα
##993
εκφραζω
παραθυρο
μμ
ενεργουνται
δικασιμο
βαρδα
ανοιξουμε
προαναφερθεντων
προσδιορισει
φορολογουμενο
αισθητικη
αντιπολιτευσεως
αποπροσανατο
χρηματοδοτηθει
operation
σλοβακια
ισοψηφιας
πρασια
θεοδωρας
καμπαν
εμπρος
ακολουθειτε
εξηγησα
ολιγω
##νειας
διαφορετικου
561
##ιζας
αρθρoυ
μπορεσετε
ενδιαμεσης
γιαννουλης
αξιοποιωντας
##573
energy
##579
θησαυ
αργυρη
ουκρανιας
εισερχονται
##αιρεση
ολοκληρωμενα
αρχαιολογων
γονεα
14650
μεταβιβασεις
εννιακοσια
γαβρογλου
εφαρμοσετε
λιγη
3979
απορριπτει
αφηνουν
αρθει
επιθυμω
διαδρομου
τσακλιδης
παραγομενων
εμπλα
εγκεκριμενης
ψυχιατρου
ευπαθεις
πεπραγμενων
αλιεις
παρακολουθησουν
λευκ
εγκαταστησει
λαυρε
μετρια
##κουλη
μισθωματα
αναμειξη
πρωτοδικης
686
πορευ
περιβαλλοντικο
νικητα
νεκροταφειων
ετικετα
gran
δικια
οριστικου
ζαχαροπλα
ελεγκτικη
πε17
πανεπιστημιακα
##καρπο
μηδενικη
ερμηνευτικη
γυμναστηριων
1027
λειτουργικου
##876
καταργησετε
συγκρουσεων
κτηματα
μεριδας
##991
εφοπλιστες
##ριε
##αρτο
διαβατηριο
εκπονει
παχους
καταφα
φραγμα
δημοσιευθηκαν
μεσογαιας
επικαλειστε
κατελη
θρησκευτικων
προσχωρησεως
σπυριδουλα
αγωγο
1667
1772
878
ικανοποιησει
υστερηση
δευτερολογιας
αξιολογηθει
##553
γεωλογων
1876
δεσφα
παρασκευοπουλος
χορτολιβα
υποθηκοφυλακειου
932
1288
15ο
αιρετους
πρακτορα
ταιπεδ
σκοτει
συγκυβερνηση
##τεμαχια
2947
4049
χειμερι
##βλητο
1007
γηροκομ
ξενοδοχειακης
στασεων
δραστηριοποιηση
count
εγκεφαλ
σημερινος
882
level
παπουτση
τεδκ
1068
##πεμ
αρχικες
αδμηε
βουλησης
διατηρωντας
τιμοκατα
14ο
απαιτη
6042
γνωστον
##σκευης
ψυξη
επιβεβαιωθει
καηκε
αναλγη
her
##λλης
επιλεξουν
συνηγορου
##ισματος
αρειο
##θοπουλου
καλλιω
επενδυτικη
συγγραφη
προσθεσουμε
##ader
ed
sont
λιτρο
αναλογου
##μνημον
δασμολογιο
αβρααμ
λωριδα
εννοειται
αποφευχθουν
εκποιησεως
##μιγκ
καταστραφεισας
1΄
mu
1010
διαμαντη
αντικαταστησει
745
αναβολης
οικιακης
εκαστη
αξιωματου
αεδ
προσωπικοτητας
541
εκδημοκρατισμος
αντινομαρχης
βαμβακιου
πονη
πραγματικος
χιονο
εξεταζουμε
##γελα
συγκροτηματων
σχηματισμο
κοινωνιολογιας
πταισματο
εισαγομενα
αλατα
κανονικοτητα
δελφων
κεκτημενο
δεξαμενοπλο
λεπτου
##391
χειροτε
διακρισης
συνεκτι
οικονομολογος
ενδυναμωση
tις
εη
##ss
##ρχους
πλεοναζοντα
ροβλιας
823
κηπευ
ρυθμιστει
##ove
μιλουσε
##ιβα
##κτηνοτροφ
ενδιαφερουσα
πλουσιο
συρμα
ακτινοδιαγνω
μπεντεν
##583
αμυντικης
εαυτους
εντοπιζεται
εγχωριου
επαρχιακου
οφειλομενες
911
##τωνη
περιεργο
ασθενης
τελειωνουμε
παφιλη
##εισα
δλ
##hr
ανοχης
σικα
καννα
1182
προωθησουμε
723
επιγειας
εισεπ
πωλουνται
oil
ισων
τετραγωνα
συγκρουσης
ελευσινα
επιστρατευ
κουτλιμπαν
υ2
##ομενον
870
διατυπωθηκαν
αμυνταιου
γκαν
ευφυ
πολιχνης
σταθεροποιησης
912
##λεας
##επικοινων
εισφορο
3072
##606
δασμολογικες
compet
απολαμβανει
##382
##ζαμε
απαραιτητως
joint
γιατρακος
αναβλη
δικαιοπρα
697
εισαγωγικη
συγκεντρωνονται
νυχτοφυλακων
##πειου
γονιμο
προεγκριση
αποδεικτικου
γειτονικες
##υτα
τραπεζικης
ακινητοποιη
οπλιτες
aids
##πομενη
##χιον
αρχιφυλακων
νοσηλευτικα
εξηγησετε
ανισοτητων
προορισμοι
1910
τριετης
μεγαρο
##509
προσπαθωντας
896
συγκεντρωνουν
##yr
γεμισ
1505
εκο
επιγνωση
##uris
πρακτορων
αμπελων
1782
##κετ
ακυρωσεως
1290
εβρο
πακετα
side
κρω
ισχυι
ξεκινησαμε
συμβαδ
ειλικρινης
##βελ
##χατε
παυλιδη
τσοβολα
##πρε
δημοπουλος
00μ
κυπριακης
κατηγοριοποιηση
713
καταφευ
κοινοποιουν
883
ακατεργαστη
κουτλιμπανειο
##τζαν
διατρε
κρυον
ανεπαρκης
εκχωρουνται
θεσις
κινητηρων
κεφαλλον
689
αμαξο
εσφαλμενη
καλεσει
##itions
αρχιπλοιαρχου
εξειδικευμενα
obligations
δαρ
κορεα
εγγραψει
ολγας
προκαταρκτικης
ητ
##χθεντα
εσπευ
χονδρικη
κατασκευαζεται
επιστρεψουν
δμεο
πεκ
μακρον
676
ανακληθηκε
συνδιαλλα
υποπεριπτωση
ημερομισθια
κενωθει
φωλιας
κυριοτερο
##701
ισοτιμων
ναυπηγο
εθελοντες
1039386
##val
πλουτος
υπογεγραμμενοι
protocol
στουρναρας
αναληψεις
1127
νικολε
αναγνωριζοντας
αντεισαγγελε
υποδεικνυει
οδοιπορικων
διαλογης
συστηνονται
αποφασιστει
##ceed
μεσολογγι
επικειμενη
παχτας
επιμα
ισχυρισμος
2628
κατετεθη
##559
χρηματικης
694
##ταρχη
728
λειτουργο
1002
βαθμιδων
##ident
σκουπι
##berg
πληροφορησετε
καραγκουνης
868
οπτικων
3149
##995
διαβιβαζουμε
προτιμησεων
τυπογραφειου
countries
##ποιημενης
bor
luc
υποτιθε
##ουμεθα
πεισετε
ανεγνω
αντωνοπουλος
εισιτηριου
8ου
##394
γνωμοδοτησει
τσιαρας
διυλιστηρια
δεσποζουσας
καρακωστας
##oy
μουρ
συνεχισετε
τβ
##da
κληθουν
διαχειριστικα
846
εγκληματικη
γεωτρησεις
purpos
σμα
σηκ
τοποθετηθηκε
θορυβου
τραγωδια
καρουν
διοικητρια
παρτιδας
εσωτερικους
##402
##375
στρατιωτικους
μεταβατικο
max
country
βιωνουμε
φιλε
σταθεροποιηση
υποκαταστηματων
##191
ταυτοτητος
##671
κατευθειαν
2187
παραγωγα
κοινοχρηστης
εκρηξη
προερχομενα
##br
μεταδιδ
##ζουσων
κυκλωματων
κατσιφαρας
ησσ
##φονη
συναφεια
παραδοξο
ροκ
νομαρχιακα
εγκρινο
απορριμματα
χατζηκωστα
μητροτητας
μπουκω
επιτυχοντες
εμβολιασμου
παλαμα
4057
μικροι
κατωτερου
##634
απεφασ
##πιπτουν
πλειοψηφ
επιστρεφει
αρµ
1123
ισοποση
##νευμα
##σθη
αξιοποιουνται
οργανωνονται
προετοιμαζει
αποσταλει
αντισυνταγματικο
πολυνομοσχε
χιον
##409
φρουτων
##κτ
αρτης
πεπονη
γεωργου
προκαλεσαν
καθημερινες
σοβιετικη
νοσηλευτες
οπωροκηπευτικα
εσχα
##κειμενου
ισπανικη
ντριας
αρταιων
τονισει
ειδικοτητος
015
##τιοι
##μοιωση
θυμισ
γραπτο
υποδιευθυνση
##τωv
απθ
προβλεφθουν
ασθενους
ανακοινωνουν
ραδιοσυχνοτητων
##602
ανακοινωθει
##use
κατεπειγοντος
1402
επαναφορας
βιλια
οριζοντιων
ελεγχον
υγιους
καμπυ
πολυτιμες
λαυρεωτικης
λειτουργικης
3113
μιλησαμε
αφησετε
λεκτορας
master
##ιπ
##ναι
##λεους
διοριζουμε
##ουλι
οικοθεν
διορισμοι
αποδεσμευση
υπανα
χοιρειου
μηχανογραφησης
τετραγωνικου
aριθ
κρισιν
εννοει
διδακτικης
µεριµνα
οχυ
γερακα
ναυτου
ζαχαριας
αριθμητικα
αφαιρει
ιωακει
επανυποβληθηκαν
##µες
##μιους
κορωνοιου
πκ
επιχω
821
##στεια
απαλλοτριου
αντιρριου
αιρεται
ποπ
δημοσιογραφοι
σταθουμε
συνηθων
##uf
δεξιας
τοπογραφικης
γυμνασια
συγχρηματοδοτουνται
ασιας
πλευρων
σταματιος
προαναφερομενο
επανελθουμε
ανοιξουν
περνανε
καισαριανης
##κρατια
αμμω
αναλυτικων
επικινδυνοτητας
775
γιγαρτο
καφεν
υποθηκοφυλακειο
µπορει
ετυχε
συναπτεται
αποδοσεως
μπαινουμε
672
επαρκες
γνωμοδοτησιν
απομονωση
αποταμιευ
καρποφορο
ασφαλτοστρω
τρισ
##πογλου
##ριτσα
οικιστικου
807
##376
ιατρειου
προεκυπ
ακαδημαικη
ιατροδικασ
##γενεις
υποχρεοι
δεσμευτικη
συνδυασμενη
χαρακτηριστικη
591
πουλερικα
αποδημων
ωρισ
ανει
στοχευση
επισμηνιας
##497
κατασκευαστες
αφαιρεθει
βηματος
προαιρετικη
sel
πολυξενη
##led
1908
γεωλογιας
3429
αχελω
ε4
##608
957
δυσχερειες
κρυβεται
925
αναθεωρησεις
διασφαλισουν
διαβατηριων
##γχα
##enti
##ely
##654
διακυβευ
επιμελητες
##ιζεστε
ανελκυστηρων
##θεας
ολοκληρωσουμε
κολυ
δασκαλος
αρπα
θετετε
κορω
[...]
